{
  "version": "1.0",
  "truncation": null,
  "padding": null,
  "added_tokens": [
    {
      "id": 0,
      "content": "[PAD]",
      "single_word": false,
      "lstrip": false,
      "rstrip": false,
      "normalized": false,
      "special": true
    },
    {
      "id": 1,
      "content": "[UNK]",
      "single_word": false,
      "lstrip": false,
      "rstrip": false,
      "normalized": false,
      "special": true
    },
    {
      "id": 2,
      "content": "[SEP]",
      "single_word": false,
      "lstrip": false,
      "rstrip": false,
      "normalized": false,
      "special": true
    },
    {
      "id": 3,
      "content": "[EOS]",
      "single_word": false,
      "lstrip": false,
      "rstrip": false,
      "normalized": false,
      "special": true
    }
  ],
  "normalizer": {
    "type": "NFC"
  },
  "pre_tokenizer": {
    "type": "ByteLevel",
    "add_prefix_space": false,
    "trim_offsets": true,
    "use_regex": false
  },
  "post_processor": null,
  "decoder": {
    "type": "ByteLevel",
    "add_prefix_space": true,
    "trim_offsets": true,
    "use_regex": true
  },
  "model": {
    "type": "BPE",
    "dropout": null,
    "unk_token": "[UNK]",
    "continuing_subword_prefix": null,
    "end_of_word_suffix": null,
    "fuse_unk": false,
    "byte_fallback": false,
    "ignore_merges": false,
    "vocab": {
      "[PAD]": 0,
      "[UNK]": 1,
      "[SEP]": 2,
      "[EOS]": 3,
      "!": 4,
      "\"": 5,
      "#": 6,
      "$": 7,
      "%": 8,
      "&": 9,
      "'": 10,
      "(": 11,
      ")": 12,
      "*": 13,
      "+": 14,
      ",": 15,
      "-": 16,
      ".": 17,
      "/": 18,
      "0": 19,
      "1": 20,
      "2": 21,
      "3": 22,
      "4": 23,
      "5": 24,
      "6": 25,
      "7": 26,
      "8": 27,
      "9": 28,
      ":": 29,
      ";": 30,
      "<": 31,
      "=": 32,
      ">": 33,
      "?": 34,
      "@": 35,
      "A": 36,
      "B": 37,
      "C": 38,
      "D": 39,
      "E": 40,
      "F": 41,
      "G": 42,
      "H": 43,
      "I": 44,
      "J": 45,
      "K": 46,
      "L": 47,
      "M": 48,
      "N": 49,
      "O": 50,
      "P": 51,
      "Q": 52,
      "R": 53,
      "S": 54,
      "T": 55,
      "U": 56,
      "V": 57,
      "W": 58,
      "X": 59,
      "Y": 60,
      "Z": 61,
      "[": 62,
      "\\": 63,
      "]": 64,
      "^": 65,
      "_": 66,
      "`": 67,
      "a": 68,
      "b": 69,
      "c": 70,
      "d": 71,
      "e": 72,
      "f": 73,
      "g": 74,
      "h": 75,
      "i": 76,
      "j": 77,
      "k": 78,
      "l": 79,
      "m": 80,
      "n": 81,
      "o": 82,
      "p": 83,
      "q": 84,
      "r": 85,
      "s": 86,
      "t": 87,
      "u": 88,
      "v": 89,
      "w": 90,
      "x": 91,
      "y": 92,
      "z": 93,
      "{": 94,
      "|": 95,
      "}": 96,
      "~": 97,
      "¡": 98,
      "¢": 99,
      "£": 100,
      "¤": 101,
      "¥": 102,
      "¦": 103,
      "§": 104,
      "¨": 105,
      "©": 106,
      "ª": 107,
      "«": 108,
      "¬": 109,
      "®": 110,
      "¯": 111,
      "°": 112,
      "±": 113,
      "²": 114,
      "³": 115,
      "´": 116,
      "µ": 117,
      "¶": 118,
      "·": 119,
      "¸": 120,
      "¹": 121,
      "º": 122,
      "»": 123,
      "¼": 124,
      "½": 125,
      "¾": 126,
      "¿": 127,
      "À": 128,
      "Á": 129,
      "Â": 130,
      "Ã": 131,
      "Ä": 132,
      "Å": 133,
      "Æ": 134,
      "Ç": 135,
      "È": 136,
      "É": 137,
      "Ê": 138,
      "Ë": 139,
      "Ì": 140,
      "Í": 141,
      "Î": 142,
      "Ï": 143,
      "Ð": 144,
      "Ñ": 145,
      "Ò": 146,
      "Ó": 147,
      "Ô": 148,
      "Õ": 149,
      "Ö": 150,
      "×": 151,
      "Ø": 152,
      "Ù": 153,
      "Ú": 154,
      "Û": 155,
      "Ü": 156,
      "Ý": 157,
      "Þ": 158,
      "ß": 159,
      "à": 160,
      "á": 161,
      "â": 162,
      "ã": 163,
      "ä": 164,
      "å": 165,
      "æ": 166,
      "ç": 167,
      "è": 168,
      "é": 169,
      "ê": 170,
      "ë": 171,
      "ì": 172,
      "í": 173,
      "î": 174,
      "ï": 175,
      "ð": 176,
      "ñ": 177,
      "ò": 178,
      "ó": 179,
      "ô": 180,
      "õ": 181,
      "ö": 182,
      "÷": 183,
      "ø": 184,
      "ù": 185,
      "ú": 186,
      "û": 187,
      "ü": 188,
      "ý": 189,
      "þ": 190,
      "ÿ": 191,
      "Ā": 192,
      "ā": 193,
      "Ă": 194,
      "ă": 195,
      "Ą": 196,
      "ą": 197,
      "Ć": 198,
      "ć": 199,
      "Ĉ": 200,
      "ĉ": 201,
      "Ċ": 202,
      "ċ": 203,
      "Č": 204,
      "č": 205,
      "Ď": 206,
      "ď": 207,
      "Đ": 208,
      "đ": 209,
      "Ē": 210,
      "ē": 211,
      "Ĕ": 212,
      "ĕ": 213,
      "Ė": 214,
      "ė": 215,
      "Ę": 216,
      "ę": 217,
      "Ě": 218,
      "ě": 219,
      "Ĝ": 220,
      "ĝ": 221,
      "Ğ": 222,
      "ğ": 223,
      "Ġ": 224,
      "ġ": 225,
      "Ģ": 226,
      "ģ": 227,
      "Ĥ": 228,
      "ĥ": 229,
      "Ħ": 230,
      "ħ": 231,
      "Ĩ": 232,
      "ĩ": 233,
      "Ī": 234,
      "ī": 235,
      "Ĭ": 236,
      "ĭ": 237,
      "Į": 238,
      "į": 239,
      "İ": 240,
      "ı": 241,
      "Ĳ": 242,
      "ĳ": 243,
      "Ĵ": 244,
      "ĵ": 245,
      "Ķ": 246,
      "ķ": 247,
      "ĸ": 248,
      "Ĺ": 249,
      "ĺ": 250,
      "Ļ": 251,
      "ļ": 252,
      "Ľ": 253,
      "ľ": 254,
      "Ŀ": 255,
      "ŀ": 256,
      "Ł": 257,
      "ł": 258,
      "Ń": 259,
      "eĠ": 260,
      "Ġì": 261,
      "ìĿ": 262,
      "nĠ": 263,
      "Ġë": 264,
      "dĠ": 265,
      "enĠ": 266,
      "ĭ¤": 267,
      "sĠ": 268,
      "heĠ": 269,
      "un": 270,
      "Ġê": 271,
      "gr": 272,
      "tĠ": 273,
      "ìĿĢ": 274,
      "ëĭ¤": 275,
      "ìĿ´": 276,
      "theĠ": 277,
      "ëĬ": 278,
      "Ġê²": 279,
      "Ġí": 280,
      "ëĬĶ": 281,
      "er": 282,
      "la": 283,
      "ch": 284,
      "al": 285,
      "ÃŁ": 286,
      "teĠ": 287,
      "ung": 288,
      "ĢĠì": 289,
      "ë¦": 290,
      "ei": 291,
      "¬ì": 292,
      "ol": 293,
      "ê°": 294,
      "ëĭ¤ëĬĶ": 295,
      "Ġê²ĥ": 296,
      "ëĭ¤ëĬĶĠê²ĥ": 297,
      "ĲĠì": 298,
      "ow": 299,
      "an": 300,
      "el": 301,
      "ëŀ": 302,
      "undĠ": 303,
      "bla": 304,
      "Ġë§": 305,
      "ar": 306,
      "ìĸ": 307,
      "Ã¼": 308,
      "ë¥": 309,
      "Ĥ¬ì": 310,
      "ĠtheĠ": 311,
      "onĠ": 312,
      "erĠ": 313,
      "isĠ": 314,
      "ëĭ¤.": 315,
      "andĠ": 316,
      "ueĠ": 317,
      "neĠ": 318,
      "ÃŁeĠ": 319,
      "low": 320,
      "ìĿ´Ġë": 321,
      "ĳìĿĢ": 322,
      "edĠ": 323,
      "gre": 324,
      "grÃ¼": 325,
      "geĠ": 326,
      "rgeĠ": 327,
      "ģ°": 328,
      "gro": 329,
      "largeĠ": 330,
      "ck": 331,
      "kl": 332,
      "lĠ": 333,
      "mal": 334,
      "smal": 335,
      "ŀĳìĿĢ": 336,
      "klei": 337,
      "smallĠ": 338,
      "jung": 339,
      "oung": 340,
      "young": 341,
      "´ë¦": 342,
      "youngĠ": 343,
      "´ë¦°": 344,
      "ĻìĿĢ": 345,
      "oldĠ": 346,
      "se": 347,
      "onĠd": 348,
      "vonĠd": 349,
      "ê³": 350,
      "undĠd": 351,
      "ckĠ": 352,
      "TheĠ": 353,
      "¨ë": 354,
      "ª¨ë": 355,
      "ĳĲĠì": 356,
      "ŀĪ": 357,
      "ĭ¤ìĿ´": 358,
      "ëĭ¤ëĬĶĠê²ĥìĿ´Ġë": 359,
      "ëĭ¤ëĬĶĠê²ĥê³": 360,
      "Ĥ¬ìĭ¤ìĿ´": 361,
      "andĠtheĠ": 362,
      "ª¨ëĳĲĠì": 363,
      "ëĭ¤ëĬĶĠê²ĥìĿ´Ġëª¨ëĳĲĠì": 364,
      "ëĭ¤ëĬĶĠê²ĥê³¼": 365,
      "Ĥ¬ìĭ¤ìĿ´ëĭ¤.": 366,
      "ëĭ¤ëĬĶĠê²ĥìĿ´Ġëª¨ëĳĲĠìĤ¬ìĭ¤ìĿ´ëĭ¤.": 367,
      "hi": 368,
      "ë¥¼": 369,
      "asĠ": 370,
      "em": 371,
      "emĠ": 372,
      "fol": 373,
      "ieĠ": 374,
      "ro": 375,
      "ķĺ": 376,
      "wei": 377,
      "Ġíģ°": 378,
      "Ġìĸ": 379,
      "ĬĻìĿĢ": 380,
      "zeĠ": 381,
      "ëŀĢ": 382,
      "gel": 383,
      "yel": 384,
      "ħ¸": 385,
      "Ġëħ¸": 386,
      "lowĠ": 387,
      "gelb": 388,
      "yellowĠ": 389,
      "sch": 390,
      "war": 391,
      "ĢìĿĢ": 392,
      "Ġê²ĢìĿĢ": 393,
      "blackĠ": 394,
      "schwar": 395,
      "bl": 396,
      "ĮĮ": 397,
      "ĠíĮĮ": 398,
      "blueĠ": 399,
      "ëŀĢĠì": 400,
      "groÃŁeĠ": 401,
      "kleineĠ": 402,
      "jungeĠ": 403,
      "redĠ": 404,
      "¨ê°": 405,
      "¹¨ê°": 406,
      "Ġë¹¨ê°": 407,
      "Ġë¹¨ê°Ħ": 408,
      "alteĠ": 409,
      "¡Ŀ": 410,
      "´Ī": 411,
      "ë¡Ŀ": 412,
      "ìĥ": 413,
      "Ġì´Ī": 414,
      "greenĠ": 415,
      "ë¡Ŀìĥ": 416,
      "Ġì´Īë¡Ŀìĥ": 417,
      "Ġì´Īë¡Ŀìĥī": 418,
      "ĠëĬĻìĿĢ": 419,
      "Ġê³": 420,
      "whi": 421,
      "Ġíķĺ": 422,
      "whiteĠ": 423,
      "Ġíķĺìĸ": 424,
      "vonĠdemĠ": 425,
      "tĠd": 426,
      "ë¦¬": 427,
      "uh": 428,
      "tenĠ": 429,
      "ê°Ģ": 430,
      "by": 431,
      "ir": 432,
      "is": 433,
      "wir": 434,
      "ìĹ": 435,
      "ìĿĺ": 436,
      "ĲĠìŀĪ": 437,
      "Ġë§Ī": 438,
      "byĠtheĠ": 439,
      "istĠ": 440,
      "wirdĠ": 441,
      "ìĹĲĠìŀĪ": 442,
      "he": 443,
      "ÃŁenĠ": 444,
      "nenĠ": 445,
      "ĠìŀĳìĿĢ": 446,
      "Ġìĸ´ë¦°": 447,
      "n.": 448,
      "ê°ĢĠì": 449,
      "ìĿĺĠì": 450,
      "seĠ": 451,
      "Ĵ¤": 452,
      "ĠisĠ": 453,
      "gelbeĠ": 454,
      "schwarzeĠ": 455,
      "do": 456,
      "at": 457,
      "blaueĠ": 458,
      "li": 459,
      "roteĠ": 460,
      "grÃ¼neĠ": 461,
      "weiÃŁeĠ": 462,
      "sĠtheĠ": 463,
      "ab": 464,
      "or": 465,
      "ĺ¤": 466,
      "be": 467,
      "ĠëĴ¤": 468,
      "fo": 469,
      "Ĺ¬ì": 470,
      "ë¥¸": 471,
      "ŀìĿ´": 472,
      "Ġë§ŀìĿ´": 473,
      "gree": 474,
      "grÃ¼ÃŁ": 475,
      "Ġë§ŀìĿ´í": 476,
      "edĠbyĠtheĠ": 477,
      "ver": 478,
      "ëĶ": 479,
      "folg": 480,
      "follow": 481,
      "verfolg": 482,
      "ëĶ°": 483,
      "ge": 484,
      "ìĿĦ": 485,
      "Ã¤": 486,
      "ĳìĿ´": 487,
      "ĠandĠtheĠ": 488,
      "si": 489,
      "Ġëħ¸ëŀĢ": 490,
      "LÃ": 491,
      "¶w": 492,
      "Ĥ¬ìŀ": 493,
      "LÃ¶w": 494,
      "°ľ": 495,
      "Ġê°ľ": 496,
      "dog": 497,
      "ĭŃ": 498,
      "ĠëĭŃ": 499,
      "groÃŁenĠ": 500,
      "ĠíĮĮëŀĢĠì": 501,
      "greet": 502,
      "Sch": 503,
      "af": 504,
      "ep": 505,
      "she": 506,
      "Schaf": 507,
      "sheep": 508,
      "cow": 509,
      "ĨĮ": 510,
      "t.": 511,
      "jungenĠ": 512,
      "ĠíĮĮëŀĢ": 513,
      "Ġëħ¸ëŀĢĠì": 514,
      "kleinenĠ": 515,
      "Pf": 516,
      "hor": 517,
      "Pfer": 518,
      "Kan": 519,
      "bi": 520,
      "in": 521,
      "rab": 522,
      "ëģ": 523,
      "Ĩł": 524,
      "ĠíĨł": 525,
      "Kanin": 526,
      "rabbi": 527,
      "ëģ¼": 528,
      "ĠíĨłëģ¼": 529,
      "Kaninch": 530,
      "Kat": 531,
      "łìĸ": 532,
      "Ġê³łìĸ": 533,
      "altenĠ": 534,
      "En": 535,
      "du": 536,
      "ĺ¤ë¦¬": 537,
      "ĠíķĺìĸĢĠì": 538,
      "ĠíķĺìĸĢ": 539,
      "BÃ¤": 540,
      "Ġê³°": 541,
      "bear": 542,
      "BÃ¤r": 543,
      "Ĥ¬ìŀĲ": 544,
      "ĠëĴ¤ëĶ°": 545,
      "s.": 546,
      "vonĠderĠ": 547,
      "ļ°": 548,
      "fox": 549,
      "Ĺ¬ìļ°": 550,
      "henĠ": 551,
      "Ġë³": 552,
      "¥Ĳ": 553,
      "chsĠ": 554,
      "Ġê³łìĸĳìĿ´": 555,
      "Ġë§Ĳ": 556,
      "chtĠ": 557,
      "Huh": 558,
      "Kuh": 559,
      "undĠdasĠ": 560,
      "Ma": 561,
      "mo": 562,
      "Mau": 563,
      "mou": 564,
      "ķľ": 565,
      "Ġë§ŀìĿ´íķľ": 566,
      "ìŀĳìĿĢ": 567,
      "fĠtheĠ": 568,
      "ofĠtheĠ": 569,
      "tĠofĠtheĠ": 570,
      "ëĬĻìĿĢ": 571,
      "DerĠ": 572,
      "DieĠ": 573,
      "EsĠ": 574,
      "Th": 575,
      "gi": 576,
      "ni": 577,
      "no": 578,
      "§ĢĠì": 579,
      "ì§ĢĠì": 580,
      "íģ°": 581,
      "ĬëĬĶ": 582,
      "ķĬëĬĶ": 583,
      "eĠar": 584,
      "ereĠar": 585,
      "ë¦¬ì": 586,
      "ŀĪëĭ¤.": 587,
      "ë¦¬ê°ĢĠì": 588,
      "Ġë§Īë¦¬ì": 589,
      "Ġë§Īë¦¬ê°ĢĠì": 590,
      "ìĹĲĠìŀĪëĭ¤ëĬĶĠê²ĥê³¼": 591,
      "ìĹĲĠìŀĪëĭ¤ëĬĶĠê²ĥìĿ´Ġëª¨ëĳĲĠìĤ¬ìĭ¤ìĿ´ëĭ¤.": 592,
      "EsĠgi": 593,
      "ThereĠar": 594,
      "notĠ": 595,
      "ì§ĢĠìķĬëĬĶ": 596,
      "Ġë§Īë¦¬ìĻ": 597,
      "Ġë§Īë¦¬ê°ĢĠìŀĪëĭ¤.": 598,
      "EsĠgib": 599,
      "ThereĠareĠ": 600,
      "wirdĠvonĠdemĠ": 601,
      "Ġê²ĢìĿĢĠì": 602,
      "DasĠ": 603,
      "ìĸ´ë¦°": 604,
      "undĠderĠ": 605,
      "undĠdieĠ": 606,
      "Ġì´Īë¡ĿìĥīĠì": 607,
      "sie": 608,
      "Ġë¹¨ê°ĦĠì": 609,
      "Fu": 610,
      "KaninchenĠ": 611,
      "HuhnĠ": 612,
      "HundĠ": 613,
      "zenĠ": 614,
      "MausĠ": 615,
      "KuhĠ": 616,
      "SchafĠ": 617,
      "EsĠgibtĠ": 618,
      "EnteĠ": 619,
      "en.": 620,
      "ĠëĴ¤ëĶ°ë¥¸": 621,
      "KatzeĠ": 622,
      "PferdĠ": 623,
      "sĠandĠ": 624,
      "Ġë³¸": 625,
      "FuchsĠ": 626,
      "uenĠ": 627,
      "blauenĠ": 628,
      "gelbenĠ": 629,
      "schwarzenĠ": 630,
      "rotenĠ": 631,
      "weiÃŁenĠ": 632,
      "grÃ¼nenĠ": 633,
      "mouseĠ": 634,
      "TheĠsmallĠ": 635,
      "nichtĠ": 636,
      "TheĠlargeĠ": 637,
      "TheĠoldĠ": 638,
      "TheĠyoungĠ": 639,
      "lionĠ": 640,
      "duckĠ": 641,
      "ca": 642,
      "horseĠ": 643,
      "rabbitĠ": 644,
      "catĠ": 645,
      "oĠtheĠ": 646,
      "toĠtheĠ": 647,
      "ª½": 648,
      "ìª½": 649,
      "bĠ": 650,
      "hal": 651,
      "erhal": 652,
      "erhalbĠ": 653,
      "grÃ¼ÃŁtĠd": 654,
      "gegrÃ¼ÃŁ": 655,
      "greetedĠbyĠtheĠ": 656,
      "followedĠbyĠtheĠ": 657,
      "verfolgtĠd": 658,
      "´ì§ĢĠìķĬëĬĶ": 659,
      "se.": 660,
      "htĠd": 661,
      "enĠbyĠtheĠ": 662,
      "seenĠbyĠtheĠ": 663,
      "ìĿĺĠìķ": 664,
      "gese": 665,
      "siehtĠd": 666,
      "hin": 667,
      "veĠ": 668,
      "e.": 669,
      "gh": 670,
      "re": 671,
      "hen.": 672,
      "ĸ´ë¦°": 673,
      "Ħ¯": 674,
      "LÃ¶weĠ": 675,
      "Ġë§ŀìĿ´íķľëĭ¤ëĬĶĠê²ĥìĿ´Ġëª¨ëĳĲĠìĤ¬ìĭ¤ìĿ´ëĭ¤.": 676,
      "ëĭ¤ëĬĶĠê²ĥê³¼ĠìŀĳìĿĢ": 677,
      "Ġë§Īë¦¬ìĻĢ": 678,
      "greetsĠtheĠ": 679,
      "followsĠtheĠ": 680,
      "ëĭ¤ëĬĶĠê²ĥê³¼Ġíģ°": 681,
      "wirdĠvonĠderĠ": 682,
      "esĠ": 683,
      "ëĭ¤ëĬĶĠê²ĥê³¼Ġìĸ´ë¦°": 684,
      "wirdĠnichtĠ": 685,
      "esĠnotĠ": 686,
      "Ġë§Īë¦¬ìĻĢĠì": 687,
      "ëĭ¤ëĬĶĠê²ĥê³¼ĠëĬĻìĿĢ": 688,
      "esĠtheĠ": 689,
      "seesĠtheĠ": 690,
      "BÃ¤rĠ": 691,
      "largeĠyellowĠ": 692,
      "youngĠredĠ": 693,
      "smallĠblackĠ": 694,
      "oldĠblueĠ": 695,
      "largeĠblueĠ": 696,
      "oldĠredĠ": 697,
      "oldĠyellowĠ": 698,
      "youngĠblackĠ": 699,
      "largeĠblackĠ": 700,
      "smallĠwhiteĠ": 701,
      "smallĠgreenĠ": 702,
      "youngĠgreenĠ": 703,
      "largeĠgreenĠ": 704,
      "smallĠblueĠ": 705,
      "smallĠyellowĠ": 706,
      "LÃ¶wenĠ": 707,
      "erhalbĠvonĠdemĠ": 708,
      "sĠvonĠdemĠ": 709,
      "largeĠredĠ": 710,
      "largeĠwhiteĠ": 711,
      "youngĠwhiteĠ": 712,
      "youngĠyellowĠ": 713,
      "youngĠblueĠ": 714,
      "oldĠgreenĠ": 715,
      "demĠ": 716,
      "smallĠredĠ": 717,
      "oldĠblackĠ": 718,
      "oldĠwhiteĠ": 719,
      "BÃ¤renĠ": 720,
      "lio": 721,
      "cat": 722,
      "Ġìĸĳ": 723,
      "Ġë³¸ëĭ¤ëĬĶĠê²ĥìĿ´Ġëª¨ëĳĲĠìĤ¬ìĭ¤ìĿ´ëĭ¤.": 724,
      "groÃŁeĠgelbeĠ": 725,
      "ĠëĴ¤ëĶ°ë¥¸ëĭ¤ëĬĶĠê²ĥìĿ´Ġëª¨ëĳĲĠìĤ¬ìĭ¤ìĿ´ëĭ¤.": 726,
      "kleineĠschwarzeĠ": 727,
      "duck": 728,
      "alteĠblaueĠ": 729,
      "ĸĳ": 730,
      "alteĠgelbeĠ": 731,
      "jungeĠroteĠ": 732,
      "alteĠroteĠ": 733,
      "groÃŁeĠblaueĠ": 734,
      "groÃŁeĠschwarzeĠ": 735,
      "jungeĠschwarzeĠ": 736,
      "kleineĠweiÃŁeĠ": 737,
      "kleineĠgelbeĠ": 738,
      "jungeĠgrÃ¼neĠ": 739,
      "kleineĠblaueĠ": 740,
      "isĠtoĠtheĠ": 741,
      "kleineĠgrÃ¼neĠ": 742,
      "groÃŁeĠgrÃ¼neĠ": 743,
      "jungeĠweiÃŁeĠ": 744,
      "jungeĠgelbeĠ": 745,
      "groÃŁeĠroteĠ": 746,
      "groÃŁeĠweiÃŁeĠ": 747,
      "alteĠschwarzeĠ": 748,
      "alteĠgrÃ¼neĠ": 749,
      "doesĠnotĠ": 750,
      "jungeĠblaueĠ": 751,
      "kleineĠroteĠ": 752,
      "alteĠweiÃŁeĠ": 753,
      "Ĥ¬ìŀĲë¥¼": 754,
      "ëĬĶĠíģ°": 755,
      "Ġê°ľë¥¼": 756,
      "ĠëĭŃìĿĦ": 757,
      "cowĠisĠ": 758,
      "¥Ĳë¥¼": 759,
      "ef": 760,
      "igh": 761,
      "lef": 762,
      "nk": 763,
      "righ": 764,
      "¼ìª½": 765,
      "Ļ¼ìª½": 766,
      "cht": 767,
      "istĠli": 768,
      "istĠre": 769,
      "ìĿĺĠìĺ¤": 770,
      "ìĿĺĠìĻ¼ìª½": 771,
      "ë¥¸ìª½": 772,
      "sheepĠisĠ": 773,
      "leftĠofĠtheĠ": 774,
      "rightĠofĠtheĠ": 775,
      "istĠlink": 776,
      "istĠrecht": 777,
      "ìĿĺĠìĺ¤ë¥¸ìª½": 778,
      "ê°ĢĠìŀĳìĿĢ": 779,
      "dogĠisĠ": 780,
      "Hun": 781,
      "Hund": 782,
      "ê°ĢĠìĸ´ë¦°": 783,
      "sheep.": 784,
      "bel": 785,
      "ob": 786,
      "oveĠ": 787,
      "Ħëŀ": 788,
      "ľĦ": 789,
      "unt": 790,
      "owĠtheĠ": 791,
      "istĠob": 792,
      "istĠunt": 793,
      "ìĿĺĠìľĦ": 794,
      "aboveĠ": 795,
      "ìĿĺĠìķĦëŀ": 796,
      "belowĠtheĠ": 797,
      "aboveĠtheĠ": 798,
      "ìĿĺĠìķĦëŀĺ": 799,
      "ĺ¤ë¦¬ë¥¼": 800,
      "gegrÃ¼ÃŁtĠ": 801,
      "gegrÃ¼ÃŁt.": 802,
      "ê°ĢĠíģ°": 803,
      "ĨĮë¥¼": 804,
      "verfolgtĠ": 805,
      "verfolgt.": 806,
      "wirdĠnichtĠvonĠdemĠ": 807,
      "ķĺì§ĢĠìķĬëĬĶ": 808,
      "Ġë§ŀìĿ´íķĺì§ĢĠìķĬëĬĶ": 809,
      "ĠíĨłëģ¼ë¥¼": 810,
      "´ì§ĢĠìķĬëĬĶëĭ¤ëĬĶĠê²ĥìĿ´Ġëª¨ëĳĲĠìĤ¬ìĭ¤ìĿ´ëĭ¤.": 811,
      "gesehenĠ": 812,
      "gesehen.": 813,
      "ê°ĢĠëĬĻìĿĢ": 814,
      "ëĬĶĠëĬĻìĿĢ": 815,
      "bearĠisĠ": 816,
      "fro": 817,
      "inĠ": 818,
      "ntĠofĠtheĠ": 819,
      "terĠ": 820,
      "vor": 821,
      "dĠtheĠ": 822,
      "ìĿĺĠëĴ¤": 823,
      "istĠhin": 824,
      "istĠvor": 825,
      "behin": 826,
      "ìĿĺĠìķŀ": 827,
      "frontĠofĠtheĠ": 828,
      "inĠfrontĠofĠtheĠ": 829,
      "istĠhinterĠ": 830,
      "istĠvorĠ": 831,
      "behindĠtheĠ": 832,
      "Pferd": 833,
      "Ġê³łìĸĳìĿ´ë¥¼": 834,
      "Ġê³°ìĿĦ": 835,
      "ëĬĶĠìĸ´ë¦°": 836,
      "ëĬĶĠìŀĳìĿĢ": 837,
      "Ġë§ĲìĿĦ": 838,
      "Ĺ¬ìļ°ë¥¼": 839,
      "foxĠisĠ": 840,
      "benĠ": 841,
      "fi": 842,
      "fĠ": 843,
      "fÃ¼": 844,
      "nfĠ": 845,
      "venĠ": 846,
      "¼ê³": 847,
      "ìĦ¯": 848,
      "Ŀ¼ê³": 849,
      "ĭ¤ìĦ¯": 850,
      "isĠgreetedĠbyĠtheĠ": 851,
      "sevenĠ": 852,
      "siebenĠ": 853,
      "fiveĠ": 854,
      "fÃ¼nfĠ": 855,
      "Ŀ¼ê³±": 856,
      "isĠnotĠ": 857,
      "isĠfollowedĠbyĠtheĠ": 858,
      "ierĠ": 859,
      "rĠ": 860,
      "urĠ": 861,
      "vierĠ": 862,
      "Ħ¤": 863,
      "fourĠ": 864,
      "isĠseenĠbyĠtheĠ": 865,
      "achtĠ": 866,
      "¬ë": 867,
      "įŁ": 868,
      "Ĺ¬ë": 869,
      "eigh": 870,
      "Ĺ¬ëįŁ": 871,
      "eightĠ": 872,
      "hre": 873,
      "rei": 874,
      "thre": 875,
      "Ħ¸": 876,
      "reiĠ": 877,
      "threeĠ": 878,
      "ĠëĴ¤ëĶ°ë¥": 879,
      "oĠ": 880,
      "tw": 881,
      "zwei": 882,
      "ĳĲ": 883,
      "twoĠ": 884,
      "zweiĠ": 885,
      "xĠ": 886,
      "sechsĠ": 887,
      "Ĺ¬ìĦ¯": 888,
      "sixĠ": 889,
      "ĠëĦ¤": 890,
      "Ġëĭ¤ìĦ¯": 891,
      "ìĹĲĠìŀĪëĭ¤ëĬĶĠê²ĥê³¼Ġíģ°": 892,
      "lionĠandĠtheĠ": 893,
      "lion.": 894,
      "henĠandĠtheĠ": 895,
      "dog.": 896,
      "mouseĠandĠtheĠ": 897,
      "wirdĠvonĠdemĠkleinenĠ": 898,
      "cow.": 899,
      "wirdĠvonĠdemĠgroÃŁenĠ": 900,
      "Ġë§Īë¦¬ìĻĢĠëĬĻìĿĢ": 901,
      "dogĠandĠtheĠ": 902,
      "ìĹĲĠìŀĪëĭ¤ëĬĶĠê²ĥê³¼Ġìĸ´ë¦°": 903,
      "cowĠandĠtheĠ": 904,
      "sheepĠandĠtheĠ": 905,
      "Ġë§Īë¦¬ìĻĢĠíģ°": 906,
      "duckĠandĠtheĠ": 907,
      "cat.": 908,
      "cht.": 909,
      "rabbit.": 910,
      "nicht.": 911,
      "mouse.": 912,
      "ĠëĳĲ": 913,
      "sheepĠ": 914,
      "horse.": 915,
      "Ġë§Īë¦¬ìĻĢĠìĸ´ë¦°": 916,
      "Ġë§Īë¦¬ìĻĢĠìŀĳìĿĢ": 917,
      "bearĠandĠtheĠ": 918,
      "wirdĠvonĠdemĠjungenĠ": 919,
      "rabbitĠandĠtheĠ": 920,
      "ìĹĲĠìŀĪëĭ¤ëĬĶĠê²ĥê³¼ĠìŀĳìĿĢ": 921,
      "horseĠandĠtheĠ": 922,
      "wirdĠvonĠdemĠaltenĠ": 923,
      "catĠandĠtheĠ": 924,
      "bear.": 925,
      "duck.": 926,
      "ìĹĲĠìŀĪëĭ¤ëĬĶĠê²ĥê³¼ĠëĬĻìĿĢ": 927,
      "foxĠandĠtheĠ": 928,
      "fox.": 929,
      "Katz": 930,
      "LÃ¶wen.": 931,
      "istĠrechtsĠvonĠdemĠ": 932,
      "grÃ¼ÃŁtĠdieĠ": 933,
      "istĠunterhalbĠvonĠdemĠ": 934,
      "grÃ¼ÃŁtĠdasĠ": 935,
      "verfolgtĠdenĠ": 936,
      "siehtĠdenĠ": 937,
      "istĠoberhalbĠvonĠdemĠ": 938,
      "eĠundĠ": 939,
      "sĠvonĠderĠ": 940,
      "BÃ¤ren.": 941,
      "istĠlinksĠvonĠdemĠ": 942,
      "verfolgtĠdieĠ": 943,
      "ìĿ´ĠëĴ¤": 944,
      "ìĿ´ĠëĴ¤ëĶ°": 945,
      "Kaninchen.": 946,
      "istĠvorĠdemĠ": 947,
      "siehtĠdasĠ": 948,
      "erhalbĠvonĠderĠ": 949,
      "verfolgtĠdasĠ": 950,
      "ìĿ´Ġë³": 951,
      "ĠìĦ¸": 952,
      "siehtĠdieĠ": 953,
      "grÃ¼ÃŁtĠdenĠ": 954,
      "derĠ": 955,
      "ĠìĹ¬ëįŁ": 956,
      "Ent": 957,
      "ĠìĿ¼ê³±": 958,
      "istĠhinterĠdemĠ": 959,
      "isĠaboveĠtheĠ": 960,
      "ĠìĹ¬ìĦ¯": 961,
      "isĠbelowĠtheĠ": 962,
      "isĠtoĠtheĠrightĠofĠtheĠ": 963,
      "isĠbehindĠtheĠ": 964,
      "isĠinĠfrontĠofĠtheĠ": 965,
      "isĠtoĠtheĠleftĠofĠtheĠ": 966,
      "ĠëĭŃìĿ´": 967,
      "horse": 968,
      "ĠëĭŃìĿĢ": 969,
      "Ġê³°ìĿ´": 970,
      "MÃ¤": 971,
      "ic": 972,
      "mic": 973,
      "MÃ¤u": 974,
      "Ġë§ĲìĿ´": 975,
      "Ĥ¬ìŀĲê°Ģ": 976,
      "Ġê°ľê°Ģ": 977,
      "dogĠ": 978,
      "ìĿĺĠìķĦëŀĺìĹĲĠìŀĪëĭ¤ëĬĶĠê²ĥìĿ´Ġëª¨ëĳĲĠìĤ¬ìĭ¤ìĿ´ëĭ¤.": 979,
      "¥Ĳê°Ģ": 980,
      "ìĿĺĠìĺ¤ë¥¸ìª½ìĹĲĠìŀĪëĭ¤ëĬĶĠê²ĥìĿ´Ġëª¨ëĳĲĠìĤ¬ìĭ¤ìĿ´ëĭ¤.": 981,
      "Ġë§ĲìĿĢ": 982,
      "ìĿĺĠëĴ¤ìĹĲĠìŀĪëĭ¤ëĬĶĠê²ĥìĿ´Ġëª¨ëĳĲĠìĤ¬ìĭ¤ìĿ´ëĭ¤.": 983,
      "ìĿĺĠìĻ¼ìª½ìĹĲĠìŀĪëĭ¤ëĬĶĠê²ĥìĿ´Ġëª¨ëĳĲĠìĤ¬ìĭ¤ìĿ´ëĭ¤.": 984,
      "eĠtheĠ": 985,
      "seeĠtheĠ": 986,
      "ĺ¤ë¦¬ê°Ģ": 987,
      "ĸĳìĿĦ": 988,
      "cowĠ": 989,
      "ĨĮê°Ģ": 990,
      "ĠìĸĳìĿĦ": 991,
      "ìĿ´ĠëĴ¤ëĶ°ë¥¸": 992,
      "wirdĠnichtĠvonĠderĠ": 993,
      "tĠtheĠ": 994,
      "greetĠtheĠ": 995,
      "ĠíĨłëģ¼ê°Ģ": 996,
      "rabbit": 997,
      "Ġë§ŀìĿ´íķĺì§ĢĠìķĬëĬĶëĭ¤ëĬĶĠê²ĥìĿ´Ġëª¨ëĳĲĠìĤ¬ìĭ¤ìĿ´ëĭ¤.": 998,
      "ìĿĺĠìľĦìĹĲĠìŀĪëĭ¤ëĬĶĠê²ĥìĿ´Ġëª¨ëĳĲĠìĤ¬ìĭ¤ìĿ´ëĭ¤.": 999,
      "Ġê³°ìĿĢ": 1000,
      "followĠtheĠ": 1001,
      "jungenĠrotenĠ": 1002,
      "ìĿ´ĠëĬĻìĿĢ": 1003,
      "ìĿ´Ġë³¸": 1004,
      "lion": 1005,
      "Ġê³łìĸĳìĿ´ê°Ģ": 1006,
      "FÃ¼": 1007,
      "bearĠ": 1008,
      "foxe": 1009,
      "FÃ¼ch": 1010,
      "groÃŁenĠblauenĠ": 1011,
      "groÃŁenĠgelbenĠ": 1012,
      "jungenĠschwarzenĠ": 1013,
      "foxĠ": 1014,
      "Ĺ¬ìļ°ê°Ģ": 1015,
      "HÃ¼": 1016,
      "hn": 1017,
      "hen": 1018,
      "HÃ¼hn": 1019,
      "ìĿĺĠìķŀìĹĲĠìŀĪëĭ¤ëĬĶĠê²ĥìĿ´Ġëª¨ëĳĲĠìĤ¬ìĭ¤ìĿ´ëĭ¤.": 1020,
      "kleinenĠschwarzenĠ": 1021,
      "altenĠblauenĠ": 1022,
      "KÃ¼": 1023,
      "Huhn.": 1024,
      "altenĠgelbenĠ": 1025,
      "altenĠrotenĠ": 1026,
      "groÃŁenĠweiÃŁenĠ": 1027,
      "kleinenĠweiÃŁenĠ": 1028,
      "groÃŁenĠgrÃ¼nenĠ": 1029,
      "Hund.": 1030,
      "groÃŁenĠschwarzenĠ": 1031,
      "Kuh.": 1032,
      "jungenĠgelbenĠ": 1033,
      "kleinenĠgrÃ¼nenĠ": 1034,
      "altenĠweiÃŁenĠ": 1035,
      "kleinenĠblauenĠ": 1036,
      "Schaf.": 1037,
      "groÃŁenĠrotenĠ": 1038,
      "jungenĠgrÃ¼nenĠ": 1039,
      "jungenĠblauenĠ": 1040,
      "ThereĠareĠfiveĠ": 1041,
      "EsĠgibtĠfÃ¼nfĠ": 1042,
      "Katze.": 1043,
      "kleinenĠgelbenĠ": 1044,
      "tĠdreiĠ": 1045,
      "EsĠgibtĠdreiĠ": 1046,
      "ThereĠareĠthreeĠ": 1047,
      "altenĠgrÃ¼nenĠ": 1048,
      "kleinenĠrotenĠ": 1049,
      "ThereĠareĠsevenĠ": 1050,
      "EsĠgibtĠsiebenĠ": 1051,
      "Pferd.": 1052,
      "toĠtheĠleftĠofĠtheĠ": 1053,
      "jungenĠweiÃŁenĠ": 1054,
      "ThereĠareĠeightĠ": 1055,
      "EsĠgibtĠachtĠ": 1056,
      "Maus.": 1057,
      "seĠundĠ": 1058,
      "ThereĠareĠfourĠ": 1059,
      "EsĠgibtĠvierĠ": 1060,
      "altenĠschwarzenĠ": 1061,
      "toĠtheĠrightĠofĠtheĠ": 1062,
      "Ġë³´ì§ĢĠìķĬëĬĶ": 1063,
      "Ġë³´ì§ĢĠìķĬëĬĶëĭ¤ëĬĶĠê²ĥìĿ´Ġëª¨ëĳĲĠìĤ¬ìĭ¤ìĿ´ëĭ¤.": 1064,
      "undĠdreiĠ": 1065,
      "ĠëĴ¤ëĶ°ë¥´ì§ĢĠìķĬëĬĶëĭ¤ëĬĶĠê²ĥìĿ´Ġëª¨ëĳĲĠìĤ¬ìĭ¤ìĿ´ëĭ¤.": 1066,
      "ThereĠareĠtwoĠ": 1067,
      "EsĠgibtĠzweiĠ": 1068,
      "ĠëĴ¤ëĶ°ë¥´ì§ĢĠìķĬëĬĶ": 1069,
      "chs.": 1070,
      "Fuchs.": 1071,
      "ĠëĦ¤Ġë§Īë¦¬ê°ĢĠìŀĪëĭ¤.": 1072,
      "Ġëĭ¤ìĦ¯Ġë§Īë¦¬ê°ĢĠìŀĪëĭ¤.": 1073,
      "TheĠlargeĠyellowĠ": 1074,
      "Ġë§ŀìĿ´íķľëĭ¤ëĬĶĠê²ĥê³¼Ġìĸ´ë¦°": 1075,
      "TheĠsmallĠblackĠ": 1076,
      "ThereĠareĠsixĠ": 1077,
      "EsĠgibtĠsechsĠ": 1078,
      "TheĠyoungĠblackĠ": 1079,
      "TheĠoldĠblueĠ": 1080,
      "Ente.": 1081,
      "TheĠoldĠyellowĠ": 1082,
      "TheĠsmallĠwhiteĠ": 1083,
      "TheĠyoungĠredĠ": 1084,
      "TheĠlargeĠblackĠ": 1085,
      "oesĠnotĠ": 1086,
      "TheĠlargeĠblueĠ": 1087,
      "TheĠyoungĠyellowĠ": 1088,
      "TheĠsmallĠblueĠ": 1089,
      "TheĠsmallĠgreenĠ": 1090,
      "doesĠnotĠgreetĠtheĠ": 1091,
      "sĠandĠsevenĠ": 1092,
      "TheĠyoungĠgreenĠ": 1093,
      "doesĠnotĠfollowĠtheĠ": 1094,
      "sĠandĠfiveĠ": 1095,
      "doesĠnotĠseeĠtheĠ": 1096,
      "Ġë¹¨ê°ĦĠê°ľ": 1097,
      "sĠandĠfourĠ": 1098,
      "TheĠsmallĠyellowĠ": 1099,
      "TheĠoldĠwhiteĠ": 1100,
      "Ġë§ŀìĿ´íķľëĭ¤ëĬĶĠê²ĥê³¼ĠìŀĳìĿĢ": 1101,
      "ĠëĳĲĠë§Īë¦¬ê°ĢĠìŀĪëĭ¤.": 1102,
      "Ġë§ŀìĿ´íķľëĭ¤ëĬĶĠê²ĥê³¼ĠëĬĻìĿĢ": 1103,
      "TheĠoldĠredĠ": 1104,
      "TheĠlargeĠwhiteĠ": 1105,
      "sĠandĠeightĠ": 1106,
      "Ġë§ŀìĿ´íķľëĭ¤ëĬĶĠê²ĥê³¼Ġíģ°": 1107,
      "TheĠoldĠgreenĠ": 1108,
      "TheĠlargeĠgreenĠ": 1109,
      "TheĠoldĠblackĠ": 1110,
      "TheĠyoungĠwhiteĠ": 1111,
      "TheĠlargeĠredĠ": 1112,
      "TheĠsmallĠredĠ": 1113,
      "ĠíķĺìĸĢĠê°ľ": 1114,
      "Ġëħ¸ëŀĢĠê°ľ": 1115,
      "Ġëħ¸ëŀĢĠíĨłëģ¼": 1116,
      "sĠandĠthreeĠ": 1117,
      "TheĠyoungĠblueĠ": 1118,
      "Ġëħ¸ëŀĢĠìĨĮ": 1119,
      "istĠlinksĠvonĠderĠ": 1120,
      "ĠíķĺìĸĢĠìĺ¤ë¦¬": 1121,
      "ĠíĮĮëŀĢĠìĨĮ": 1122,
      "gegrÃ¼ÃŁtĠundĠdasĠ": 1123,
      "sĠandĠsixĠ": 1124,
      "Ġì´Īë¡ĿìĥīĠìĹ¬ìļ°": 1125,
      "gesehenĠundĠdieĠ": 1126,
      "Ġê²ĢìĿĢĠìĨĮ": 1127,
      "Ġë¹¨ê°ĦĠíĨłëģ¼": 1128,
      "ĠíĮĮëŀĢĠê°ľ": 1129,
      "Ġë¹¨ê°ĦĠìĺ¤ë¦¬": 1130,
      "gegrÃ¼ÃŁtĠundĠderĠ": 1131,
      "verfolgtĠundĠderĠ": 1132,
      "ĠìĿ¼ê³±Ġë§Īë¦¬ê°ĢĠìŀĪëĭ¤.": 1133,
      "ĠëĴ¤ëĶ°ë¥¸ëĭ¤ëĬĶĠê²ĥê³¼Ġíģ°": 1134,
      "Ġì´Īë¡ĿìĥīĠíĨłëģ¼": 1135,
      "ĠíķĺìĸĢĠìĨĮ": 1136,
      "verfolgtĠundĠdieĠ": 1137,
      "Ġë¹¨ê°ĦĠìĨĮ": 1138,
      "sĠandĠtwoĠ": 1139,
      "istĠhinterĠderĠ": 1140,
      "verfolgtĠundĠdasĠ": 1141,
      "istĠoberhalbĠvonĠderĠ": 1142,
      "ĠíķĺìĸĢĠíĨłëģ¼": 1143,
      "istĠrechtsĠvonĠderĠ": 1144,
      "gesehenĠundĠderĠ": 1145,
      "ĠíĮĮëŀĢĠìĺ¤ë¦¬": 1146,
      "gegrÃ¼ÃŁtĠundĠdieĠ": 1147,
      "ĠíĮĮëŀĢĠìĹ¬ìļ°": 1148,
      "Ġê²ĢìĿĢĠê°ľ": 1149,
      "istĠunterhalbĠvonĠderĠ": 1150,
      "gesehenĠundĠdasĠ": 1151,
      "ĠëĴ¤ëĶ°ë¥¸ëĭ¤ëĬĶĠê²ĥê³¼Ġìĸ´ë¦°": 1152,
      "ĠìĹ¬ëįŁĠë§Īë¦¬ê°ĢĠìŀĪëĭ¤.": 1153,
      "Ġëħ¸ëŀĢĠìĺ¤ë¦¬": 1154,
      "Ġëħ¸ëŀĢĠìĹ¬ìļ°": 1155,
      "Ġë³¸ëĭ¤ëĬĶĠê²ĥê³¼ĠìŀĳìĿĢ": 1156,
      "Ġê²ĢìĿĢĠìĺ¤ë¦¬": 1157,
      "istĠvorĠderĠ": 1158,
      "Ġì´Īë¡ĿìĥīĠìĨĮ": 1159,
      "Ġì´Īë¡ĿìĥīĠê°ľ": 1160,
      "ĠíĮĮëŀĢĠíĨłëģ¼": 1161,
      "ĠëĴ¤ëĶ°ë¥¸ëĭ¤ëĬĶĠê²ĥê³¼ĠìŀĳìĿĢ": 1162,
      "ĠìĦ¸Ġë§Īë¦¬ê°ĢĠìŀĪëĭ¤.": 1163,
      "Ġëħ¸ëŀĢĠìĤ¬ìŀĲ": 1164,
      "Ġëħ¸ëŀĢĠê³łìĸĳìĿ´": 1165,
      "Ġê²ĢìĿĢĠíĨłëģ¼": 1166,
      "ĠíĮĮëŀĢĠìĤ¬ìŀĲ": 1167,
      "Ġë³¸ëĭ¤ëĬĶĠê²ĥê³¼ĠëĬĻìĿĢ": 1168,
      "Ġê²ĢìĿĢĠìĹ¬ìļ°": 1169,
      "Ġë¹¨ê°ĦĠìĤ¬ìŀĲ": 1170,
      "Ġë³¸ëĭ¤ëĬĶĠê²ĥê³¼Ġíģ°": 1171,
      "Ġë¹¨ê°ĦĠê³łìĸĳìĿ´": 1172,
      "ĠëĴ¤ëĶ°ë¥¸ëĭ¤ëĬĶĠê²ĥê³¼ĠëĬĻìĿĢ": 1173,
      "Ġë¹¨ê°ĦĠìĹ¬ìļ°": 1174,
      "¥ĲĠì": 1175,
      "isĠnotĠgreetedĠbyĠtheĠ": 1176,
      "Ġì´Īë¡ĿìĥīĠê³łìĸĳìĿ´": 1177,
      "ĠìĹ¬ìĦ¯Ġë§Īë¦¬ê°ĢĠìŀĪëĭ¤.": 1178,
      "Ġë§ĲĠì": 1179,
      "Ġì´Īë¡ĿìĥīĠì¥Ĳ": 1180,
      "Ġê²ĢìĿĢĠê³łìĸĳìĿ´": 1181,
      "Ġê²ĢìĿĢĠìĤ¬ìŀĲ": 1182,
      "ĠíķĺìĸĢĠìĹ¬ìļ°": 1183,
      "KaninchenĠundĠdasĠ": 1184,
      "ĠíĮĮëŀĢĠì¥Ĳ": 1185,
      "LÃ¶wenĠundĠderĠ": 1186,
      "isĠnotĠseenĠbyĠtheĠ": 1187,
      "Ġë³¸ëĭ¤ëĬĶĠê²ĥê³¼Ġìĸ´ë¦°": 1188,
      "Ġì´Īë¡ĿìĥīĠìĺ¤ë¦¬": 1189,
      "Ġê²ĢìĿĢĠì¥Ĳ": 1190,
      "ĠíķĺìĸĢĠê³łìĸĳìĿ´": 1191,
      "ĠíķĺìĸĢĠì¥Ĳ": 1192,
      "HuhnĠundĠdasĠ": 1193,
      "Ġì´Īë¡ĿìĥīĠìĤ¬ìŀĲ": 1194,
      "isĠnotĠfollowedĠbyĠtheĠ": 1195,
      "Ĥ¬ìŀĲĠì": 1196,
      "EnteĠundĠdieĠ": 1197,
      "Ġëħ¸ëŀĢĠì¥Ĳ": 1198,
      "ĠíķĺìĸĢĠìĤ¬ìŀĲ": 1199,
      "ĠíĮĮëŀĢĠê³łìĸĳìĿ´": 1200,
      "ĸĳìĿ´": 1201,
      "dogs.": 1202,
      "Hunde.": 1203,
      "HundĠundĠderĠ": 1204,
      "MausĠundĠdieĠ": 1205,
      "Ġë¹¨ê°ĦĠì¥Ĳ": 1206,
      "ĠìĸĳìĿ´": 1207,
      "Pferde.": 1208,
      "horses.": 1209,
      "Ġê²ĢìĿĢĠìĸĳ": 1210,
      "KuhĠundĠdieĠ": 1211,
      "PferdĠundĠdasĠ": 1212,
      "undĠfÃ¼nfĠ": 1213,
      "KatzeĠundĠdieĠ": 1214,
      "SchafĠundĠdasĠ": 1215,
      "FuchsĠundĠderĠ": 1216,
      "eĠandĠ": 1217,
      "mice.": 1218,
      "miceĠandĠ": 1219,
      "MÃ¤use.": 1220,
      "BÃ¤renĠundĠderĠ": 1221,
      "nichtĠundĠdieĠ": 1222,
      "ĠíķĺìĸĢĠëĭŃ": 1223,
      "ĠìĸĳìĿĢ": 1224,
      "ĸĳìĿĢ": 1225,
      "ĠíĮĮëŀĢĠê³°": 1226,
      "EntenĠ": 1227,
      "ducks.": 1228,
      "Enten.": 1229,
      "undĠsiebenĠ": 1230,
      "undĠvierĠ": 1231,
      "ĠíĮĮëŀĢĠìĸĳ": 1232,
      "undĠachtĠ": 1233,
      "KatzenĠ": 1234,
      "cats.": 1235,
      "Katzen.": 1236,
      "Ġë¹¨ê°ĦĠê³°": 1237,
      "Ġë¹¨ê°ĦĠìĸĳ": 1238,
      "rabbits.": 1239,
      "nichtĠundĠdasĠ": 1240,
      "tĠdoesĠnotĠ": 1241,
      "Ġëħ¸ëŀĢĠìĸĳ": 1242,
      "nichtĠundĠderĠ": 1243,
      "Ġê²ĢìĿĢĠëĭŃ": 1244,
      "Schafe.": 1245,
      "sheepĠandĠ": 1246,
      "lions.": 1247,
      "Ġëħ¸ëŀĢĠëĭŃ": 1248,
      "ìĿ´Ġë³¸ëĭ¤ëĬĶĠê²ĥìĿ´Ġëª¨ëĳĲĠìĤ¬ìĭ¤ìĿ´ëĭ¤.": 1249,
      "foxes.": 1250,
      "FÃ¼chse.": 1251,
      "ìĿ´ĠëĴ¤ëĶ°ë¥¸ëĭ¤ëĬĶĠê²ĥìĿ´Ġëª¨ëĳĲĠìĤ¬ìĭ¤ìĿ´ëĭ¤.": 1252,
      "bears.": 1253,
      "Ġì´Īë¡ĿìĥīĠëĭŃ": 1254,
      "Ġê²ĢìĿĢĠê³°": 1255,
      "ĠíĮĮëŀĢĠëĭŃ": 1256,
      "er.": 1257,
      "hens.": 1258,
      "HÃ¼hnerĠ": 1259,
      "HÃ¼hner.": 1260,
      "Ġë¹¨ê°ĦĠëĭŃ": 1261,
      "Ġì´Īë¡ĿìĥīĠê³°": 1262,
      "Ġëħ¸ëŀĢĠê³°": 1263,
      "he.": 1264,
      "cows.": 1265,
      "KÃ¼heĠ": 1266,
      "KÃ¼he.": 1267,
      "HundeĠundĠ": 1268,
      "undĠsechsĠ": 1269,
      "Ġì´Īë¡ĿìĥīĠìĸĳ": 1270,
      "PferdeĠundĠ": 1271,
      "undĠzweiĠ": 1272,
      "MÃ¤useĠundĠ": 1273,
      "ĳìĿ´Ġë": 1274,
      "Ġê³łìĸĳìĿ´Ġë": 1275,
      "ĠíķĺìĸĢĠìĸĳ": 1276,
      "notĠseenĠbyĠtheĠ": 1277,
      "Ġì´Īë¡ĿìĥīĠë§Ĳ": 1278,
      "SchafeĠundĠ": 1279,
      "notĠfollowedĠbyĠtheĠ": 1280,
      "ĠíķĺìĸĢĠê³°": 1281,
      "FÃ¼chseĠundĠ": 1282,
      "Ġëħ¸ëŀĢĠë§Ĳ": 1283,
      "Ġê²ĢìĿĢĠì¥Ĳë¥¼": 1284,
      "notĠgreetedĠbyĠtheĠ": 1285,
      "ĠíķĺìĸĢĠë§Ĳ": 1286,
      "Ġë¹¨ê°ĦĠê°ľë¥¼": 1287,
      "Ġê²ĢìĿĢĠë§Ĳ": 1288,
      "Ġëħ¸ëŀĢĠíĨłëģ¼ë¥¼": 1289,
      "ĠíĮĮëŀĢĠë§Ĳ": 1290,
      "Ġëħ¸ëŀĢĠê³łìĸĳìĿ´ë¥¼": 1291,
      "Ġê²ĢìĿĢĠëĭŃìĿĦ": 1292,
      "Ġê²ĢìĿĢĠìĤ¬ìŀĲë¥¼": 1293,
      "ĠíĮĮëŀĢĠìĤ¬ìŀĲë¥¼": 1294,
      "ĠíķĺìĸĢĠê°ľë¥¼": 1295,
      "Ġë¹¨ê°ĦĠë§Ĳ": 1296,
      "Ġëħ¸ëŀĢĠëĭŃìĿĦ": 1297,
      "Ġê²ĢìĿĢĠìĺ¤ë¦¬ë¥¼": 1298,
      "Ġê²ĢìĿĢĠìĨĮë¥¼": 1299,
      "Ġì´Īë¡ĿìĥīĠíĨłëģ¼ë¥¼": 1300,
      "ĠíĮĮëŀĢĠê°ľë¥¼": 1301,
      "Ġëħ¸ëŀĢĠì¥Ĳë¥¼": 1302,
      "ĠíķĺìĸĢĠìĤ¬ìŀĲë¥¼": 1303,
      "Ġì´Īë¡ĿìĥīĠìĹ¬ìļ°ë¥¼": 1304,
      "ĠíĮĮëŀĢĠê³°ìĿĦ": 1305,
      "Ġëħ¸ëŀĢĠìĸĳìĿĦ": 1306,
      "ĠíķĺìĸĢĠìĨĮë¥¼": 1307,
      "ĠíķĺìĸĢĠìĺ¤ë¦¬ë¥¼": 1308,
      "ĠíĮĮëŀĢĠìĺ¤ë¦¬ë¥¼": 1309,
      "Ġê²ĢìĿĢĠìĸĳìĿĦ": 1310,
      "Ġë¹¨ê°ĦĠê³°ìĿĦ": 1311,
      "Ġì´Īë¡ĿìĥīĠì¥Ĳë¥¼": 1312,
      "Ġëħ¸ëŀĢĠìĨĮë¥¼": 1313,
      "Ġë¹¨ê°ĦĠìĸĳìĿĦ": 1314,
      "Ġëħ¸ëŀĢĠë§ĲìĿĦ": 1315,
      "ĠíĮĮëŀĢĠìĸĳìĿĦ": 1316,
      "Ġê²ĢìĿĢĠë§ĲìĿĦ": 1317,
      "Ġë¹¨ê°ĦĠëĭŃìĿĦ": 1318,
      "ĠíĮĮëŀĢĠëĭŃìĿĦ": 1319,
      "Ġë¹¨ê°ĦĠê³łìĸĳìĿ´ë¥¼": 1320,
      "Ġë¹¨ê°ĦĠìĺ¤ë¦¬ë¥¼": 1321,
      "ìĿ´ĠëĴ¤ëĶ°ë¥": 1322,
      "Ġê²ĢìĿĢĠê°ľë¥¼": 1323,
      "Ġì´Īë¡ĿìĥīĠìĤ¬ìŀĲë¥¼": 1324,
      "Ġëħ¸ëŀĢĠìĤ¬ìŀĲë¥¼": 1325,
      "ĠíķĺìĸĢĠë§ĲìĿĦ": 1326,
      "ĠíĮĮëŀĢĠë§ĲìĿĦ": 1327,
      "Ġì´Īë¡ĿìĥīĠìĺ¤ë¦¬ë¥¼": 1328,
      "Ġê²ĢìĿĢĠê³łìĸĳìĿ´ë¥¼": 1329,
      "ĠíĮĮëŀĢĠíĨłëģ¼ë¥¼": 1330,
      "Ġì´Īë¡ĿìĥīĠìĨĮë¥¼": 1331,
      "Ġë¹¨ê°ĦĠìĤ¬ìŀĲë¥¼": 1332,
      "Ġë¹¨ê°ĦĠìĨĮë¥¼": 1333,
      "Ġë¹¨ê°ĦĠíĨłëģ¼ë¥¼": 1334,
      "Ġì´Īë¡ĿìĥīĠëĭŃìĿĦ": 1335,
      "Ġì´Īë¡ĿìĥīĠê³°ìĿĦ": 1336,
      "Ġì´Īë¡ĿìĥīĠë§ĲìĿĦ": 1337,
      "Ġëħ¸ëŀĢĠê³°ìĿĦ": 1338,
      "ĠíķĺìĸĢĠëĭŃìĿĦ": 1339,
      "Ġì´Īë¡ĿìĥīĠìĸĳìĿĦ": 1340,
      "Ġê²ĢìĿĢĠìĹ¬ìļ°ë¥¼": 1341,
      "Ġì´Īë¡ĿìĥīĠê°ľë¥¼": 1342,
      "Ġë¹¨ê°ĦĠìĹ¬ìļ°ë¥¼": 1343,
      "Ġê²ĢìĿĢĠíĨłëģ¼ë¥¼": 1344,
      "Ġê²ĢìĿĢĠê³°ìĿĦ": 1345,
      "ĠíĮĮëŀĢĠì¥Ĳë¥¼": 1346,
      "ĠíĮĮëŀĢĠìĹ¬ìļ°ë¥¼": 1347,
      "ĠíķĺìĸĢĠìĸĳìĿĦ": 1348,
      "Ġë¹¨ê°ĦĠì¥Ĳë¥¼": 1349,
      "Ġì´Īë¡ĿìĥīĠê³łìĸĳìĿ´ë¥¼": 1350,
      "Ġëħ¸ëŀĢĠê°ľë¥¼": 1351,
      "ĠíķĺìĸĢĠì¥Ĳë¥¼": 1352,
      "ĠíķĺìĸĢĠê³łìĸĳìĿ´ë¥¼": 1353,
      "Ġëħ¸ëŀĢĠìĹ¬ìļ°ë¥¼": 1354,
      "ĠíķĺìĸĢĠìĹ¬ìļ°ë¥¼": 1355,
      "ĠíĮĮëŀĢĠìĨĮë¥¼": 1356,
      "Ġëħ¸ëŀĢĠìĺ¤ë¦¬ë¥¼": 1357,
      "ĠíķĺìĸĢĠíĨłëģ¼ë¥¼": 1358,
      "DerĠjungeĠschwarzeĠ": 1359,
      "ĠíĮĮëŀĢĠê³łìĸĳìĿ´ë¥¼": 1360,
      "ĠíķĺìĸĢĠê³°ìĿĦ": 1361,
      "DerĠalteĠblaueĠ": 1362,
      "ĠëĭŃìĿĢĠìŀĳìĿĢ": 1363,
      "DasĠkleineĠschwarzeĠ": 1364,
      "wirdĠvonĠdemĠgroÃŁenĠgelbenĠ": 1365,
      "cowĠfollowsĠtheĠ": 1366,
      "Ġë¹¨ê°ĦĠë§ĲìĿĦ": 1367,
      "henĠfollowsĠtheĠ": 1368,
      "ĠëĭŃìĿĢĠìĸ´ë¦°": 1369,
      "wirdĠvonĠdemĠkleinenĠgrÃ¼nenĠ": 1370,
      "DasĠalteĠgelbeĠ": 1371,
      "DieĠalteĠgelbeĠ": 1372,
      "lionĠseesĠtheĠ": 1373,
      "DieĠjungeĠweiÃŁeĠ": 1374,
      "ìĿĺĠìķŀìĹĲĠìŀĪëĭ¤ëĬĶĠê²ĥê³¼Ġíģ°": 1375,
      "DasĠalteĠblaueĠ": 1376,
      "rabbitĠgreetsĠtheĠ": 1377,
      "ìĿĺĠìĺ¤ë¥¸ìª½ìĹĲĠìŀĪëĭ¤ëĬĶĠê²ĥê³¼Ġíģ°": 1378,
      "wirdĠvonĠdemĠjungenĠschwarzenĠ": 1379,
      "onĠdoesĠnotĠ": 1380,
      "lionĠdoesĠnotĠ": 1381,
      "sheepĠfollowsĠtheĠ": 1382,
      "DasĠkleineĠweiÃŁeĠ": 1383,
      "dogĠgreetsĠtheĠ": 1384,
      "DieĠjungeĠroteĠ": 1385,
      "DieĠgroÃŁeĠschwarzeĠ": 1386,
      "DasĠjungeĠgelbeĠ": 1387,
      "ìĿĺĠìĻ¼ìª½ìĹĲĠìŀĪëĭ¤ëĬĶĠê²ĥê³¼Ġíģ°": 1388,
      "ìĿĺĠìľĦìĹĲĠìŀĪëĭ¤ëĬĶĠê²ĥê³¼Ġíģ°": 1389,
      "wirdĠvonĠdemĠaltenĠblauenĠ": 1390,
      "DieĠkleineĠschwarzeĠ": 1391,
      "foxĠfollowsĠtheĠ": 1392,
      "DerĠgroÃŁeĠgelbeĠ": 1393,
      "DerĠkleineĠgrÃ¼neĠ": 1394,
      "DerĠalteĠweiÃŁeĠ": 1395,
      "mouseĠgreetsĠtheĠ": 1396,
      "duckĠseesĠtheĠ": 1397,
      "ĠëĭŃìĿ´Ġìĸ´ë¦°": 1398,
      "dogĠisĠgreetedĠbyĠtheĠ": 1399,
      "wirdĠvonĠdemĠkleinenĠweiÃŁenĠ": 1400,
      "DerĠgroÃŁeĠblaueĠ": 1401,
      "DieĠgroÃŁeĠgelbeĠ": 1402,
      "FuchsĠwirdĠvonĠderĠ": 1403,
      "DasĠgroÃŁeĠgelbeĠ": 1404,
      "HuhnĠwirdĠvonĠderĠ": 1405,
      "cowĠseesĠtheĠ": 1406,
      "henĠisĠgreetedĠbyĠtheĠ": 1407,
      "ìĿĺĠìķŀìĹĲĠìŀĪëĭ¤ëĬĶĠê²ĥê³¼Ġìĸ´ë¦°": 1408,
      "DerĠjungeĠgelbeĠ": 1409,
      "DieĠkleineĠweiÃŁeĠ": 1410,
      "lionĠisĠgreetedĠbyĠtheĠ": 1411,
      "ĠëĭŃìĿ´Ġíģ°": 1412,
      "SchafĠwirdĠvonĠderĠ": 1413,
      "ìĿĺĠìķĦëŀĺìĹĲĠìŀĪëĭ¤ëĬĶĠê²ĥê³¼Ġíģ°": 1414,
      "DerĠalteĠroteĠ": 1415,
      "DerĠkleineĠblaueĠ": 1416,
      "mouseĠisĠgreetedĠbyĠtheĠ": 1417,
      "lionĠgreetsĠtheĠ": 1418,
      "wirdĠvonĠdemĠgroÃŁenĠschwarzenĠ": 1419,
      "Ġë§ĲìĿĢĠìĸ´ë¦°": 1420,
      "ìĿĺĠìľĦìĹĲĠìŀĪëĭ¤ëĬĶĠê²ĥê³¼ĠëĬĻìĿĢ": 1421,
      "henĠgreetsĠtheĠ": 1422,
      "Ġë§ĲìĿĢĠíģ°": 1423,
      "henĠisĠfollowedĠbyĠtheĠ": 1424,
      "HundĠwirdĠvonĠderĠ": 1425,
      "lionĠisĠseenĠbyĠtheĠ": 1426,
      "dogĠisĠseenĠbyĠtheĠ": 1427,
      "ìĿĺĠìķĦëŀĺìĹĲĠìŀĪëĭ¤ëĬĶĠê²ĥê³¼Ġìĸ´ë¦°": 1428,
      "wirdĠvonĠdemĠkleinenĠblauenĠ": 1429,
      "wirdĠvonĠdemĠgroÃŁenĠblauenĠ": 1430,
      "DerĠgroÃŁeĠweiÃŁeĠ": 1431,
      "DieĠkleineĠgelbeĠ": 1432,
      "DieĠalteĠschwarzeĠ": 1433,
      "DasĠgroÃŁeĠschwarzeĠ": 1434,
      "DerĠjungeĠroteĠ": 1435,
      "DasĠkleineĠgelbeĠ": 1436,
      "horseĠseesĠtheĠ": 1437,
      "dogĠseesĠtheĠ": 1438,
      "duckĠisĠgreetedĠbyĠtheĠ": 1439,
      "wirdĠvonĠdemĠkleinenĠschwarzenĠ": 1440,
      "DieĠalteĠgrÃ¼neĠ": 1441,
      "duckĠgreetsĠtheĠ": 1442,
      "rabbitĠisĠgreetedĠbyĠtheĠ": 1443,
      "Ġë§ŀìĿ´íķĺì§ĢĠìķĬëĬĶëĭ¤ëĬĶĠê²ĥê³¼ĠëĬĻìĿĢ": 1444,
      "Ġê³°ìĿĢĠìĸ´ë¦°": 1445,
      "sheepĠisĠfollowedĠbyĠtheĠ": 1446,
      "ìĿĺĠìĺ¤ë¥¸ìª½ìĹĲĠìŀĪëĭ¤ëĬĶĠê²ĥê³¼ĠìŀĳìĿĢ": 1447,
      "Ġë§ŀìĿ´íķĺì§ĢĠìķĬëĬĶëĭ¤ëĬĶĠê²ĥê³¼ĠìŀĳìĿĢ": 1448,
      "cowĠisĠseenĠbyĠtheĠ": 1449,
      "wirdĠvonĠdemĠgroÃŁenĠrotenĠ": 1450,
      "catĠisĠfollowedĠbyĠtheĠ": 1451,
      "wirdĠvonĠdemĠjungenĠgrÃ¼nenĠ": 1452,
      "DasĠjungeĠschwarzeĠ": 1453,
      "KuhĠwirdĠvonĠderĠ": 1454,
      "duckĠisĠfollowedĠbyĠtheĠ": 1455,
      "ìĿĺĠìĺ¤ë¥¸ìª½ìĹĲĠìŀĪëĭ¤ëĬĶĠê²ĥê³¼Ġìĸ´ë¦°": 1456,
      "dogĠisĠfollowedĠbyĠtheĠ": 1457,
      "KaninchenĠwirdĠvonĠderĠ": 1458,
      "catĠfollowsĠtheĠ": 1459,
      "ìĿĺĠìĻ¼ìª½ìĹĲĠìŀĪëĭ¤ëĬĶĠê²ĥê³¼Ġìĸ´ë¦°": 1460,
      "wirdĠvonĠdemĠjungenĠrotenĠ": 1461,
      "bearĠseesĠtheĠ": 1462,
      "MausĠwirdĠvonĠderĠ": 1463,
      "cowĠisĠfollowedĠbyĠtheĠ": 1464,
      "henĠisĠseenĠbyĠtheĠ": 1465,
      "DieĠjungeĠgrÃ¼neĠ": 1466,
      "DasĠgroÃŁeĠgrÃ¼neĠ": 1467,
      "DasĠjungeĠweiÃŁeĠ": 1468,
      "mouseĠfollowsĠtheĠ": 1469,
      "mouseĠisĠfollowedĠbyĠtheĠ": 1470,
      "sheepĠgreetsĠtheĠ": 1471,
      "ĠëĭŃìĿ´ĠìŀĳìĿĢ": 1472,
      "Ġë§ĲìĿ´ĠìŀĳìĿĢ": 1473,
      "ĠìŀĳìĿĢĠíķĺìĸĢĠì": 1474,
      "wirdĠvonĠdemĠaltenĠrotenĠ": 1475,
      "DerĠjungeĠgrÃ¼neĠ": 1476,
      "DasĠgroÃŁeĠblaueĠ": 1477,
      "KatzeĠwirdĠvonĠderĠ": 1478,
      "foxĠisĠfollowedĠbyĠtheĠ": 1479,
      "ĠëĭŃìĿĢĠíģ°": 1480,
      "sheepĠisĠgreetedĠbyĠtheĠ": 1481,
      "Ġë§ŀìĿ´íķĺì§ĢĠìķĬëĬĶëĭ¤ëĬĶĠê²ĥê³¼Ġìĸ´ë¦°": 1482,
      "Ġìĸ´ë¦°Ġê²ĢìĿĢĠì": 1483,
      "DasĠkleineĠblaueĠ": 1484,
      "LÃ¶weĠwirdĠvonĠderĠ": 1485,
      "Ġê³°ìĿ´ĠìŀĳìĿĢ": 1486,
      "rabbitĠdoesĠnotĠ": 1487,
      "DerĠkleineĠschwarzeĠ": 1488,
      "DieĠjungeĠschwarzeĠ": 1489,
      "DasĠjungeĠroteĠ": 1490,
      "DasĠkleineĠgrÃ¼neĠ": 1491,
      "duckĠfollowsĠtheĠ": 1492,
      "ìĿĺĠìľĦìĹĲĠìŀĪëĭ¤ëĬĶĠê²ĥê³¼Ġìĸ´ë¦°": 1493,
      "Ġë§ĲìĿĢĠëĬĻìĿĢ": 1494,
      "Ġê³°ìĿĢĠëĬĻìĿĢ": 1495,
      "lionĠisĠfollowedĠbyĠtheĠ": 1496,
      "ìĿĺĠìĻ¼ìª½ìĹĲĠìŀĪëĭ¤ëĬĶĠê²ĥê³¼ĠìŀĳìĿĢ": 1497,
      "horseĠgreetsĠtheĠ": 1498,
      "rabbitĠfollowsĠtheĠ": 1499,
      "mouseĠisĠseenĠbyĠtheĠ": 1500,
      "bearĠisĠseenĠbyĠtheĠ": 1501,
      "DieĠgroÃŁeĠblaueĠ": 1502,
      "DieĠalteĠweiÃŁeĠ": 1503,
      "mouseĠseesĠtheĠ": 1504,
      "catĠdoesĠnotĠ": 1505,
      "rabbitĠisĠfollowedĠbyĠtheĠ": 1506,
      "ìĿĺĠëĴ¤ìĹĲĠìŀĪëĭ¤ëĬĶĠê²ĥê³¼ĠìŀĳìĿĢ": 1507,
      "Ġê³°ìĿ´Ġíģ°": 1508,
      "duckĠisĠseenĠbyĠtheĠ": 1509,
      "DerĠkleineĠroteĠ": 1510,
      "DieĠalteĠroteĠ": 1511,
      "rabbitĠisĠseenĠbyĠtheĠ": 1512,
      "catĠgreetsĠtheĠ": 1513,
      "ìĿĺĠìĻ¼ìª½ìĹĲĠìŀĪëĭ¤ëĬĶĠê²ĥê³¼ĠëĬĻìĿĢ": 1514,
      "bearĠisĠfollowedĠbyĠtheĠ": 1515,
      "Ġê³°ìĿĢĠíģ°": 1516,
      "foxĠgreetsĠtheĠ": 1517,
      "ìĿĺĠëĴ¤ìĹĲĠìŀĪëĭ¤ëĬĶĠê²ĥê³¼Ġíģ°": 1518,
      "wirdĠvonĠdemĠaltenĠgelbenĠ": 1519,
      "Ġíģ°Ġëħ¸ëŀĢĠì": 1520,
      "DerĠgroÃŁeĠgrÃ¼neĠ": 1521,
      "EnteĠwirdĠvonĠderĠ": 1522,
      "horseĠisĠgreetedĠbyĠtheĠ": 1523,
      "DerĠgroÃŁeĠschwarzeĠ": 1524,
      "DieĠkleineĠblaueĠ": 1525,
      "DieĠkleineĠroteĠ": 1526,
      "wirdĠvonĠdemĠjungenĠgelbenĠ": 1527,
      "ĠëĭŃìĿĢĠëĬĻìĿĢ": 1528,
      "Ġë§ĲìĿĢĠìŀĳìĿĢ": 1529,
      "cowĠisĠgreetedĠbyĠtheĠ": 1530,
      "wirdĠvonĠdemĠgroÃŁenĠweiÃŁenĠ": 1531,
      "DerĠkleineĠweiÃŁeĠ": 1532,
      "DasĠjungeĠgrÃ¼neĠ": 1533,
      "DasĠgroÃŁeĠroteĠ": 1534,
      "horseĠisĠseenĠbyĠtheĠ": 1535,
      "foxĠisĠgreetedĠbyĠtheĠ": 1536,
      "Ġë§ĲìĿ´Ġíģ°": 1537,
      "Ġê³°ìĿĢĠìŀĳìĿĢ": 1538,
      "horseĠisĠfollowedĠbyĠtheĠ": 1539,
      "sheepĠisĠseenĠbyĠtheĠ": 1540,
      "henĠseesĠtheĠ": 1541,
      "DerĠgroÃŁeĠroteĠ": 1542,
      "catĠisĠseenĠbyĠtheĠ": 1543,
      "ìĿĺĠìķŀìĹĲĠìŀĪëĭ¤ëĬĶĠê²ĥê³¼ĠëĬĻìĿĢ": 1544,
      "ìĿĺĠìľĦìĹĲĠìŀĪëĭ¤ëĬĶĠê²ĥê³¼ĠìŀĳìĿĢ": 1545,
      "Ġë§ŀìĿ´íķĺì§ĢĠìķĬëĬĶëĭ¤ëĬĶĠê²ĥê³¼Ġíģ°": 1546,
      "Ŀ¼ê³±Ġë§Īë¦¬ê°ĢĠìŀĪëĭ¤.": 1547,
      "DasĠalteĠschwarzeĠ": 1548,
      "Ġê³°ìĿ´Ġìĸ´ë¦°": 1549,
      "catĠisĠgreetedĠbyĠtheĠ": 1550,
      "bearĠisĠgreetedĠbyĠtheĠ": 1551,
      "wirdĠvonĠdemĠkleinenĠgelbenĠ": 1552,
      "wirdĠvonĠdemĠaltenĠweiÃŁenĠ": 1553,
      "DerĠalteĠgrÃ¼neĠ": 1554,
      "ìĿĺĠìķĦëŀĺìĹĲĠìŀĪëĭ¤ëĬĶĠê²ĥê³¼ĠìŀĳìĿĢ": 1555,
      "DieĠgroÃŁeĠroteĠ": 1556,
      "DasĠgroÃŁeĠweiÃŁeĠ": 1557,
      "ìĿĺĠìķĦëŀĺìĹĲĠìŀĪëĭ¤ëĬĶĠê²ĥê³¼ĠëĬĻìĿĢ": 1558,
      "wirdĠvonĠdemĠkleinenĠrotenĠ": 1559,
      "DerĠalteĠgelbeĠ": 1560,
      "DieĠkleineĠgrÃ¼neĠ": 1561,
      "ìĿĺĠìķŀìĹĲĠìŀĪëĭ¤ëĬĶĠê²ĥê³¼ĠìŀĳìĿĢ": 1562,
      "Ġë³´ì§ĢĠìķĬëĬĶëĭ¤ëĬĶĠê²ĥê³¼ĠëĬĻìĿĢ": 1563,
      "DerĠjungeĠblaueĠ": 1564,
      "DieĠjungeĠblaueĠ": 1565,
      "wirdĠvonĠdemĠaltenĠgrÃ¼nenĠ": 1566,
      "DieĠgroÃŁeĠweiÃŁeĠ": 1567,
      "bearĠgreetsĠtheĠ": 1568,
      "ìĿĺĠëĴ¤ìĹĲĠìŀĪëĭ¤ëĬĶĠê²ĥê³¼Ġìĸ´ë¦°": 1569,
      "DieĠalteĠblaueĠ": 1570,
      "rabbitĠseesĠtheĠ": 1571,
      "wirdĠvonĠdemĠjungenĠweiÃŁenĠ": 1572,
      "wirdĠvonĠdemĠgroÃŁenĠgrÃ¼nenĠ": 1573,
      "DasĠalteĠgrÃ¼neĠ": 1574,
      "lionĠfollowsĠtheĠ": 1575,
      "catĠseesĠtheĠ": 1576,
      "Ĺ¬ìĦ¯Ġë§Īë¦¬ê°ĢĠìŀĪëĭ¤.": 1577,
      "sheepĠseesĠtheĠ": 1578,
      "dogĠfollowsĠtheĠ": 1579,
      "bearĠfollowsĠtheĠ": 1580,
      "Ġíģ°Ġê²ĢìĿĢĠì": 1581,
      "DasĠkleineĠroteĠ": 1582,
      "horseĠfollowsĠtheĠ": 1583,
      "ìĿĺĠìĺ¤ë¥¸ìª½ìĹĲĠìŀĪëĭ¤ëĬĶĠê²ĥê³¼ĠëĬĻìĿĢ": 1584,
      "foxĠisĠseenĠbyĠtheĠ": 1585,
      "Ġíģ°ĠíĮĮëŀĢĠì": 1586,
      "DieĠgroÃŁeĠgrÃ¼neĠ": 1587,
      "DasĠalteĠroteĠ": 1588,
      "Ġëĭ¤ìĦ¯Ġë§Īë¦¬ìĻĢĠìŀĳìĿĢ": 1589,
      "Ġë§ĲìĿ´Ġìĸ´ë¦°": 1590,
      "Ġë³´ì§ĢĠìķĬëĬĶëĭ¤ëĬĶĠê²ĥê³¼ĠìŀĳìĿĢ": 1591,
      "wirdĠvonĠdemĠjungenĠblauenĠ": 1592,
      "eĠundĠdreiĠ": 1593,
      "Ġíģ°ĠíķĺìĸĢĠì": 1594,
      "DieĠjungeĠgelbeĠ": 1595,
      "BÃ¤rĠwirdĠvonĠderĠ": 1596,
      "ìĿĺĠëĴ¤ìĹĲĠìŀĪëĭ¤ëĬĶĠê²ĥê³¼ĠëĬĻìĿĢ": 1597,
      "Ġìĸ´ë¦°Ġì´Īë¡ĿìĥīĠì": 1598,
      "DerĠalteĠschwarzeĠ": 1599,
      "DasĠjungeĠblaueĠ": 1600,
      "DasĠalteĠweiÃŁeĠ": 1601,
      "ĠëĬĻìĿĢĠëħ¸ëŀĢĠì": 1602,
      "ĠëĬĻìĿĢĠì´Īë¡ĿìĥīĠì": 1603,
      "ĠìŀĳìĿĢĠê²ĢìĿĢĠì": 1604,
      "wirdĠvonĠdemĠaltenĠschwarzenĠ": 1605,
      "DerĠkleineĠgelbeĠ": 1606,
      "ĠëĴ¤ëĶ°ë¥´ì§ĢĠìķĬëĬĶëĭ¤ëĬĶĠê²ĥê³¼Ġíģ°": 1607,
      "ĠìŀĳìĿĢĠëħ¸ëŀĢĠì": 1608,
      "Ġìĸ´ë¦°ĠíĮĮëŀĢĠì": 1609,
      "PferdĠwirdĠvonĠderĠ": 1610,
      "ĠëĬĻìĿĢĠíĮĮëŀĢĠì": 1611,
      "ĠëĬĻìĿĢĠíķĺìĸĢĠì": 1612,
      "ĠìŀĳìĿĢĠíĮĮëŀĢĠì": 1613,
      "ĠìŀĳìĿĢĠì´Īë¡ĿìĥīĠì": 1614,
      "Ġìĸ´ë¦°Ġë¹¨ê°ĦĠì": 1615,
      "ĠëĴ¤ëĶ°ë¥´ì§ĢĠìķĬëĬĶëĭ¤ëĬĶĠê²ĥê³¼ĠìŀĳìĿĢ": 1616,
      "Ħ¸Ġë§Īë¦¬ê°ĢĠìŀĪëĭ¤.": 1617,
      "cowĠgreetsĠtheĠ": 1618,
      "foxĠseesĠtheĠ": 1619,
      "ĠëĬĻìĿĢĠê²ĢìĿĢĠì": 1620,
      "Ĺ¬ëįŁĠë§Īë¦¬ê°ĢĠìŀĪëĭ¤.": 1621,
      "ĠëĦ¤Ġë§Īë¦¬ìĻĢĠíģ°": 1622,
      "Ġìĸ´ë¦°ĠíķĺìĸĢĠì": 1623,
      "ĠëĦ¤Ġë§Īë¦¬ìĻĢĠìŀĳìĿĢ": 1624,
      "ĠëĳĲĠë§Īë¦¬ìĻĢĠìĸ´ë¦°": 1625,
      "Ġë³´ì§ĢĠìķĬëĬĶëĭ¤ëĬĶĠê²ĥê³¼Ġìĸ´ë¦°": 1626,
      "Ġíģ°Ġë¹¨ê°ĦĠì": 1627,
      "Ġëĭ¤ìĦ¯Ġë§Īë¦¬ìĻĢĠëĬĻìĿĢ": 1628,
      "ĠëĴ¤ëĶ°ë¥´ì§ĢĠìķĬëĬĶëĭ¤ëĬĶĠê²ĥê³¼Ġìĸ´ë¦°": 1629,
      "Ġìĸ´ë¦°Ġëħ¸ëŀĢĠì": 1630,
      "Ġë¹¨ê°ĦĠê°ľê°Ģ": 1631,
      "henĠisĠaboveĠtheĠ": 1632,
      "ĠëĬĻìĿĢĠë¹¨ê°ĦĠì": 1633,
      "ĠìŀĳìĿĢĠë¹¨ê°ĦĠì": 1634,
      "Ġëħ¸ëŀĢĠíĨłëģ¼ê°Ģ": 1635,
      "ĠëĦ¤Ġë§Īë¦¬ìĻĢĠëĬĻìĿĢ": 1636,
      "ĠìĦ¸Ġë§Īë¦¬ìĻĢĠìĸ´ë¦°": 1637,
      "ìĸ´ë¦°Ġë¹¨ê°Ħ": 1638,
      "Ġëĭ¤ìĦ¯Ġë§Īë¦¬ìĻĢĠíģ°": 1639,
      "DerĠjungeĠweiÃŁeĠ": 1640,
      "ĠìŀĳìĿĢĠì´Īë¡Ŀìĥī": 1641,
      "Ġëħ¸ëŀĢĠê³łìĸĳìĿ´ê°Ģ": 1642,
      "ĠëĦ¤Ġë§Īë¦¬ìĻĢĠìĸ´ë¦°": 1643,
      "Ġìĸ´ë¦°Ġì´Īë¡Ŀìĥī": 1644,
      "ĠëĴ¤ëĶ°ë¥´ì§ĢĠìķĬëĬĶëĭ¤ëĬĶĠê²ĥê³¼ĠëĬĻìĿĢ": 1645,
      "íģ°Ġì´Īë¡Ŀìĥī": 1646,
      "Ġíģ°Ġê²ĢìĿĢ": 1647,
      "KaninchenĠgegrÃ¼ÃŁt.": 1648,
      "MausĠgegrÃ¼ÃŁt.": 1649,
      "LÃ¶wenĠgesehen.": 1650,
      "horseĠisĠtoĠtheĠrightĠofĠtheĠ": 1651,
      "Ġíģ°Ġì´Īë¡ĿìĥīĠì": 1652,
      "lionĠisĠbehindĠtheĠ": 1653,
      "ĠëĳĲĠë§Īë¦¬ìĻĢĠíģ°": 1654,
      "Ġë³´ì§ĢĠìķĬëĬĶëĭ¤ëĬĶĠê²ĥê³¼Ġíģ°": 1655,
      "ĠëĳĲĠë§Īë¦¬ìĻĢĠëĬĻìĿĢ": 1656,
      "bearĠisĠtoĠtheĠrightĠofĠtheĠ": 1657,
      "ĠíķĺìĸĢĠê°ľê°Ģ": 1658,
      "ìŀĳìĿĢĠê²ĢìĿĢ": 1659,
      "HundĠverfolgtĠundĠderĠ": 1660,
      "MausĠgesehenĠundĠdieĠ": 1661,
      "lionĠisĠbelowĠtheĠ": 1662,
      "rabbitĠisĠaboveĠtheĠ": 1663,
      "ĠìŀĳìĿĢĠê²ĢìĿĢ": 1664,
      "ĠíĮĮëŀĢĠìĸĳìĿĢ": 1665,
      "KuhĠgesehenĠundĠdieĠ": 1666,
      "ĠëĳĲĠë§Īë¦¬ìĻĢĠìŀĳìĿĢ": 1667,
      "HuhnĠverfolgtĠundĠdasĠ": 1668,
      "cowĠisĠbehindĠtheĠ": 1669,
      "dogĠisĠbelowĠtheĠ": 1670,
      "catĠisĠbehindĠtheĠ": 1671,
      "LÃ¶wenĠgegrÃ¼ÃŁt.": 1672,
      "cowĠisĠtoĠtheĠleftĠofĠtheĠ": 1673,
      "HundĠwirdĠnichtĠvonĠdemĠ": 1674,
      "HundĠgegrÃ¼ÃŁtĠundĠderĠ": 1675,
      "BÃ¤renĠundĠdasĠ": 1676,
      "mouseĠisĠaboveĠtheĠ": 1677,
      "cowĠisĠtoĠtheĠrightĠofĠtheĠ": 1678,
      "ĠíĮĮëŀĢĠê°ľê°Ģ": 1679,
      "henĠisĠinĠfrontĠofĠtheĠ": 1680,
      "horseĠisĠbelowĠtheĠ": 1681,
      "horseĠisĠtoĠtheĠleftĠofĠtheĠ": 1682,
      "íģ°Ġê²ĢìĿĢ": 1683,
      "Ġê³łìĸĳìĿ´Ġëĭ¤ìĦ¯": 1684,
      "EnteĠgesehen.": 1685,
      "LÃ¶wenĠverfolgt.": 1686,
      "henĠisĠbehindĠtheĠ": 1687,
      "ìĸ´ë¦°Ġê²ĢìĿĢ": 1688,
      "MausĠverfolgt.": 1689,
      "MausĠwirdĠnichtĠvonĠdemĠ": 1690,
      "SchafĠverfolgtĠundĠdasĠ": 1691,
      "lionĠisĠtoĠtheĠleftĠofĠtheĠ": 1692,
      "LÃ¶wenĠundĠdasĠ": 1693,
      "sheepĠisĠtoĠtheĠleftĠofĠtheĠ": 1694,
      "Ġëĭ¤ìĦ¯Ġë§Īë¦¬ìĻĢĠìĸ´ë¦°": 1695,
      "henĠisĠbelowĠtheĠ": 1696,
      "HuhnĠgesehenĠundĠdasĠ": 1697,
      "SchafĠgegrÃ¼ÃŁtĠundĠdasĠ": 1698,
      "mouseĠisĠbelowĠtheĠ": 1699,
      "LÃ¶weĠwirdĠnichtĠvonĠdemĠ": 1700,
      "KaninchenĠverfolgt.": 1701,
      "KatzeĠundĠdasĠ": 1702,
      "sheepĠisĠtoĠtheĠrightĠofĠtheĠ": 1703,
      "dogĠisĠtoĠtheĠleftĠofĠtheĠ": 1704,
      "HundĠgesehen.": 1705,
      "KuhĠverfolgtĠundĠdieĠ": 1706,
      "mouseĠisĠtoĠtheĠrightĠofĠtheĠ": 1707,
      "ĠìĿ¼ê³±Ġë§Īë¦¬ìĻĢĠëĬĻìĿĢ": 1708,
      "HuhnĠgegrÃ¼ÃŁt.": 1709,
      "lionĠisĠinĠfrontĠofĠtheĠ": 1710,
      "BÃ¤renĠundĠdieĠ": 1711,
      "HuhnĠgegrÃ¼ÃŁtĠundĠdasĠ": 1712,
      "HundĠgesehenĠundĠderĠ": 1713,
      "SchafĠundĠderĠ": 1714,
      "EnteĠgegrÃ¼ÃŁtĠundĠdieĠ": 1715,
      "catĠisĠtoĠtheĠrightĠofĠtheĠ": 1716,
      "LÃ¶wenĠgesehenĠundĠderĠ": 1717,
      "BÃ¤renĠverfolgtĠundĠderĠ": 1718,
      "bearĠisĠtoĠtheĠleftĠofĠtheĠ": 1719,
      "EnteĠwirdĠnichtĠvonĠdemĠ": 1720,
      "FuchsĠverfolgt.": 1721,
      "KuhĠundĠderĠ": 1722,
      "KatzeĠverfolgt.": 1723,
      "FuchsĠundĠdasĠ": 1724,
      "lionĠisĠaboveĠtheĠ": 1725,
      "cowĠisĠaboveĠtheĠ": 1726,
      "dogĠisĠaboveĠtheĠ": 1727,
      "EnteĠgegrÃ¼ÃŁt.": 1728,
      "ìĿ´ĠëĴ¤ëĶ°ë¥´ì§ĢĠìķĬëĬĶ": 1729,
      "KaninchenĠgesehen.": 1730,
      "HuhnĠundĠdieĠ": 1731,
      "HundĠundĠdasĠ": 1732,
      "EnteĠundĠderĠ": 1733,
      "PferdĠgesehen.": 1734,
      "rabbitĠisĠinĠfrontĠofĠtheĠ": 1735,
      "LÃ¶wenĠundĠdieĠ": 1736,
      "sheepĠisĠbelowĠtheĠ": 1737,
      "PferdĠgegrÃ¼ÃŁtĠundĠdasĠ": 1738,
      "sheepĠisĠinĠfrontĠofĠtheĠ": 1739,
      "sheepĠisĠbehindĠtheĠ": 1740,
      "ìĿ´Ġë³´ì§ĢĠìķĬëĬĶëĭ¤ëĬĶĠê²ĥìĿ´Ġëª¨ëĳĲĠìĤ¬ìĭ¤ìĿ´ëĭ¤.": 1741,
      "ĠìĦ¸Ġë§Īë¦¬ìĻĢĠëĬĻìĿĢ": 1742,
      "Ġë¹¨ê°ĦĠìĸĳìĿ´": 1743,
      "Ġìĸ´ë¦°Ġê²ĢìĿĢ": 1744,
      "ëĬĻìĿĢĠê²ĢìĿĢ": 1745,
      "HundĠgegrÃ¼ÃŁt.": 1746,
      "MausĠundĠdasĠ": 1747,
      "MausĠundĠderĠ": 1748,
      "KuhĠwirdĠnichtĠvonĠdemĠ": 1749,
      "SchafĠwirdĠnichtĠvonĠdemĠ": 1750,
      "LÃ¶wenĠgegrÃ¼ÃŁtĠundĠderĠ": 1751,
      "BÃ¤renĠgegrÃ¼ÃŁtĠundĠderĠ": 1752,
      "foxĠisĠtoĠtheĠleftĠofĠtheĠ": 1753,
      "EnteĠverfolgtĠundĠdieĠ": 1754,
      "mouseĠisĠtoĠtheĠleftĠofĠtheĠ": 1755,
      "ĠíķĺìĸĢĠìĸĳìĿĢ": 1756,
      "HuhnĠwirdĠnichtĠvonĠdemĠ": 1757,
      "MausĠgegrÃ¼ÃŁtĠundĠdieĠ": 1758,
      "lionĠisĠtoĠtheĠrightĠofĠtheĠ": 1759,
      "catĠisĠbelowĠtheĠ": 1760,
      "Ġë¹¨ê°ĦĠê³łìĸĳìĿ´ê°Ģ": 1761,
      "EnteĠverfolgt.": 1762,
      "henĠisĠtoĠtheĠleftĠofĠtheĠ": 1763,
      "SchafĠgesehenĠundĠdasĠ": 1764,
      "FuchsĠgegrÃ¼ÃŁt.": 1765,
      "bearĠisĠinĠfrontĠofĠtheĠ": 1766,
      "ĠìĹ¬ëįŁĠë§Īë¦¬ìĻĢĠìĸ´ë¦°": 1767,
      "KuhĠundĠdasĠ": 1768,
      "SchafĠundĠdieĠ": 1769,
      "BÃ¤rĠwirdĠnichtĠvonĠdemĠ": 1770,
      "BÃ¤renĠgesehen.": 1771,
      "Ġíģ°Ġì´Īë¡Ŀìĥī": 1772,
      "KaninchenĠwirdĠnichtĠvonĠdemĠ": 1773,
      "KuhĠgesehen.": 1774,
      "SchafĠverfolgt.": 1775,
      "KatzeĠverfolgtĠundĠdieĠ": 1776,
      "ĠëĬĻìĿĢĠì´Īë¡Ŀìĥī": 1777,
      "ìĸ´ë¦°Ġì´Īë¡Ŀìĥī": 1778,
      "PferdĠundĠderĠ": 1779,
      "BÃ¤renĠgesehenĠundĠderĠ": 1780,
      "ĠìĹ¬ëįŁĠë§Īë¦¬ìĻĢĠíģ°": 1781,
      "PferdĠwirdĠnichtĠvonĠdemĠ": 1782,
      "duckĠisĠinĠfrontĠofĠtheĠ": 1783,
      "bearĠisĠbelowĠtheĠ": 1784,
      "ìŀĳìĿĢĠì´Īë¡Ŀìĥī": 1785,
      "PferdĠundĠdieĠ": 1786,
      "rabbitĠisĠbehindĠtheĠ": 1787,
      "catĠisĠtoĠtheĠleftĠofĠtheĠ": 1788,
      "ìĿ´Ġë³´ì§ĢĠìķĬëĬĶ": 1789,
      "ĠìĦ¸Ġë§Īë¦¬ìĻĢĠíģ°": 1790,
      "KaninchenĠgegrÃ¼ÃŁtĠundĠdasĠ": 1791,
      "HuhnĠverfolgt.": 1792,
      "KuhĠgegrÃ¼ÃŁtĠundĠdieĠ": 1793,
      "ĠíĮĮëŀĢĠíĨłëģ¼ê°Ģ": 1794,
      "KatzeĠgegrÃ¼ÃŁt.": 1795,
      "PferdĠverfolgt.": 1796,
      "cowĠisĠbelowĠtheĠ": 1797,
      "cowĠisĠinĠfrontĠofĠtheĠ": 1798,
      "sheepĠisĠaboveĠtheĠ": 1799,
      "SchafĠgegrÃ¼ÃŁt.": 1800,
      "catĠisĠaboveĠtheĠ": 1801,
      "catĠisĠinĠfrontĠofĠtheĠ": 1802,
      "ìĿ´ĠëĴ¤ëĶ°ë¥´ì§ĢĠìķĬëĬĶëĭ¤ëĬĶĠê²ĥìĿ´Ġëª¨ëĳĲĠìĤ¬ìĭ¤ìĿ´ëĭ¤.": 1803,
      "Ġë¹¨ê°ĦĠíĨłëģ¼ê°Ģ": 1804,
      "FuchsĠverfolgtĠundĠderĠ": 1805,
      "henĠisĠtoĠtheĠrightĠofĠtheĠ": 1806,
      "KuhĠverfolgt.": 1807,
      "horseĠisĠbehindĠtheĠ": 1808,
      "ĠìĹ¬ëįŁĠë§Īë¦¬ìĻĢĠëĬĻìĿĢ": 1809,
      "ĠìĹ¬ëįŁĠë§Īë¦¬ìĻĢĠìŀĳìĿĢ": 1810,
      "Ġëħ¸ëŀĢĠìĸĳìĿĢ": 1811,
      "MausĠverfolgtĠundĠdieĠ": 1812,
      "SchafĠgesehen.": 1813,
      "KatzeĠgesehen.": 1814,
      "KatzeĠgesehenĠundĠdieĠ": 1815,
      "HuhnĠgesehen.": 1816,
      "PferdĠverfolgtĠundĠdasĠ": 1817,
      "ĠëĬĻìĿĢĠê²ĢìĿĢ": 1818,
      "KuhĠgegrÃ¼ÃŁt.": 1819,
      "KatzeĠundĠderĠ": 1820,
      "dogĠisĠtoĠtheĠrightĠofĠtheĠ": 1821,
      "ëĬĻìĿĢĠì´Īë¡Ŀìĥī": 1822,
      "HundĠverfolgt.": 1823,
      "rabbitĠisĠtoĠtheĠrightĠofĠtheĠ": 1824,
      "horseĠisĠaboveĠtheĠ": 1825,
      "ĠìĦ¸Ġë§Īë¦¬ìĻĢĠìŀĳìĿĢ": 1826,
      "KaninchenĠgesehenĠundĠdasĠ": 1827,
      "duckĠisĠbehindĠtheĠ": 1828,
      "foxĠisĠaboveĠtheĠ": 1829,
      "mouseĠisĠinĠfrontĠofĠtheĠ": 1830,
      "BÃ¤renĠverfolgt.": 1831,
      "foxĠisĠtoĠtheĠrightĠofĠtheĠ": 1832,
      "KatzeĠgegrÃ¼ÃŁtĠundĠdieĠ": 1833,
      "Ġëħ¸ëŀĢĠê°ľê°Ģ": 1834,
      "ĠíķĺìĸĢĠê³łìĸĳìĿ´ê°Ģ": 1835,
      "HuhnĠundĠderĠ": 1836,
      "ĠìĿ¼ê³±Ġë§Īë¦¬ìĻĢĠíģ°": 1837,
      "duckĠisĠtoĠtheĠrightĠofĠtheĠ": 1838,
      "duckĠisĠtoĠtheĠleftĠofĠtheĠ": 1839,
      "horseĠisĠinĠfrontĠofĠtheĠ": 1840,
      "foxĠisĠbelowĠtheĠ": 1841,
      "FuchsĠgesehen.": 1842,
      "rabbitĠisĠbelowĠtheĠ": 1843,
      "LÃ¶wenĠverfolgtĠundĠderĠ": 1844,
      "ĠìĿ¼ê³±Ġë§Īë¦¬ìĻĢĠìŀĳìĿĢ": 1845,
      "ëĬĻìĿĢĠë¹¨ê°Ħ": 1846,
      "bearĠisĠbehindĠtheĠ": 1847,
      "HundĠundĠdieĠ": 1848,
      "PferdĠgegrÃ¼ÃŁt.": 1849,
      "PferdĠgesehenĠundĠdasĠ": 1850,
      "FuchsĠgegrÃ¼ÃŁtĠundĠderĠ": 1851,
      "dogĠisĠinĠfrontĠofĠtheĠ": 1852,
      "ĠìĹ¬ìĦ¯Ġë§Īë¦¬ìĻĢĠíģ°": 1853,
      "duckĠisĠaboveĠtheĠ": 1854,
      "KaninchenĠundĠdieĠ": 1855,
      "bearĠisĠaboveĠtheĠ": 1856,
      "EnteĠundĠdasĠ": 1857,
      "FuchsĠgesehenĠundĠderĠ": 1858,
      "EnteĠgesehenĠundĠdieĠ": 1859,
      "foxĠisĠinĠfrontĠofĠtheĠ": 1860,
      "KatzeĠwirdĠnichtĠvonĠdemĠ": 1861,
      "ĠìĹ¬ìĦ¯Ġë§Īë¦¬ìĻĢĠëĬĻìĿĢ": 1862,
      "foxĠisĠbehindĠtheĠ": 1863,
      "KaninchenĠverfolgtĠundĠdasĠ": 1864,
      "duckĠisĠbelowĠtheĠ": 1865,
      "rabbitĠisĠtoĠtheĠleftĠofĠtheĠ": 1866,
      "ĠíķĺìĸĢĠíĨłëģ¼ê°Ģ": 1867,
      "dogĠisĠbehindĠtheĠ": 1868,
      "FuchsĠwirdĠnichtĠvonĠdemĠ": 1869,
      "ĠíĮĮëŀĢĠê³łìĸĳìĿ´ê°Ģ": 1870,
      "ĠìĹ¬ìĦ¯Ġë§Īë¦¬ìĻĢĠìĸ´ë¦°": 1871,
      "ëĬĻìĿĢĠíĮĮëŀĢ": 1872,
      "KaninchenĠundĠderĠ": 1873,
      "MausĠgesehen.": 1874,
      "FuchsĠundĠdieĠ": 1875,
      "MausĠnichtĠundĠdieĠ": 1876,
      "ĠìĿ¼ê³±Ġë§Īë¦¬ìĻĢĠìĸ´ë¦°": 1877,
      "BÃ¤renĠgegrÃ¼ÃŁt.": 1878,
      "seĠundĠdreiĠ": 1879,
      "LÃ¶wenĠnichtĠundĠderĠ": 1880,
      "ĠìĸĳìĿĢĠëĬĻìĿĢ": 1881,
      "ìĸ´ë¦°Ġëħ¸ëŀĢ": 1882,
      "Ĥ¬ìŀĲê°ĢĠë§ŀìĿ´íķľëĭ¤ëĬĶĠê²ĥìĿ´Ġëª¨ëĳĲĠìĤ¬ìĭ¤ìĿ´ëĭ¤.": 1883,
      "ìĿ´ĠëĴ¤ëĶ°ë¥¸ëĭ¤ëĬĶĠê²ĥê³¼ĠìŀĳìĿĢ": 1884,
      "HuhnĠistĠoberhalbĠvonĠdemĠ": 1885,
      "MausĠgrÃ¼ÃŁtĠdasĠ": 1886,
      "ĠìĹ¬ìĦ¯Ġë§Īë¦¬ìĻĢĠìŀĳìĿĢ": 1887,
      "ëĬĻìĿĢĠëħ¸ëŀĢ": 1888,
      "¥Ĳê°ĢĠë§ŀìĿ´íķľëĭ¤ëĬĶĠê²ĥìĿ´Ġëª¨ëĳĲĠìĤ¬ìĭ¤ìĿ´ëĭ¤.": 1889,
      "HundĠsiehtĠdenĠ": 1890,
      "SchafĠnicht.": 1891,
      "mouseĠisĠbehindĠtheĠ": 1892,
      "Ġê³łìĸĳìĿ´ĠëĳĲ": 1893,
      "íģ°ĠíĮĮëŀĢ": 1894,
      "íģ°ĠíķĺìĸĢ": 1895,
      "ìŀĳìĿĢĠíķĺìĸĢ": 1896,
      "ìĸ´ë¦°ĠíĮĮëŀĢ": 1897,
      "EnteĠnicht.": 1898,
      "Ĥ¬ìŀĲê°ĢĠë³¸ëĭ¤ëĬĶĠê²ĥìĿ´Ġëª¨ëĳĲĠìĤ¬ìĭ¤ìĿ´ëĭ¤.": 1899,
      "ĠìĸĳìĿĢĠìĸ´ë¦°": 1900,
      "íģ°Ġë¹¨ê°Ħ": 1901,
      "ìĿ´ĠëĴ¤ëĶ°ë¥¸ëĭ¤ëĬĶĠê²ĥê³¼Ġíģ°": 1902,
      "ìĿ´Ġë³¸ëĭ¤ëĬĶĠê²ĥê³¼Ġíģ°": 1903,
      "ìŀĳìĿĢĠíĮĮëŀĢ": 1904,
      "ĠëĭŃìĿ´Ġë§ŀìĿ´íķľëĭ¤ëĬĶĠê²ĥìĿ´Ġëª¨ëĳĲĠìĤ¬ìĭ¤ìĿ´ëĭ¤.": 1905,
      "ëĬĻìĿĢĠíķĺìĸĢ": 1906,
      "KaninchenĠnicht.": 1907,
      "KuhĠnicht.": 1908,
      "EnteĠsiehtĠdenĠ": 1909,
      "ĺ¤ë¦¬ê°ĢĠë³¸ëĭ¤ëĬĶĠê²ĥìĿ´Ġëª¨ëĳĲĠìĤ¬ìĭ¤ìĿ´ëĭ¤.": 1910,
      "íģ°Ġëħ¸ëŀĢ": 1911,
      "HundĠistĠunterhalbĠvonĠdemĠ": 1912,
      "Ġê³łìĸĳìĿ´ĠëĦ¤": 1913,
      "HuhnĠverfolgtĠdieĠ": 1914,
      "PferdĠistĠrechtsĠvonĠdemĠ": 1915,
      "FuchsĠnichtĠundĠderĠ": 1916,
      "BÃ¤rĠistĠrechtsĠvonĠdemĠ": 1917,
      "KuhĠistĠlinksĠvonĠdemĠ": 1918,
      "Ġëħ¸ëŀĢĠìĸĳìĿ´": 1919,
      "KaninchenĠgrÃ¼ÃŁtĠdasĠ": 1920,
      "KuhĠsiehtĠdieĠ": 1921,
      "SchafĠverfolgtĠdenĠ": 1922,
      "EnteĠnichtĠundĠdieĠ": 1923,
      "Ĥ¬ìŀĲê°ĢĠëĴ¤ëĶ°ë¥¸ëĭ¤ëĬĶĠê²ĥìĿ´Ġëª¨ëĳĲĠìĤ¬ìĭ¤ìĿ´ëĭ¤.": 1924,
      "¥Ĳê°ĢĠëĴ¤ëĶ°ë¥¸ëĭ¤ëĬĶĠê²ĥìĿ´Ġëª¨ëĳĲĠìĤ¬ìĭ¤ìĿ´ëĭ¤.": 1925,
      "ĺ¤ë¦¬ê°ĢĠëĴ¤ëĶ°ë¥¸ëĭ¤ëĬĶĠê²ĥìĿ´Ġëª¨ëĳĲĠìĤ¬ìĭ¤ìĿ´ëĭ¤.": 1926,
      "PferdĠnicht.": 1927,
      "LÃ¶weĠsiehtĠdasĠ": 1928,
      "ĺ¤ë¦¬ê°ĢĠë§ŀìĿ´íķľëĭ¤ëĬĶĠê²ĥìĿ´Ġëª¨ëĳĲĠìĤ¬ìĭ¤ìĿ´ëĭ¤.": 1929,
      "ìĸ´ë¦°ĠíķĺìĸĢ": 1930,
      "Ĺ¬ìļ°ê°ĢĠëĴ¤ëĶ°ë¥¸ëĭ¤ëĬĶĠê²ĥìĿ´Ġëª¨ëĳĲĠìĤ¬ìĭ¤ìĿ´ëĭ¤.": 1931,
      "KaninchenĠgrÃ¼ÃŁtĠdieĠ": 1932,
      "HundĠgrÃ¼ÃŁtĠdieĠ": 1933,
      "HundĠgrÃ¼ÃŁtĠdenĠ": 1934,
      "SchafĠnichtĠundĠdasĠ": 1935,
      "PferdĠsiehtĠdenĠ": 1936,
      "LÃ¶weĠistĠunterhalbĠvonĠdemĠ": 1937,
      "ìĿ´ĠëĴ¤ëĶ°ë¥¸ëĭ¤ëĬĶĠê²ĥê³¼ĠëĬĻìĿĢ": 1938,
      "SchafĠistĠrechtsĠvonĠdemĠ": 1939,
      "HuhnĠnichtĠundĠdasĠ": 1940,
      "ìĿ´Ġë³¸ëĭ¤ëĬĶĠê²ĥê³¼ĠëĬĻìĿĢ": 1941,
      "Ĺ¬ìļ°ê°ĢĠë§ŀìĿ´íķľëĭ¤ëĬĶĠê²ĥìĿ´Ġëª¨ëĳĲĠìĤ¬ìĭ¤ìĿ´ëĭ¤.": 1942,
      "HuhnĠnicht.": 1943,
      "KuhĠnichtĠundĠdieĠ": 1944,
      "SchafĠgrÃ¼ÃŁtĠdieĠ": 1945,
      "FuchsĠgrÃ¼ÃŁtĠdieĠ": 1946,
      "LÃ¶weĠgrÃ¼ÃŁtĠdenĠ": 1947,
      "ĠíĮĮëŀĢĠìĸĳìĿ´": 1948,
      "KaninchenĠnichtĠundĠdasĠ": 1949,
      "KuhĠverfolgtĠdenĠ": 1950,
      "PferdĠistĠunterhalbĠvonĠdemĠ": 1951,
      "LÃ¶wenĠnicht.": 1952,
      "BÃ¤renĠnicht.": 1953,
      "MausĠistĠoberhalbĠvonĠdemĠ": 1954,
      "KuhĠistĠrechtsĠvonĠdemĠ": 1955,
      "ìŀĳìĿĢĠëħ¸ëŀĢ": 1956,
      "HuhnĠistĠvorĠdemĠ": 1957,
      "PferdĠistĠlinksĠvonĠdemĠ": 1958,
      "ìĿ´Ġë³¸ëĭ¤ëĬĶĠê²ĥê³¼ĠìŀĳìĿĢ": 1959,
      "ìŀĳìĿĢĠë¹¨ê°Ħ": 1960,
      "LÃ¶weĠistĠhinterĠdemĠ": 1961,
      "KaninchenĠistĠoberhalbĠvonĠdemĠ": 1962,
      "EnteĠverfolgtĠdenĠ": 1963,
      "PferdĠnichtĠundĠdasĠ": 1964,
      "KaninchenĠistĠvorĠdemĠ": 1965,
      "ĨĮê°ĢĠëĴ¤ëĶ°ë¥¸ëĭ¤ëĬĶĠê²ĥìĿ´Ġëª¨ëĳĲĠìĤ¬ìĭ¤ìĿ´ëĭ¤.": 1966,
      "ĠíķĺìĸĢĠìĸĳìĿ´": 1967,
      "HuhnĠgrÃ¼ÃŁtĠdenĠ": 1968,
      "SchafĠsiehtĠdieĠ": 1969,
      "LÃ¶weĠsiehtĠdieĠ": 1970,
      "BÃ¤rĠverfolgtĠdasĠ": 1971,
      "ĠìĸĳìĿĢĠíģ°": 1972,
      "MausĠistĠunterhalbĠvonĠdemĠ": 1973,
      "SchafĠistĠlinksĠvonĠdemĠ": 1974,
      "ĨĮê°ĢĠë§ŀìĿ´íķľëĭ¤ëĬĶĠê²ĥìĿ´Ġëª¨ëĳĲĠìĤ¬ìĭ¤ìĿ´ëĭ¤.": 1975,
      "HuhnĠistĠhinterĠdemĠ": 1976,
      "MausĠnicht.": 1977,
      "KuhĠistĠhinterĠdemĠ": 1978,
      "SchafĠverfolgtĠdasĠ": 1979,
      "KatzeĠnichtĠundĠdieĠ": 1980,
      "ĨĮê°ĢĠë³¸ëĭ¤ëĬĶĠê²ĥìĿ´Ġëª¨ëĳĲĠìĤ¬ìĭ¤ìĿ´ëĭ¤.": 1981,
      "ìĿ´ĠëĴ¤ëĶ°ë¥¸ëĭ¤ëĬĶĠê²ĥê³¼Ġìĸ´ë¦°": 1982,
      "ĠìĸĳìĿĢĠìŀĳìĿĢ": 1983,
      "ĠíĮĮëŀĢĠì¥ĲĠì": 1984,
      "MausĠistĠrechtsĠvonĠdemĠ": 1985,
      "KatzeĠistĠhinterĠdemĠ": 1986,
      "HuhnĠistĠunterhalbĠvonĠdemĠ": 1987,
      "HuhnĠverfolgtĠdenĠ": 1988,
      "HundĠnicht.": 1989,
      "SchafĠistĠvorĠdemĠ": 1990,
      "EnteĠgrÃ¼ÃŁtĠdieĠ": 1991,
      "KatzeĠnicht.": 1992,
      "KatzeĠverfolgtĠdieĠ": 1993,
      "KatzeĠsiehtĠdasĠ": 1994,
      "BÃ¤rĠsiehtĠdasĠ": 1995,
      "HundĠistĠoberhalbĠvonĠdemĠ": 1996,
      "MausĠistĠvorĠdemĠ": 1997,
      "KaninchenĠsiehtĠdenĠ": 1998,
      "MausĠsiehtĠdenĠ": 1999,
      "KuhĠverfolgtĠdasĠ": 2000,
      "KatzeĠverfolgtĠdenĠ": 2001,
      "FuchsĠverfolgtĠdieĠ": 2002,
      "BÃ¤rĠsiehtĠdenĠ": 2003,
      "HundĠistĠlinksĠvonĠdemĠ": 2004,
      "Ĺ¬ìļ°ê°ĢĠë³¸ëĭ¤ëĬĶĠê²ĥìĿ´Ġëª¨ëĳĲĠìĤ¬ìĭ¤ìĿ´ëĭ¤.": 2005,
      "HuhnĠverfolgtĠdasĠ": 2006,
      "HundĠgrÃ¼ÃŁtĠdasĠ": 2007,
      "HundĠnichtĠundĠderĠ": 2008,
      "KuhĠverfolgtĠdieĠ": 2009,
      "KuhĠsiehtĠdasĠ": 2010,
      "KatzeĠistĠrechtsĠvonĠdemĠ": 2011,
      "PferdĠgrÃ¼ÃŁtĠdenĠ": 2012,
      "FuchsĠverfolgtĠdenĠ": 2013,
      "LÃ¶weĠsiehtĠdenĠ": 2014,
      "BÃ¤rĠgrÃ¼ÃŁtĠdasĠ": 2015,
      "LÃ¶weĠistĠrechtsĠvonĠdemĠ": 2016,
      "HuhnĠgrÃ¼ÃŁtĠdieĠ": 2017,
      "MausĠverfolgtĠdasĠ": 2018,
      "SchafĠistĠhinterĠdemĠ": 2019,
      "KatzeĠgrÃ¼ÃŁtĠdieĠ": 2020,
      "PferdĠsiehtĠdasĠ": 2021,
      "FuchsĠverfolgtĠdasĠ": 2022,
      "FuchsĠsiehtĠdieĠ": 2023,
      "LÃ¶weĠgrÃ¼ÃŁtĠdieĠ": 2024,
      "Ġë§ĲìĿ´Ġë§ŀìĿ´íķľëĭ¤ëĬĶĠê²ĥìĿ´Ġëª¨ëĳĲĠìĤ¬ìĭ¤ìĿ´ëĭ¤.": 2025,
      "ìĿ´Ġë³¸ëĭ¤ëĬĶĠê²ĥê³¼Ġìĸ´ë¦°": 2026,
      "KaninchenĠistĠhinterĠdemĠ": 2027,
      "FuchsĠistĠlinksĠvonĠdemĠ": 2028,
      "HundĠverfolgtĠdieĠ": 2029,
      "MausĠsiehtĠdieĠ": 2030,
      "EnteĠverfolgtĠdieĠ": 2031,
      "EnteĠsiehtĠdasĠ": 2032,
      "PferdĠistĠoberhalbĠvonĠdemĠ": 2033,
      "LÃ¶weĠgrÃ¼ÃŁtĠdasĠ": 2034,
      "KuhĠistĠunterhalbĠvonĠdemĠ": 2035,
      "LÃ¶weĠistĠlinksĠvonĠdemĠ": 2036,
      "LÃ¶weĠistĠvorĠdemĠ": 2037,
      "¥Ĳê°ĢĠë³¸ëĭ¤ëĬĶĠê²ĥìĿ´Ġëª¨ëĳĲĠìĤ¬ìĭ¤ìĿ´ëĭ¤.": 2038,
      "HuhnĠistĠrechtsĠvonĠdemĠ": 2039,
      "HuhnĠistĠlinksĠvonĠdemĠ": 2040,
      "HuhnĠsiehtĠdasĠ": 2041,
      "KatzeĠsiehtĠdieĠ": 2042,
      "KuhĠistĠoberhalbĠvonĠdemĠ": 2043,
      "BÃ¤rĠistĠvorĠdemĠ": 2044,
      "KaninchenĠverfolgtĠdieĠ": 2045,
      "HuhnĠsiehtĠdenĠ": 2046,
      "HundĠsiehtĠdasĠ": 2047,
      "MausĠgrÃ¼ÃŁtĠdieĠ": 2048,
      "MausĠverfolgtĠdieĠ": 2049,
      "SchafĠistĠunterhalbĠvonĠdemĠ": 2050,
      "EnteĠgrÃ¼ÃŁtĠdasĠ": 2051,
      "BÃ¤rĠistĠunterhalbĠvonĠdemĠ": 2052,
      "smallĠblackĠsheep.": 2053,
      "oldĠblueĠsheep.": 2054,
      "FuchsĠistĠunterhalbĠvonĠdemĠ": 2055,
      "KaninchenĠverfolgtĠdasĠ": 2056,
      "MausĠgrÃ¼ÃŁtĠdenĠ": 2057,
      "EnteĠgrÃ¼ÃŁtĠdenĠ": 2058,
      "PferdĠgrÃ¼ÃŁtĠdasĠ": 2059,
      "LÃ¶weĠverfolgtĠdenĠ": 2060,
      "LÃ¶weĠistĠoberhalbĠvonĠdemĠ": 2061,
      "KatzeĠistĠvorĠdemĠ": 2062,
      "Ġê³°ìĿ´Ġë§ŀìĿ´íķľëĭ¤ëĬĶĠê²ĥìĿ´Ġëª¨ëĳĲĠìĤ¬ìĭ¤ìĿ´ëĭ¤.": 2063,
      "HundĠverfolgtĠdenĠ": 2064,
      "KuhĠsiehtĠdenĠ": 2065,
      "LÃ¶weĠverfolgtĠdieĠ": 2066,
      "LÃ¶weĠverfolgtĠdasĠ": 2067,
      "MausĠistĠlinksĠvonĠdemĠ": 2068,
      "MausĠverfolgtĠdenĠ": 2069,
      "KuhĠgrÃ¼ÃŁtĠdasĠ": 2070,
      "KuhĠistĠvorĠdemĠ": 2071,
      "SchafĠgrÃ¼ÃŁtĠdasĠ": 2072,
      "SchafĠverfolgtĠdieĠ": 2073,
      "EnteĠistĠlinksĠvonĠdemĠ": 2074,
      "FuchsĠnicht.": 2075,
      "BÃ¤rĠistĠoberhalbĠvonĠdemĠ": 2076,
      "HundĠistĠvorĠdemĠ": 2077,
      "FuchsĠistĠoberhalbĠvonĠdemĠ": 2078,
      "HuhnĠgrÃ¼ÃŁtĠdasĠ": 2079,
      "SchafĠistĠoberhalbĠvonĠdemĠ": 2080,
      "SchafĠsiehtĠdasĠ": 2081,
      "KatzeĠgrÃ¼ÃŁtĠdasĠ": 2082,
      "BÃ¤rĠistĠlinksĠvonĠdemĠ": 2083,
      "Ġì´Īë¡ĿìĥīĠì¥ĲĠì": 2084,
      "EnteĠistĠhinterĠdemĠ": 2085,
      "FuchsĠgrÃ¼ÃŁtĠdasĠ": 2086,
      "ĠíĮĮëŀĢĠìĤ¬ìŀĲĠì": 2087,
      "KaninchenĠverfolgtĠdenĠ": 2088,
      "KaninchenĠsiehtĠdieĠ": 2089,
      "HundĠverfolgtĠdasĠ": 2090,
      "EnteĠistĠrechtsĠvonĠdemĠ": 2091,
      "KatzeĠistĠoberhalbĠvonĠdemĠ": 2092,
      "KatzeĠgrÃ¼ÃŁtĠdenĠ": 2093,
      "PferdĠverfolgtĠdenĠ": 2094,
      "PferdĠverfolgtĠdasĠ": 2095,
      "BÃ¤rĠsiehtĠdieĠ": 2096,
      "BÃ¤renĠnichtĠundĠderĠ": 2097,
      "SchafĠgrÃ¼ÃŁtĠdenĠ": 2098,
      "FuchsĠistĠvorĠdemĠ": 2099,
      "BÃ¤rĠverfolgtĠdieĠ": 2100,
      "BÃ¤rĠgrÃ¼ÃŁtĠdenĠ": 2101,
      "EnteĠistĠvorĠdemĠ": 2102,
      "KaninchenĠistĠunterhalbĠvonĠdemĠ": 2103,
      "KaninchenĠsiehtĠdasĠ": 2104,
      "HuhnĠsiehtĠdieĠ": 2105,
      "MausĠsiehtĠdasĠ": 2106,
      "EnteĠverfolgtĠdasĠ": 2107,
      "KatzeĠistĠunterhalbĠvonĠdemĠ": 2108,
      "PferdĠsiehtĠdieĠ": 2109,
      "KaninchenĠgrÃ¼ÃŁtĠdenĠ": 2110,
      "KatzeĠistĠlinksĠvonĠdemĠ": 2111,
      "PferdĠgrÃ¼ÃŁtĠdieĠ": 2112,
      "FuchsĠistĠhinterĠdemĠ": 2113,
      "lionĠisĠnotĠseenĠbyĠtheĠ": 2114,
      "HundĠistĠrechtsĠvonĠdemĠ": 2115,
      "PferdĠistĠvorĠdemĠ": 2116,
      "BÃ¤rĠverfolgtĠdenĠ": 2117,
      "oldĠyellowĠsheep.": 2118,
      "dogĠdoesĠnotĠgreetĠtheĠ": 2119,
      "Ġì´Īë¡ĿìĥīĠìĤ¬ìŀĲĠì": 2120,
      "HundĠistĠhinterĠdemĠ": 2121,
      "PferdĠistĠhinterĠdemĠ": 2122,
      "FuchsĠistĠrechtsĠvonĠdemĠ": 2123,
      "KaninchenĠistĠrechtsĠvonĠdemĠ": 2124,
      "HundĠsiehtĠdieĠ": 2125,
      "EnteĠistĠunterhalbĠvonĠdemĠ": 2126,
      "KaninchenĠistĠlinksĠvonĠdemĠ": 2127,
      "EnteĠistĠoberhalbĠvonĠdemĠ": 2128,
      "lionĠdoesĠnotĠfollowĠtheĠ": 2129,
      "BÃ¤rĠistĠhinterĠdemĠ": 2130,
      "Ġëħ¸ëŀĢĠì¥ĲĠì": 2131,
      "ĠíķĺìĸĢĠì¥ĲĠì": 2132,
      "Ġë¹¨ê°ĦĠì¥ĲĠì": 2133,
      "KuhĠgrÃ¼ÃŁtĠdenĠ": 2134,
      "BÃ¤rĠgrÃ¼ÃŁtĠdieĠ": 2135,
      "dogĠdoesĠnotĠfollowĠtheĠ": 2136,
      "Ġë¹¨ê°ĦĠìĤ¬ìŀĲĠì": 2137,
      "KuhĠgrÃ¼ÃŁtĠdieĠ": 2138,
      "KatzeĠsiehtĠdenĠ": 2139,
      "KatzeĠverfolgtĠdasĠ": 2140,
      "PferdĠverfolgtĠdieĠ": 2141,
      "FuchsĠgrÃ¼ÃŁtĠdenĠ": 2142,
      "largeĠyellowĠsheep.": 2143,
      "ĠìĸĳìĿ´Ġìĸ´ë¦°": 2144,
      "catĠdoesĠnotĠseeĠtheĠ": 2145,
      "Ġê²ĢìĿĢĠì¥ĲĠì": 2146,
      "MausĠistĠhinterĠdemĠ": 2147,
      "rabbitĠisĠnotĠgreetedĠbyĠtheĠ": 2148,
      "KatzeĠwirdĠnichtĠvonĠderĠ": 2149,
      "mouseĠisĠnotĠgreetedĠbyĠtheĠ": 2150,
      "LÃ¶weĠwirdĠnichtĠvonĠderĠ": 2151,
      "smallĠyellowĠsheep.": 2152,
      "oldĠblackĠsheep.": 2153,
      "cowĠisĠnotĠseenĠbyĠtheĠ": 2154,
      "ĠíķĺìĸĢĠìĤ¬ìŀĲĠì": 2155,
      "largeĠredĠsheep.": 2156,
      "bearĠdoesĠnotĠfollowĠtheĠ": 2157,
      "SchafĠsiehtĠdenĠ": 2158,
      "mouseĠdoesĠnotĠgreetĠtheĠ": 2159,
      "miceĠandĠfiveĠ": 2160,
      "MÃ¤useĠundĠfÃ¼nfĠ": 2161,
      "rabbitĠdoesĠnotĠseeĠtheĠ": 2162,
      "FuchsĠwirdĠnichtĠvonĠderĠ": 2163,
      "Ġëħ¸ëŀĢĠìĤ¬ìŀĲĠì": 2164,
      "EnteĠsiehtĠdieĠ": 2165,
      "oldĠredĠsheep.": 2166,
      "youngĠblackĠlionĠandĠtheĠ": 2167,
      "horsesĠandĠfourĠ": 2168,
      "Ġë§ĲĠìĿ¼ê³±": 2169,
      "ĠìĸĳìĿ´ĠìŀĳìĿĢ": 2170,
      "PferdeĠundĠvierĠ": 2171,
      "lionĠdoesĠnotĠgreetĠtheĠ": 2172,
      "SchafĠwirdĠnichtĠvonĠderĠ": 2173,
      "Ġë§ĲĠìĿ¼ê³±Ġë§Īë¦¬ê°ĢĠìŀĪëĭ¤.": 2174,
      "FuchsĠsiehtĠdenĠ": 2175,
      "smallĠblackĠmouse.": 2176,
      "largeĠblueĠhorse.": 2177,
      "cowĠdoesĠnotĠseeĠtheĠ": 2178,
      "lionĠdoesĠnotĠseeĠtheĠ": 2179,
      "KaninchenĠwirdĠnichtĠvonĠderĠ": 2180,
      "sheepĠisĠnotĠgreetedĠbyĠtheĠ": 2181,
      "dogĠisĠnotĠseenĠbyĠtheĠ": 2182,
      "dogĠisĠnotĠfollowedĠbyĠtheĠ": 2183,
      "Ġê³łìĸĳìĿ´Ġëĭ¤ìĦ¯Ġë§Īë¦¬ê°ĢĠìŀĪëĭ¤.": 2184,
      "duckĠdoesĠnotĠfollowĠtheĠ": 2185,
      "duckĠisĠnotĠgreetedĠbyĠtheĠ": 2186,
      "youngĠblackĠlion.": 2187,
      "henĠandĠtheĠyoungĠredĠ": 2188,
      "sheepĠdoesĠnotĠseeĠtheĠ": 2189,
      "dogĠdoesĠnotĠseeĠtheĠ": 2190,
      "cowĠdoesĠnotĠgreetĠtheĠ": 2191,
      "lionĠisĠnotĠgreetedĠbyĠtheĠ": 2192,
      "henĠdoesĠnotĠfollowĠtheĠ": 2193,
      "Ġê²ĢìĿĢĠìĤ¬ìŀĲĠì": 2194,
      "FuchsĠsiehtĠdasĠ": 2195,
      "oldĠyellowĠcat.": 2196,
      "largeĠblackĠsheep.": 2197,
      "oldĠgreenĠsheep.": 2198,
      "sheepĠisĠnotĠseenĠbyĠtheĠ": 2199,
      "sheepĠisĠnotĠfollowedĠbyĠtheĠ": 2200,
      "catĠandĠtheĠoldĠredĠ": 2201,
      "KuhĠwirdĠnichtĠvonĠderĠ": 2202,
      "mouseĠdoesĠnotĠseeĠtheĠ": 2203,
      "mouseĠisĠnotĠfollowedĠbyĠtheĠ": 2204,
      "horseĠdoesĠnotĠseeĠtheĠ": 2205,
      "youngĠredĠduckĠandĠtheĠ": 2206,
      "largeĠblueĠlionĠandĠtheĠ": 2207,
      "smallĠwhiteĠsheep.": 2208,
      "largeĠgreenĠsheep.": 2209,
      "smallĠredĠsheep.": 2210,
      "bearĠisĠnotĠfollowedĠbyĠtheĠ": 2211,
      "bearĠdoesĠnotĠseeĠtheĠ": 2212,
      "foxesĠandĠsevenĠ": 2213,
      "FÃ¼chseĠundĠsiebenĠ": 2214,
      "bearsĠandĠfiveĠ": 2215,
      "BÃ¤renĠundĠfÃ¼nfĠ": 2216,
      "catsĠandĠsevenĠ": 2217,
      "bearĠisĠnotĠseenĠbyĠtheĠ": 2218,
      "KatzenĠundĠsiebenĠ": 2219,
      "dogsĠandĠfourĠ": 2220,
      "henĠdoesĠnotĠseeĠtheĠ": 2221,
      "henĠisĠnotĠgreetedĠbyĠtheĠ": 2222,
      "henĠisĠnotĠseenĠbyĠtheĠ": 2223,
      "henĠisĠnotĠfollowedĠbyĠtheĠ": 2224,
      "lionĠisĠnotĠfollowedĠbyĠtheĠ": 2225,
      "ducksĠandĠfourĠ": 2226,
      "cowĠandĠtheĠoldĠgreenĠ": 2227,
      "sheepĠdoesĠnotĠfollowĠtheĠ": 2228,
      "rabbitĠandĠtheĠyoungĠyellowĠ": 2229,
      "horseĠandĠtheĠlargeĠblueĠ": 2230,
      "EntenĠundĠvierĠ": 2231,
      "HundeĠundĠvierĠ": 2232,
      "rabbitĠdoesĠnotĠgreetĠtheĠ": 2233,
      "dogsĠandĠthreeĠ": 2234,
      "rabbitĠisĠnotĠseenĠbyĠtheĠ": 2235,
      "ducksĠandĠthreeĠ": 2236,
      "cowĠisĠnotĠfollowedĠbyĠtheĠ": 2237,
      "dogĠisĠnotĠgreetedĠbyĠtheĠ": 2238,
      "HundeĠundĠdreiĠ": 2239,
      "foxĠisĠnotĠfollowedĠbyĠtheĠ": 2240,
      "EntenĠundĠdreiĠ": 2241,
      "horseĠisĠnotĠseenĠbyĠtheĠ": 2242,
      "catĠisĠnotĠfollowedĠbyĠtheĠ": 2243,
      "largeĠyellowĠmouseĠandĠtheĠ": 2244,
      "oldĠredĠcat.": 2245,
      "smallĠgreenĠsheep.": 2246,
      "lionĠandĠtheĠsmallĠwhiteĠ": 2247,
      "sheepĠdoesĠnotĠgreetĠtheĠ": 2248,
      "miceĠandĠsevenĠ": 2249,
      "MÃ¤useĠundĠsiebenĠ": 2250,
      "MausĠwirdĠnichtĠvonĠderĠ": 2251,
      "mouseĠisĠnotĠseenĠbyĠtheĠ": 2252,
      "duckĠisĠnotĠseenĠbyĠtheĠ": 2253,
      "duckĠisĠnotĠfollowedĠbyĠtheĠ": 2254,
      "ìĸ´ë¦°Ġëħ¸ëŀĢĠê°ľ": 2255,
      "ìĸ´ë¦°Ġë¹¨ê°ĦĠìĺ¤ë¦¬": 2256,
      "KaninchenĠundĠachtĠ": 2257,
      "HuhnĠwirdĠnichtĠvonĠderĠ": 2258,
      "duckĠdoesĠnotĠgreetĠtheĠ": 2259,
      "horseĠisĠnotĠfollowedĠbyĠtheĠ": 2260,
      "catĠisĠnotĠgreetedĠbyĠtheĠ": 2261,
      "smallĠblackĠsheepĠandĠtheĠ": 2262,
      "oldĠblueĠhenĠandĠtheĠ": 2263,
      "youngĠblueĠsheep.": 2264,
      "oldĠgreenĠcow.": 2265,
      "ducksĠandĠsevenĠ": 2266,
      "mouseĠandĠtheĠoldĠgreenĠ": 2267,
      "bearĠandĠtheĠoldĠredĠ": 2268,
      "horsesĠandĠsevenĠ": 2269,
      "rabbitsĠandĠeightĠ": 2270,
      "bearĠdoesĠnotĠgreetĠtheĠ": 2271,
      "miceĠandĠsixĠ": 2272,
      "EntenĠundĠsiebenĠ": 2273,
      "PferdeĠundĠsiebenĠ": 2274,
      "MÃ¤useĠundĠsechsĠ": 2275,
      "Ġë§ĲĠìĹ¬ìĦ¯Ġë§Īë¦¬ê°ĢĠìŀĪëĭ¤.": 2276,
      "dogsĠandĠsixĠ": 2277,
      "ëĬĻìĿĢĠíĮĮëŀĢĠê°ľ": 2278,
      "mouseĠdoesĠnotĠfollowĠtheĠ": 2279,
      "horseĠisĠnotĠgreetedĠbyĠtheĠ": 2280,
      "catĠisĠnotĠseenĠbyĠtheĠ": 2281,
      "youngĠredĠdog.": 2282,
      "youngĠredĠduck.": 2283,
      "youngĠyellowĠhenĠandĠtheĠ": 2284,
      "cowĠisĠnotĠgreetedĠbyĠtheĠ": 2285,
      "bearĠandĠtheĠsmallĠgreenĠ": 2286,
      "catĠandĠtheĠoldĠyellowĠ": 2287,
      "sheepĠandĠsevenĠ": 2288,
      "HundeĠundĠsechsĠ": 2289,
      "SchafeĠundĠsiebenĠ": 2290,
      "henĠdoesĠnotĠgreetĠtheĠ": 2291,
      "smallĠblackĠmouseĠandĠtheĠ": 2292,
      "oldĠblueĠsheepĠandĠtheĠ": 2293,
      "largeĠblueĠlion.": 2294,
      "youngĠgreenĠsheep.": 2295,
      "largeĠgreenĠrabbit.": 2296,
      "smallĠblueĠcow.": 2297,
      "henĠandĠtheĠyoungĠblackĠ": 2298,
      "dogĠandĠtheĠyoungĠredĠ": 2299,
      "cowĠandĠtheĠyoungĠwhiteĠ": 2300,
      "foxĠdoesĠnotĠgreetĠtheĠ": 2301,
      "foxĠdoesĠnotĠseeĠtheĠ": 2302,
      "ĠìĸĳìĿ´Ġíģ°": 2303,
      "catĠdoesĠnotĠgreetĠtheĠ": 2304,
      "PferdĠwirdĠnichtĠvonĠderĠ": 2305,
      "catsĠandĠfiveĠ": 2306,
      "foxĠisĠnotĠgreetedĠbyĠtheĠ": 2307,
      "KatzenĠundĠfÃ¼nfĠ": 2308,
      "horseĠdoesĠnotĠgreetĠtheĠ": 2309,
      "rabbitĠisĠnotĠfollowedĠbyĠtheĠ": 2310,
      "youngĠredĠsheep.": 2311,
      "oldĠblueĠbear.": 2312,
      "oldĠyellowĠhen.": 2313,
      "youngĠwhiteĠhorseĠandĠtheĠ": 2314,
      "dogĠandĠtheĠlargeĠwhiteĠ": 2315,
      "duckĠandĠtheĠlargeĠblueĠ": 2316,
      "foxĠdoesĠnotĠfollowĠtheĠ": 2317,
      "dogsĠandĠsevenĠ": 2318,
      "dogsĠandĠtwoĠ": 2319,
      "HundĠwirdĠnichtĠvonĠderĠ": 2320,
      "EnteĠwirdĠnichtĠvonĠderĠ": 2321,
      "PferdeĠundĠdreiĠ": 2322,
      "horsesĠandĠthreeĠ": 2323,
      "HundeĠundĠsiebenĠ": 2324,
      "HundeĠundĠzweiĠ": 2325,
      "dogsĠandĠeightĠ": 2326,
      "ìŀĳìĿĢĠíķĺìĸĢĠê°ľ": 2327,
      "ìŀĳìĿĢĠíķĺìĸĢĠìĨĮ": 2328,
      "ëĬĻìĿĢĠíķĺìĸĢĠê°ľ": 2329,
      "ëĬĻìĿĢĠê²ĢìĿĢĠìĨĮ": 2330,
      "íģ°Ġëħ¸ëŀĢĠìĹ¬ìļ°": 2331,
      "BÃ¤rĠwirdĠnichtĠvonĠderĠ": 2332,
      "largeĠyellowĠlion.": 2333,
      "youngĠredĠhen.": 2334,
      "largeĠblueĠsheep.": 2335,
      "youngĠblackĠhen.": 2336,
      "largeĠblackĠcat.": 2337,
      "smallĠwhiteĠlion.": 2338,
      "LÃ¶wenĠundĠfÃ¼nfĠ": 2339,
      "foxĠisĠnotĠseenĠbyĠtheĠ": 2340,
      "bearĠandĠtheĠyoungĠredĠ": 2341,
      "horseĠandĠtheĠsmallĠblackĠ": 2342,
      "cowĠdoesĠnotĠfollowĠtheĠ": 2343,
      "lionsĠandĠfiveĠ": 2344,
      "HundeĠundĠachtĠ": 2345,
      "rabbitĠdoesĠnotĠfollowĠtheĠ": 2346,
      "dogsĠandĠfiveĠ": 2347,
      "HundeĠundĠfÃ¼nfĠ": 2348,
      "cowsĠandĠeightĠ": 2349,
      "ìŀĳìĿĢĠíĮĮëŀĢĠê°ľ": 2350,
      "ìĸ´ë¦°Ġëħ¸ëŀĢĠìĺ¤ë¦¬": 2351,
      "largeĠyellowĠsheepĠandĠtheĠ": 2352,
      "largeĠyellowĠmouse.": 2353,
      "youngĠredĠbear.": 2354,
      "oldĠblueĠdog.": 2355,
      "oldĠblueĠdogĠandĠtheĠ": 2356,
      "oldĠyellowĠhenĠandĠtheĠ": 2357,
      "smallĠwhiteĠhorseĠandĠtheĠ": 2358,
      "smallĠgreenĠhorse.": 2359,
      "smallĠgreenĠbear.": 2360,
      "LÃ¶wenĠundĠvierĠ": 2361,
      "youngĠwhiteĠsheep.": 2362,
      "smallĠredĠrabbitĠandĠtheĠ": 2363,
      "horsesĠandĠeightĠ": 2364,
      "horsesĠandĠtwoĠ": 2365,
      "lionsĠandĠfourĠ": 2366,
      "Ġë§ĲĠìĹ¬ëįŁ": 2367,
      "KÃ¼heĠundĠachtĠ": 2368,
      "PferdeĠundĠachtĠ": 2369,
      "PferdeĠundĠzweiĠ": 2370,
      "catĠdoesĠnotĠfollowĠtheĠ": 2371,
      "cowsĠandĠfiveĠ": 2372,
      "KaninchenĠundĠsiebenĠ": 2373,
      "LÃ¶wenĠundĠachtĠ": 2374,
      "bearĠisĠnotĠgreetedĠbyĠtheĠ": 2375,
      "rabbitsĠandĠsevenĠ": 2376,
      "lionsĠandĠeightĠ": 2377,
      "hensĠandĠfiveĠ": 2378,
      "HÃ¼hnerĠundĠfÃ¼nfĠ": 2379,
      "KÃ¼heĠundĠfÃ¼nfĠ": 2380,
      "ìŀĳìĿĢĠë¹¨ê°ĦĠíĨłëģ¼": 2381,
      "ìŀĳìĿĢĠì´Īë¡ĿìĥīĠê°ľ": 2382,
      "ìĸ´ë¦°Ġëħ¸ëŀĢĠìĹ¬ìļ°": 2383,
      "largeĠyellowĠcat.": 2384,
      "largeĠblueĠhen.": 2385,
      "largeĠblueĠcat.": 2386,
      "oldĠredĠdog.": 2387,
      "oldĠredĠbear.": 2388,
      "youngĠblackĠduckĠandĠtheĠ": 2389,
      "smallĠwhiteĠsheepĠandĠtheĠ": 2390,
      "smallĠgreenĠfoxĠandĠtheĠ": 2391,
      "smallĠblueĠsheep.": 2392,
      "largeĠredĠdog.": 2393,
      "youngĠwhiteĠcow.": 2394,
      "youngĠyellowĠhen.": 2395,
      "oldĠgreenĠhen.": 2396,
      "oldĠblackĠcowĠandĠtheĠ": 2397,
      "oldĠwhiteĠsheep.": 2398,
      "mouseĠandĠtheĠoldĠredĠ": 2399,
      "dogĠandĠtheĠyoungĠblackĠ": 2400,
      "bearĠandĠtheĠyoungĠyellowĠ": 2401,
      "foxĠandĠtheĠyoungĠblackĠ": 2402,
      "cowsĠandĠsevenĠ": 2403,
      "horsesĠandĠfiveĠ": 2404,
      "MÃ¤useĠundĠdreiĠ": 2405,
      "miceĠandĠthreeĠ": 2406,
      "KÃ¼heĠundĠsiebenĠ": 2407,
      "PferdeĠundĠfÃ¼nfĠ": 2408,
      "ëĬĻìĿĢĠíĮĮëŀĢĠìĹ¬ìļ°": 2409,
      "ìĸ´ë¦°ĠíķĺìĸĢĠìĺ¤ë¦¬": 2410,
      "ìĸ´ë¦°ĠíķĺìĸĢĠìĨĮ": 2411,
      "KaninchenĠundĠfÃ¼nfĠ": 2412,
      "KaninchenĠundĠzweiĠ": 2413,
      "horseĠdoesĠnotĠfollowĠtheĠ": 2414,
      "largeĠyellowĠcow.": 2415,
      "largeĠyellowĠfox.": 2416,
      "smallĠblackĠcow.": 2417,
      "oldĠyellowĠrabbit.": 2418,
      "oldĠyellowĠrabbitĠandĠtheĠ": 2419,
      "youngĠblackĠsheep.": 2420,
      "smallĠyellowĠcow.": 2421,
      "smallĠyellowĠsheepĠandĠtheĠ": 2422,
      "largeĠredĠhen.": 2423,
      "largeĠwhiteĠsheep.": 2424,
      "largeĠwhiteĠlionĠandĠtheĠ": 2425,
      "youngĠwhiteĠhen.": 2426,
      "youngĠyellowĠrabbit.": 2427,
      "smallĠredĠlion.": 2428,
      "oldĠblackĠcow.": 2429,
      "catsĠandĠfourĠ": 2430,
      "mouseĠandĠtheĠlargeĠblackĠ": 2431,
      "catĠandĠtheĠyoungĠredĠ": 2432,
      "rabbitsĠandĠfiveĠ": 2433,
      "rabbitsĠandĠtwoĠ": 2434,
      "KatzenĠundĠvierĠ": 2435,
      "sheepĠandĠtwoĠ": 2436,
      "SchafeĠundĠzweiĠ": 2437,
      "KaninchenĠundĠvierĠ": 2438,
      "catsĠandĠtwoĠ": 2439,
      "rabbitsĠandĠfourĠ": 2440,
      "KatzenĠundĠzweiĠ": 2441,
      "ìŀĳìĿĢĠíķĺìĸĢĠìĺ¤ë¦¬": 2442,
      "ëĬĻìĿĢĠëħ¸ëŀĢĠê°ľ": 2443,
      "ìĸ´ë¦°Ġëħ¸ëŀĢĠíĨłëģ¼": 2444,
      "oldĠblueĠlionĠandĠtheĠ": 2445,
      "oldĠredĠmouse.": 2446,
      "youngĠblackĠduck.": 2447,
      "smallĠwhiteĠhorse.": 2448,
      "smallĠgreenĠrabbit.": 2449,
      "youngĠgreenĠlionĠandĠtheĠ": 2450,
      "youngĠgreenĠfox.": 2451,
      "largeĠgreenĠcat.": 2452,
      "smallĠblueĠdogĠandĠtheĠ": 2453,
      "LÃ¶wenĠundĠdreiĠ": 2454,
      "largeĠwhiteĠhorse.": 2455,
      "youngĠwhiteĠduckĠandĠtheĠ": 2456,
      "youngĠwhiteĠcat.": 2457,
      "oldĠblackĠhen.": 2458,
      "dogĠandĠtheĠsmallĠredĠ": 2459,
      "bearĠandĠtheĠyoungĠblackĠ": 2460,
      "lionsĠandĠthreeĠ": 2461,
      "foxesĠandĠeightĠ": 2462,
      "FÃ¼chseĠundĠachtĠ": 2463,
      "bearsĠandĠeightĠ": 2464,
      "íģ°ĠíĮĮëŀĢĠìĤ¬ìŀĲ": 2465,
      "KaninchenĠundĠsechsĠ": 2466,
      "BÃ¤renĠundĠachtĠ": 2467,
      "catsĠandĠeightĠ": 2468,
      "rabbitsĠandĠsixĠ": 2469,
      "KatzenĠundĠachtĠ": 2470,
      "sheepĠandĠfourĠ": 2471,
      "SchafeĠundĠvierĠ": 2472,
      "ëĬĻìĿĢĠë¹¨ê°ĦĠìĺ¤ë¦¬": 2473,
      "ìĸ´ë¦°Ġë¹¨ê°ĦĠê°ľ": 2474,
      "largeĠyellowĠcowĠandĠtheĠ": 2475,
      "largeĠyellowĠrabbit.": 2476,
      "smallĠblackĠdog.": 2477,
      "largeĠblueĠduck.": 2478,
      "largeĠblueĠfoxĠandĠtheĠ": 2479,
      "oldĠredĠlion.": 2480,
      "oldĠredĠsheepĠandĠtheĠ": 2481,
      "oldĠyellowĠduckĠandĠtheĠ": 2482,
      "largeĠblackĠlion.": 2483,
      "smallĠwhiteĠcowĠandĠtheĠ": 2484,
      "youngĠgreenĠcat.": 2485,
      "youngĠgreenĠfoxĠandĠtheĠ": 2486,
      "largeĠgreenĠrabbitĠandĠtheĠ": 2487,
      "smallĠblueĠlion.": 2488,
      "smallĠblueĠdog.": 2489,
      "largeĠredĠcow.": 2490,
      "largeĠwhiteĠfox.": 2491,
      "youngĠblueĠmouse.": 2492,
      "oldĠgreenĠmouse.": 2493,
      "henĠandĠtheĠlargeĠyellowĠ": 2494,
      "duckĠandĠtheĠyoungĠblueĠ": 2495,
      "bearĠandĠtheĠsmallĠyellowĠ": 2496,
      "horseĠandĠtheĠsmallĠgreenĠ": 2497,
      "foxĠandĠtheĠlargeĠyellowĠ": 2498,
      "horsesĠandĠsixĠ": 2499,
      "foxesĠandĠfiveĠ": 2500,
      "hensĠandĠthreeĠ": 2501,
      "HÃ¼hnerĠundĠdreiĠ": 2502,
      "PferdeĠundĠsechsĠ": 2503,
      "FÃ¼chseĠundĠfÃ¼nfĠ": 2504,
      "cowsĠandĠfourĠ": 2505,
      "ducksĠandĠeightĠ": 2506,
      "hensĠandĠfourĠ": 2507,
      "miceĠandĠfourĠ": 2508,
      "EntenĠundĠachtĠ": 2509,
      "sheepĠandĠsixĠ": 2510,
      "HÃ¼hnerĠundĠvierĠ": 2511,
      "KÃ¼heĠundĠvierĠ": 2512,
      "MÃ¤useĠundĠvierĠ": 2513,
      "SchafeĠundĠsechsĠ": 2514,
      "Ġê³łìĸĳìĿ´ĠëĳĲĠë§Īë¦¬ê°ĢĠìŀĪëĭ¤.": 2515,
      "bearsĠandĠsevenĠ": 2516,
      "bearsĠandĠsixĠ": 2517,
      "ìŀĳìĿĢĠì´Īë¡ĿìĥīĠìĹ¬ìļ°": 2518,
      "ìŀĳìĿĢĠê²ĢìĿĢĠê°ľ": 2519,
      "ëĬĻìĿĢĠëħ¸ëŀĢĠìĺ¤ë¦¬": 2520,
      "íģ°ĠíķĺìĸĢĠê°ľ": 2521,
      "íģ°Ġì´Īë¡ĿìĥīĠìĺ¤ë¦¬": 2522,
      "largeĠyellowĠdog.": 2523,
      "smallĠblackĠbear.": 2524,
      "oldĠblueĠbearĠandĠtheĠ": 2525,
      "largeĠblueĠfox.": 2526,
      "youngĠblackĠrabbit.": 2527,
      "largeĠblackĠcatĠandĠtheĠ": 2528,
      "smallĠwhiteĠdog.": 2529,
      "youngĠgreenĠlion.": 2530,
      "youngĠgreenĠmouse.": 2531,
      "smallĠblueĠlionĠandĠtheĠ": 2532,
      "smallĠblueĠsheepĠandĠtheĠ": 2533,
      "smallĠyellowĠcowĠandĠtheĠ": 2534,
      "largeĠwhiteĠduck.": 2535,
      "youngĠwhiteĠdog.": 2536,
      "BÃ¤renĠundĠsiebenĠ": 2537,
      "BÃ¤renĠundĠsechsĠ": 2538,
      "henĠandĠtheĠlargeĠredĠ": 2539,
      "duckĠandĠtheĠoldĠwhiteĠ": 2540,
      "bearĠandĠtheĠyoungĠblueĠ": 2541,
      "rabbitĠandĠtheĠsmallĠblueĠ": 2542,
      "hensĠandĠsevenĠ": 2543,
      "Ġë§ĲĠìĹ¬ìĦ¯": 2544,
      "Ġë§ĲĠìĹ¬ëįŁĠë§Īë¦¬ê°ĢĠìŀĪëĭ¤.": 2545,
      "HÃ¼hnerĠundĠsiebenĠ": 2546,
      "LÃ¶wenĠundĠzweiĠ": 2547,
      "catsĠandĠsixĠ": 2548,
      "ducksĠandĠfiveĠ": 2549,
      "lionsĠandĠtwoĠ": 2550,
      "foxesĠandĠthreeĠ": 2551,
      "FÃ¼chseĠundĠdreiĠ": 2552,
      "EntenĠundĠfÃ¼nfĠ": 2553,
      "KatzenĠundĠsechsĠ": 2554,
      "bearsĠandĠfourĠ": 2555,
      "ìŀĳìĿĢĠê²ĢìĿĢĠìĹ¬ìļ°": 2556,
      "ëĬĻìĿĢĠë¹¨ê°ĦĠê°ľ": 2557,
      "íģ°Ġëħ¸ëŀĢĠìĨĮ": 2558,
      "íģ°Ġì´Īë¡ĿìĥīĠíĨłëģ¼": 2559,
      "íģ°Ġê²ĢìĿĢĠìĺ¤ë¦¬": 2560,
      "íģ°Ġê²ĢìĿĢĠê³łìĸĳìĿ´": 2561,
      "ìĸ´ë¦°Ġë¹¨ê°ĦĠìĨĮ": 2562,
      "ìĸ´ë¦°Ġê²ĢìĿĢĠìĺ¤ë¦¬": 2563,
      "BÃ¤rĠistĠlinksĠvonĠderĠ": 2564,
      "largeĠyellowĠlionĠandĠtheĠ": 2565,
      "largeĠyellowĠrabbitĠandĠtheĠ": 2566,
      "youngĠredĠlion.": 2567,
      "smallĠblackĠcowĠandĠtheĠ": 2568,
      "oldĠblueĠhen.": 2569,
      "youngĠblackĠfox.": 2570,
      "largeĠblackĠlionĠandĠtheĠ": 2571,
      "smallĠgreenĠlion.": 2572,
      "youngĠgreenĠmouseĠandĠtheĠ": 2573,
      "largeĠwhiteĠlion.": 2574,
      "largeĠwhiteĠdog.": 2575,
      "youngĠwhiteĠhorse.": 2576,
      "youngĠyellowĠlionĠandĠtheĠ": 2577,
      "youngĠyellowĠbear.": 2578,
      "youngĠyellowĠfoxĠandĠtheĠ": 2579,
      "oldĠblackĠhenĠandĠtheĠ": 2580,
      "oldĠwhiteĠbear.": 2581,
      "BÃ¤renĠundĠvierĠ": 2582,
      "henĠandĠtheĠsmallĠgreenĠ": 2583,
      "dogĠandĠtheĠoldĠwhiteĠ": 2584,
      "hensĠandĠsixĠ": 2585,
      "HÃ¼hnerĠundĠsechsĠ": 2586,
      "KatzeĠistĠunterhalbĠvonĠderĠ": 2587,
      "ducksĠandĠsixĠ": 2588,
      "foxesĠandĠtwoĠ": 2589,
      "hensĠandĠeightĠ": 2590,
      "EntenĠundĠsechsĠ": 2591,
      "sheepĠandĠfiveĠ": 2592,
      "HÃ¼hnerĠundĠachtĠ": 2593,
      "SchafeĠundĠfÃ¼nfĠ": 2594,
      "FÃ¼chseĠundĠzweiĠ": 2595,
      "SchafeĠundĠdreiĠ": 2596,
      "ìŀĳìĿĢĠëħ¸ëŀĢĠíĨłëģ¼": 2597,
      "ìŀĳìĿĢĠëħ¸ëŀĢĠìĨĮ": 2598,
      "ëĬĻìĿĢĠëħ¸ëŀĢĠíĨłëģ¼": 2599,
      "ëĬĻìĿĢĠì´Īë¡ĿìĥīĠìĹ¬ìļ°": 2600,
      "ëĬĻìĿĢĠì´Īë¡ĿìĥīĠìĨĮ": 2601,
      "íģ°Ġëħ¸ëŀĢĠíĨłëģ¼": 2602,
      "íģ°Ġë¹¨ê°ĦĠìĨĮ": 2603,
      "ìĸ´ë¦°Ġê²ĢìĿĢĠê°ľ": 2604,
      "duckĠdoesĠnotĠseeĠtheĠ": 2605,
      "largeĠyellowĠbear.": 2606,
      "oldĠyellowĠcow.": 2607,
      "oldĠyellowĠsheepĠandĠtheĠ": 2608,
      "youngĠblackĠcow.": 2609,
      "youngĠblackĠmouse.": 2610,
      "largeĠblackĠhen.": 2611,
      "largeĠblackĠhorseĠandĠtheĠ": 2612,
      "smallĠgreenĠlionĠandĠtheĠ": 2613,
      "smallĠgreenĠrabbitĠandĠtheĠ": 2614,
      "smallĠgreenĠfox.": 2615,
      "largeĠgreenĠdog.": 2616,
      "largeĠgreenĠmouse.": 2617,
      "smallĠblueĠrabbit.": 2618,
      "smallĠblueĠmouse.": 2619,
      "smallĠyellowĠmouseĠandĠtheĠ": 2620,
      "smallĠyellowĠcat.": 2621,
      "smallĠyellowĠbear.": 2622,
      "largeĠwhiteĠsheepĠandĠtheĠ": 2623,
      "youngĠblueĠcow.": 2624,
      "youngĠblueĠbear.": 2625,
      "youngĠblueĠduck.": 2626,
      "oldĠblackĠsheepĠandĠtheĠ": 2627,
      "oldĠblackĠmouse.": 2628,
      "oldĠwhiteĠlionĠandĠtheĠ": 2629,
      "dogĠandĠtheĠlargeĠyellowĠ": 2630,
      "bearĠandĠtheĠoldĠgreenĠ": 2631,
      "catĠandĠtheĠlargeĠyellowĠ": 2632,
      "foxesĠandĠsixĠ": 2633,
      "Ġë§ĲĠìĦ¸Ġë§Īë¦¬ê°ĢĠìŀĪëĭ¤.": 2634,
      "sheepĠandĠthreeĠ": 2635,
      "FÃ¼chseĠundĠsechsĠ": 2636,
      "ìĸ´ë¦°Ġê²ĢìĿĢĠìĤ¬ìŀĲ": 2637,
      "miceĠandĠtwoĠ": 2638,
      "sheepĠandĠeightĠ": 2639,
      "MÃ¤useĠundĠzweiĠ": 2640,
      "SchafeĠundĠachtĠ": 2641,
      "Ġê³łìĸĳìĿ´ĠëĦ¤Ġë§Īë¦¬ê°ĢĠìŀĪëĭ¤.": 2642,
      "ìŀĳìĿĢĠíĮĮëŀĢĠìĨĮ": 2643,
      "ìŀĳìĿĢĠíĮĮëŀĢĠìĹ¬ìļ°": 2644,
      "ëĬĻìĿĢĠì´Īë¡ĿìĥīĠíĨłëģ¼": 2645,
      "ëĬĻìĿĢĠíĮĮëŀĢĠìĺ¤ë¦¬": 2646,
      "ëĬĻìĿĢĠëħ¸ëŀĢĠìĹ¬ìļ°": 2647,
      "ëĬĻìĿĢĠíĮĮëŀĢĠíĨłëģ¼": 2648,
      "largeĠyellowĠhorse.": 2649,
      "largeĠyellowĠhorseĠandĠtheĠ": 2650,
      "smallĠblackĠlionĠandĠtheĠ": 2651,
      "oldĠyellowĠlionĠandĠtheĠ": 2652,
      "largeĠblackĠdog.": 2653,
      "largeĠblackĠmouse.": 2654,
      "largeĠblackĠhorse.": 2655,
      "largeĠblackĠduck.": 2656,
      "smallĠwhiteĠrabbit.": 2657,
      "smallĠwhiteĠduck.": 2658,
      "youngĠgreenĠhorse.": 2659,
      "smallĠyellowĠrabbit.": 2660,
      "smallĠyellowĠhorseĠandĠtheĠ": 2661,
      "smallĠyellowĠcatĠandĠtheĠ": 2662,
      "LÃ¶wenĠundĠsechsĠ": 2663,
      "largeĠredĠlion.": 2664,
      "largeĠredĠcowĠandĠtheĠ": 2665,
      "largeĠredĠfox.": 2666,
      "smallĠredĠcow.": 2667,
      "smallĠredĠrabbit.": 2668,
      "henĠandĠtheĠlargeĠblueĠ": 2669,
      "mouseĠandĠtheĠyoungĠblackĠ": 2670,
      "mouseĠandĠtheĠyoungĠblueĠ": 2671,
      "lionsĠandĠsixĠ": 2672,
      "cowsĠandĠthreeĠ": 2673,
      "bearsĠandĠtwoĠ": 2674,
      "LÃ¶weĠistĠlinksĠvonĠderĠ": 2675,
      "LÃ¶weĠistĠhinterĠderĠ": 2676,
      "BÃ¤renĠundĠzweiĠ": 2677,
      "Ġë§ĲĠìĦ¸": 2678,
      "KÃ¼heĠundĠdreiĠ": 2679,
      "ìŀĳìĿĢĠíĮĮëŀĢĠìĺ¤ë¦¬": 2680,
      "ëĬĻìĿĢĠíķĺìĸĢĠìĺ¤ë¦¬": 2681,
      "íģ°Ġì´Īë¡ĿìĥīĠìĹ¬ìļ°": 2682,
      "íģ°Ġë¹¨ê°ĦĠíĨłëģ¼": 2683,
      "ìĸ´ë¦°ĠíĮĮëŀĢĠìĺ¤ë¦¬": 2684,
      "ìĸ´ë¦°Ġì´Īë¡ĿìĥīĠìĨĮ": 2685,
      "KatzeĠistĠlinksĠvonĠderĠ": 2686,
      "youngĠredĠsheepĠandĠtheĠ": 2687,
      "youngĠredĠrabbit.": 2688,
      "smallĠblackĠhorse.": 2689,
      "oldĠblueĠlion.": 2690,
      "oldĠblueĠduckĠandĠtheĠ": 2691,
      "oldĠblueĠrabbitĠandĠtheĠ": 2692,
      "oldĠblueĠfoxĠandĠtheĠ": 2693,
      "youngĠblackĠdog.": 2694,
      "largeĠblackĠduckĠandĠtheĠ": 2695,
      "largeĠblackĠfox.": 2696,
      "smallĠwhiteĠmouse.": 2697,
      "smallĠgreenĠhen.": 2698,
      "smallĠyellowĠhen.": 2699,
      "smallĠyellowĠlionĠandĠtheĠ": 2700,
      "smallĠyellowĠmouse.": 2701,
      "smallĠyellowĠhorse.": 2702,
      "largeĠredĠcat.": 2703,
      "largeĠredĠfoxĠandĠtheĠ": 2704,
      "youngĠyellowĠcow.": 2705,
      "smallĠredĠlionĠandĠtheĠ": 2706,
      "smallĠredĠdog.": 2707,
      "smallĠredĠcowĠandĠtheĠ": 2708,
      "oldĠwhiteĠlion.": 2709,
      "henĠandĠtheĠyoungĠwhiteĠ": 2710,
      "dogĠandĠtheĠoldĠredĠ": 2711,
      "dogĠandĠtheĠlargeĠredĠ": 2712,
      "dogĠandĠtheĠyoungĠwhiteĠ": 2713,
      "bearĠandĠtheĠlargeĠyellowĠ": 2714,
      "catĠandĠtheĠsmallĠblueĠ": 2715,
      "Ġëħ¸ëŀĢĠê³łìĸĳìĿ´ê°ĢĠìŀĳìĿĢ": 2716,
      "ìŀĳìĿĢĠíĮĮëŀĢĠì¥Ĳ": 2717,
      "ìŀĳìĿĢĠëħ¸ëŀĢĠê°ľ": 2718,
      "ìŀĳìĿĢĠê²ĢìĿĢĠìĨĮ": 2719,
      "ìŀĳìĿĢĠíĮĮëŀĢĠìĤ¬ìŀĲ": 2720,
      "ëĬĻìĿĢĠíĮĮëŀĢĠìĨĮ": 2721,
      "ëĬĻìĿĢĠê²ĢìĿĢĠìĹ¬ìļ°": 2722,
      "ëĬĻìĿĢĠë¹¨ê°ĦĠê³łìĸĳìĿ´": 2723,
      "íģ°Ġë¹¨ê°ĦĠê°ľ": 2724,
      "íģ°Ġê²ĢìĿĢĠìĨĮ": 2725,
      "íģ°ĠíķĺìĸĢĠíĨłëģ¼": 2726,
      "íģ°ĠíĮĮëŀĢĠìĹ¬ìļ°": 2727,
      "íģ°Ġì´Īë¡ĿìĥīĠê°ľ": 2728,
      "KaninchenĠistĠoberhalbĠvonĠderĠ": 2729,
      "KuhĠistĠhinterĠderĠ": 2730,
      "EnteĠistĠvorĠderĠ": 2731,
      "KatzeĠistĠhinterĠderĠ": 2732,
      "PferdĠistĠhinterĠderĠ": 2733,
      "LÃ¶weĠistĠoberhalbĠvonĠderĠ": 2734,
      "smallĠblackĠhen.": 2735,
      "oldĠblueĠduck.": 2736,
      "oldĠredĠfox.": 2737,
      "youngĠblackĠhorseĠandĠtheĠ": 2738,
      "youngĠblackĠbear.": 2739,
      "smallĠwhiteĠduckĠandĠtheĠ": 2740,
      "largeĠgreenĠfoxĠandĠtheĠ": 2741,
      "largeĠredĠsheepĠandĠtheĠ": 2742,
      "largeĠwhiteĠcowĠandĠtheĠ": 2743,
      "youngĠwhiteĠrabbit.": 2744,
      "youngĠwhiteĠmouse.": 2745,
      "youngĠwhiteĠduck.": 2746,
      "youngĠblueĠhen.": 2747,
      "youngĠblueĠrabbit.": 2748,
      "oldĠgreenĠsheepĠandĠtheĠ": 2749,
      "oldĠgreenĠrabbitĠandĠtheĠ": 2750,
      "oldĠblackĠcat.": 2751,
      "mouseĠandĠtheĠsmallĠwhiteĠ": 2752,
      "catĠandĠtheĠlargeĠblueĠ": 2753,
      "catĠandĠtheĠyoungĠgreenĠ": 2754,
      "catĠandĠtheĠyoungĠwhiteĠ": 2755,
      "catĠandĠtheĠoldĠblackĠ": 2756,
      "LÃ¶weĠistĠvorĠderĠ": 2757,
      "catsĠandĠthreeĠ": 2758,
      "miceĠandĠeightĠ": 2759,
      "KatzenĠundĠdreiĠ": 2760,
      "MÃ¤useĠundĠachtĠ": 2761,
      "ëĬĻìĿĢĠíķĺìĸĢĠìĨĮ": 2762,
      "ëĬĻìĿĢĠê²ĢìĿĢĠê°ľ": 2763,
      "ëĬĻìĿĢĠì´Īë¡ĿìĥīĠìĺ¤ë¦¬": 2764,
      "íģ°Ġë¹¨ê°ĦĠìĹ¬ìļ°": 2765,
      "ìĸ´ë¦°Ġì´Īë¡ĿìĥīĠì¥Ĳ": 2766,
      "MausĠistĠlinksĠvonĠderĠ": 2767,
      "youngĠredĠcowĠandĠtheĠ": 2768,
      "youngĠredĠmouse.": 2769,
      "smallĠblackĠrabbit.": 2770,
      "largeĠblueĠdog.": 2771,
      "oldĠredĠhen.": 2772,
      "largeĠblackĠhenĠandĠtheĠ": 2773,
      "smallĠwhiteĠhen.": 2774,
      "smallĠwhiteĠcow.": 2775,
      "youngĠgreenĠrabbit.": 2776,
      "largeĠgreenĠhorse.": 2777,
      "smallĠblueĠcowĠandĠtheĠ": 2778,
      "smallĠblueĠcat.": 2779,
      "smallĠyellowĠlion.": 2780,
      "largeĠredĠrabbit.": 2781,
      "largeĠwhiteĠcow.": 2782,
      "youngĠyellowĠdog.": 2783,
      "youngĠblueĠhorse.": 2784,
      "oldĠgreenĠrabbit.": 2785,
      "smallĠredĠsheepĠandĠtheĠ": 2786,
      "smallĠredĠfox.": 2787,
      "oldĠwhiteĠdog.": 2788,
      "oldĠwhiteĠcowĠandĠtheĠ": 2789,
      "dogĠandĠtheĠsmallĠwhiteĠ": 2790,
      "bearĠandĠtheĠoldĠwhiteĠ": 2791,
      "Ġë¹¨ê°ĦĠìĤ¬ìŀĲëĬĶĠìĸ´ë¦°": 2792,
      "smallĠblackĠmouseĠandĠtheĠsmallĠblackĠ": 2793,
      "bearsĠandĠthreeĠ": 2794,
      "íģ°Ġëħ¸ëŀĢĠìĤ¬ìŀĲ": 2795,
      "KaninchenĠistĠrechtsĠvonĠderĠ": 2796,
      "KuhĠistĠoberhalbĠvonĠderĠ": 2797,
      "BÃ¤renĠundĠdreiĠ": 2798,
      "ìŀĳìĿĢĠë¹¨ê°ĦĠê°ľ": 2799,
      "ìŀĳìĿĢĠëħ¸ëŀĢĠìĺ¤ë¦¬": 2800,
      "ëĬĻìĿĢĠíķĺìĸĢĠíĨłëģ¼": 2801,
      "íģ°Ġëħ¸ëŀĢĠê°ľ": 2802,
      "íģ°ĠíķĺìĸĢĠìĹ¬ìļ°": 2803,
      "íģ°ĠíķĺìĸĢĠìĤ¬ìŀĲ": 2804,
      "ìĸ´ë¦°Ġì´Īë¡ĿìĥīĠìĤ¬ìŀĲ": 2805,
      "SchafĠistĠunterhalbĠvonĠderĠ": 2806,
      "largeĠyellowĠhen.": 2807,
      "youngĠredĠcow.": 2808,
      "youngĠredĠcat.": 2809,
      "smallĠblackĠrabbitĠandĠtheĠ": 2810,
      "largeĠblueĠbear.": 2811,
      "oldĠredĠlionĠandĠtheĠ": 2812,
      "oldĠredĠhorse.": 2813,
      "oldĠyellowĠlion.": 2814,
      "oldĠyellowĠdog.": 2815,
      "oldĠyellowĠduck.": 2816,
      "oldĠyellowĠcatĠandĠtheĠoldĠyellowĠ": 2817,
      "smallĠwhiteĠfoxĠandĠtheĠ": 2818,
      "smallĠgreenĠdog.": 2819,
      "smallĠgreenĠduckĠandĠtheĠ": 2820,
      "youngĠgreenĠduck.": 2821,
      "largeĠgreenĠlion.": 2822,
      "largeĠgreenĠhorseĠandĠtheĠ": 2823,
      "largeĠgreenĠfox.": 2824,
      "smallĠblueĠduckĠandĠtheĠ": 2825,
      "smallĠblueĠbear.": 2826,
      "LÃ¶wenĠundĠsiebenĠ": 2827,
      "largeĠredĠrabbitĠandĠtheĠ": 2828,
      "youngĠyellowĠfox.": 2829,
      "youngĠblueĠdog.": 2830,
      "smallĠredĠduckĠandĠtheĠ": 2831,
      "smallĠredĠduck.": 2832,
      "oldĠblackĠhorse.": 2833,
      "oldĠwhiteĠcow.": 2834,
      "oldĠwhiteĠcat.": 2835,
      "ducksĠandĠtwoĠ": 2836,
      "mouseĠandĠtheĠsmallĠblueĠ": 2837,
      "dogĠandĠtheĠlargeĠblueĠ": 2838,
      "dogĠandĠtheĠoldĠyellowĠ": 2839,
      "bearĠandĠtheĠsmallĠblackĠ": 2840,
      "bearĠandĠtheĠsmallĠblueĠ": 2841,
      "lionsĠandĠsevenĠ": 2842,
      "foxesĠandĠfourĠ": 2843,
      "EntenĠundĠzweiĠ": 2844,
      "FÃ¼chseĠundĠvierĠ": 2845,
      "youngĠblackĠlionĠandĠtheĠyoungĠblackĠ": 2846,
      "ìŀĳìĿĢĠê²ĢìĿĢĠê³łìĸĳìĿ´": 2847,
      "ìŀĳìĿĢĠê²ĢìĿĢĠì¥Ĳ": 2848,
      "ìĸ´ë¦°ĠíķĺìĸĢĠì¥Ĳ": 2849,
      "KaninchenĠundĠdreiĠ": 2850,
      "HundĠistĠlinksĠvonĠderĠ": 2851,
      "HundĠistĠrechtsĠvonĠderĠ": 2852,
      "rabbitsĠandĠthreeĠ": 2853,
      "hensĠandĠtwoĠ": 2854,
      "HÃ¼hnerĠundĠzweiĠ": 2855,
      "ĠëĬĻìĿĢĠëħ¸ëŀĢĠê³łìĸĳìĿ´ê°Ģ": 2856,
      "cowsĠandĠsixĠ": 2857,
      "ìŀĳìĿĢĠë¹¨ê°ĦĠìĺ¤ë¦¬": 2858,
      "ìŀĳìĿĢĠë¹¨ê°ĦĠìĨĮ": 2859,
      "íģ°ĠíĮĮëŀĢĠìĺ¤ë¦¬": 2860,
      "ìĸ´ë¦°ĠíĮĮëŀĢĠìĨĮ": 2861,
      "ìĸ´ë¦°Ġê²ĢìĿĢĠíĨłëģ¼": 2862,
      "largeĠblueĠsheepĠandĠtheĠ": 2863,
      "oldĠredĠrabbit.": 2864,
      "oldĠyellowĠcowĠandĠtheĠ": 2865,
      "oldĠyellowĠfoxĠandĠtheĠ": 2866,
      "youngĠblackĠcowĠandĠtheĠ": 2867,
      "youngĠblackĠrabbitĠandĠtheĠ": 2868,
      "largeĠblackĠcowĠandĠtheĠ": 2869,
      "largeĠblackĠsheepĠandĠtheĠ": 2870,
      "largeĠblackĠfoxĠandĠtheĠ": 2871,
      "youngĠgreenĠhen.": 2872,
      "youngĠgreenĠhorseĠandĠtheĠ": 2873,
      "largeĠgreenĠhen.": 2874,
      "largeĠgreenĠbear.": 2875,
      "smallĠblueĠduck.": 2876,
      "smallĠyellowĠrabbitĠandĠtheĠ": 2877,
      "largeĠredĠbear.": 2878,
      "largeĠredĠduck.": 2879,
      "largeĠwhiteĠrabbitĠandĠtheĠ": 2880,
      "youngĠyellowĠhorse.": 2881,
      "youngĠblueĠlion.": 2882,
      "youngĠblueĠcowĠandĠtheĠ": 2883,
      "oldĠgreenĠhorse.": 2884,
      "oldĠgreenĠbear.": 2885,
      "oldĠgreenĠfoxĠandĠtheĠ": 2886,
      "oldĠgreenĠfox.": 2887,
      "oldĠwhiteĠhorse.": 2888,
      "oldĠwhiteĠrabbitĠandĠtheĠ": 2889,
      "oldĠwhiteĠduck.": 2890,
      "oldĠwhiteĠfox.": 2891,
      "henĠandĠtheĠyoungĠblueĠ": 2892,
      "mouseĠandĠtheĠlargeĠblueĠ": 2893,
      "mouseĠandĠtheĠyoungĠwhiteĠ": 2894,
      "mouseĠandĠtheĠoldĠblackĠ": 2895,
      "dogĠandĠtheĠsmallĠgreenĠ": 2896,
      "dogĠandĠtheĠyoungĠgreenĠ": 2897,
      "dogĠandĠtheĠlargeĠgreenĠ": 2898,
      "catĠandĠtheĠlargeĠgreenĠ": 2899,
      "ĸĳìĿ´Ġë§ŀìĿ´íķľëĭ¤ëĬĶĠê²ĥìĿ´Ġëª¨ëĳĲĠìĤ¬ìĭ¤ìĿ´ëĭ¤.": 2900,
      "KÃ¼heĠundĠsechsĠ": 2901,
      "largeĠblueĠlionĠandĠtheĠlargeĠblueĠ": 2902,
      "largeĠyellowĠmouseĠandĠtheĠlargeĠyellowĠ": 2903,
      "íģ°ĠíĮĮëŀĢĠì¥Ĳ": 2904,
      "íģ°Ġê²ĢìĿĢĠì¥Ĳ": 2905,
      "HuhnĠistĠoberhalbĠvonĠderĠ": 2906,
      "HuhnĠistĠunterhalbĠvonĠderĠ": 2907,
      "KatzeĠistĠoberhalbĠvonĠderĠ": 2908,
      "FuchsĠistĠrechtsĠvonĠderĠ": 2909,
      "ìŀĳìĿĢĠì´Īë¡ĿìĥīĠíĨłëģ¼": 2910,
      "ìŀĳìĿĢĠì´Īë¡ĿìĥīĠìĨĮ": 2911,
      "ìŀĳìĿĢĠê²ĢìĿĢĠíĨłëģ¼": 2912,
      "ìŀĳìĿĢĠíķĺìĸĢĠìĹ¬ìļ°": 2913,
      "ëĬĻìĿĢĠì´Īë¡ĿìĥīĠê°ľ": 2914,
      "ëĬĻìĿĢĠíķĺìĸĢĠìĤ¬ìŀĲ": 2915,
      "íģ°Ġë¹¨ê°ĦĠìĺ¤ë¦¬": 2916,
      "íģ°ĠíķĺìĸĢĠìĨĮ": 2917,
      "íģ°Ġê²ĢìĿĢĠê°ľ": 2918,
      "íģ°Ġê²ĢìĿĢĠíĨłëģ¼": 2919,
      "ìĸ´ë¦°ĠíķĺìĸĢĠê°ľ": 2920,
      "ìĸ´ë¦°Ġëħ¸ëŀĢĠìĨĮ": 2921,
      "ìĸ´ë¦°Ġê²ĢìĿĢĠìĨĮ": 2922,
      "ìĸ´ë¦°Ġì´Īë¡ĿìĥīĠê³łìĸĳìĿ´": 2923,
      "ìĸ´ë¦°Ġì´Īë¡ĿìĥīĠìĺ¤ë¦¬": 2924,
      "HuhnĠistĠhinterĠderĠ": 2925,
      "KatzeĠistĠrechtsĠvonĠderĠ": 2926,
      "BÃ¤rĠistĠhinterĠderĠ": 2927,
      "youngĠredĠlionĠandĠtheĠ": 2928,
      "youngĠredĠhorse.": 2929,
      "smallĠblackĠduck.": 2930,
      "oldĠyellowĠhorse.": 2931,
      "oldĠyellowĠhorseĠandĠtheĠ": 2932,
      "smallĠwhiteĠcat.": 2933,
      "smallĠgreenĠmouse.": 2934,
      "youngĠgreenĠsheepĠandĠtheĠ": 2935,
      "youngĠgreenĠrabbitĠandĠtheĠ": 2936,
      "smallĠblueĠhorse.": 2937,
      "largeĠredĠhorse.": 2938,
      "youngĠyellowĠsheep.": 2939,
      "youngĠblueĠfox.": 2940,
      "oldĠblackĠlionĠandĠtheĠ": 2941,
      "oldĠblackĠduck.": 2942,
      "oldĠblackĠfoxĠandĠtheĠ": 2943,
      "oldĠwhiteĠmouse.": 2944,
      "henĠandĠtheĠsmallĠblueĠ": 2945,
      "mouseĠandĠtheĠsmallĠgreenĠ": 2946,
      "dogĠandĠtheĠsmallĠblackĠ": 2947,
      "dogĠandĠtheĠlargeĠblackĠ": 2948,
      "catĠandĠtheĠlargeĠredĠ": 2949,
      "Ġì´Īë¡ĿìĥīĠë§ĲìĿ´ĠëĬĻìĿĢ": 2950,
      "youngĠredĠduckĠandĠtheĠyoungĠredĠ": 2951,
      "oldĠblueĠsheepĠandĠtheĠoldĠblueĠ": 2952,
      "largeĠyellowĠsheepĠandĠtheĠlargeĠyellowĠ": 2953,
      "ìŀĳìĿĢĠê²ĢìĿĢĠìĤ¬ìŀĲ": 2954,
      "ëĬĻìĿĢĠíĮĮëŀĢĠì¥Ĳ": 2955,
      "SchafĠistĠlinksĠvonĠderĠ": 2956,
      "Ġìĸ´ë¦°Ġë¹¨ê°ĦĠê°ľê°Ģ": 2957,
      "ëĬĻìĿĢĠê²ĢìĿĢĠíĨłëģ¼": 2958,
      "íģ°Ġê²ĢìĿĢĠìĹ¬ìļ°": 2959,
      "ìĸ´ë¦°Ġë¹¨ê°ĦĠíĨłëģ¼": 2960,
      "ìĸ´ë¦°ĠíķĺìĸĢĠíĨłëģ¼": 2961,
      "ìĸ´ë¦°ĠíĮĮëŀĢĠíĨłëģ¼": 2962,
      "HuhnĠistĠvorĠderĠ": 2963,
      "MausĠistĠoberhalbĠvonĠderĠ": 2964,
      "MausĠistĠrechtsĠvonĠderĠ": 2965,
      "MausĠistĠunterhalbĠvonĠderĠ": 2966,
      "KuhĠistĠrechtsĠvonĠderĠ": 2967,
      "SchafĠistĠoberhalbĠvonĠderĠ": 2968,
      "LÃ¶weĠistĠunterhalbĠvonĠderĠ": 2969,
      "youngĠredĠdogĠandĠtheĠyoungĠredĠ": 2970,
      "oldĠblueĠcow.": 2971,
      "largeĠblueĠhorseĠandĠtheĠlargeĠblueĠ": 2972,
      "oldĠredĠcatĠandĠtheĠoldĠredĠ": 2973,
      "oldĠyellowĠmouse.": 2974,
      "smallĠwhiteĠfox.": 2975,
      "smallĠgreenĠcow.": 2976,
      "smallĠgreenĠbearĠandĠtheĠsmallĠgreenĠ": 2977,
      "smallĠyellowĠduck.": 2978,
      "largeĠwhiteĠmouse.": 2979,
      "largeĠwhiteĠfoxĠandĠtheĠ": 2980,
      "youngĠyellowĠduckĠandĠtheĠ": 2981,
      "youngĠyellowĠduck.": 2982,
      "youngĠyellowĠrabbitĠandĠtheĠyoungĠyellowĠ": 2983,
      "youngĠblueĠsheepĠandĠtheĠ": 2984,
      "youngĠblueĠfoxĠandĠtheĠ": 2985,
      "oldĠgreenĠduckĠandĠtheĠ": 2986,
      "oldĠgreenĠcowĠandĠtheĠoldĠgreenĠ": 2987,
      "oldĠblackĠlion.": 2988,
      "mouseĠandĠtheĠyoungĠredĠ": 2989,
      "bearĠandĠtheĠlargeĠblackĠ": 2990,
      "bearĠandĠtheĠyoungĠwhiteĠ": 2991,
      "catĠandĠtheĠsmallĠgreenĠ": 2992,
      "catĠandĠtheĠyoungĠyellowĠ": 2993,
      "Ġëħ¸ëŀĢĠì¥Ĳê°ĢĠìŀĳìĿĢ": 2994,
      "smallĠblackĠsheepĠandĠtheĠsmallĠblackĠ": 2995,
      "ìŀĳìĿĢĠëħ¸ëŀĢĠìĤ¬ìŀĲ": 2996,
      "SchafĠistĠhinterĠderĠ": 2997,
      "EnteĠistĠoberhalbĠvonĠderĠ": 2998,
      "PferdĠistĠlinksĠvonĠderĠ": 2999,
      "PferdĠistĠrechtsĠvonĠderĠ": 3000,
      "FuchsĠistĠlinksĠvonĠderĠ": 3001,
      "Ġìĸ´ë¦°Ġëħ¸ëŀĢĠíĨłëģ¼ê°Ģ": 3002,
      "ìŀĳìĿĢĠíĮĮëŀĢĠíĨłëģ¼": 3003,
      "ëĬĻìĿĢĠëħ¸ëŀĢĠìĨĮ": 3004,
      "íģ°Ġì´Īë¡ĿìĥīĠìĨĮ": 3005,
      "ìĸ´ë¦°Ġì´Īë¡ĿìĥīĠìĹ¬ìļ°": 3006,
      "ìĸ´ë¦°ĠíĮĮëŀĢĠê°ľ": 3007,
      "KuhĠistĠvorĠderĠ": 3008,
      "PferdĠistĠunterhalbĠvonĠderĠ": 3009,
      "PferdĠistĠvorĠderĠ": 3010,
      "BÃ¤rĠistĠvorĠderĠ": 3011,
      "youngĠredĠfox.": 3012,
      "largeĠblueĠrabbit.": 3013,
      "youngĠblackĠsheepĠandĠtheĠ": 3014,
      "largeĠblackĠcow.": 3015,
      "largeĠblackĠrabbit.": 3016,
      "largeĠblackĠrabbitĠandĠtheĠ": 3017,
      "smallĠgreenĠduck.": 3018,
      "youngĠgreenĠcow.": 3019,
      "youngĠgreenĠcowĠandĠtheĠ": 3020,
      "youngĠgreenĠduckĠandĠtheĠ": 3021,
      "largeĠgreenĠsheepĠandĠtheĠ": 3022,
      "largeĠgreenĠduckĠandĠtheĠ": 3023,
      "largeĠwhiteĠcat.": 3024,
      "largeĠwhiteĠrabbit.": 3025,
      "youngĠyellowĠhorseĠandĠtheĠ": 3026,
      "youngĠblueĠhorseĠandĠtheĠ": 3027,
      "oldĠgreenĠlion.": 3028,
      "smallĠredĠcat.": 3029,
      "oldĠwhiteĠfoxĠandĠtheĠ": 3030,
      "henĠandĠtheĠlargeĠgreenĠ": 3031,
      "mouseĠandĠtheĠoldĠyellowĠ": 3032,
      "bearĠandĠtheĠlargeĠblueĠ": 3033,
      "catĠandĠtheĠsmallĠwhiteĠ": 3034,
      "youngĠyellowĠhenĠandĠtheĠyoungĠyellowĠ": 3035,
      "ëĬĻìĿĢĠì´Īë¡ĿìĥīĠì¥Ĳ": 3036,
      "HuhnĠistĠlinksĠvonĠderĠ": 3037,
      "HundĠistĠoberhalbĠvonĠderĠ": 3038,
      "cowsĠandĠtwoĠ": 3039,
      "ìŀĳìĿĢĠì´Īë¡ĿìĥīĠìĤ¬ìŀĲ": 3040,
      "íģ°ĠíĮĮëŀĢĠê°ľ": 3041,
      "íģ°ĠíĮĮëŀĢĠíĨłëģ¼": 3042,
      "ìĸ´ë¦°Ġë¹¨ê°ĦĠìĹ¬ìļ°": 3043,
      "BÃ¤rĠistĠrechtsĠvonĠderĠ": 3044,
      "youngĠredĠrabbitĠandĠtheĠ": 3045,
      "smallĠblackĠcat.": 3046,
      "oldĠblueĠfox.": 3047,
      "oldĠredĠcow.": 3048,
      "oldĠredĠfoxĠandĠtheĠ": 3049,
      "oldĠredĠbearĠandĠtheĠoldĠredĠ": 3050,
      "largeĠblackĠbear.": 3051,
      "smallĠwhiteĠlionĠandĠtheĠsmallĠwhiteĠ": 3052,
      "smallĠgreenĠsheepĠandĠtheĠ": 3053,
      "youngĠgreenĠdog.": 3054,
      "largeĠgreenĠduck.": 3055,
      "smallĠyellowĠdog.": 3056,
      "largeĠredĠduckĠandĠtheĠ": 3057,
      "largeĠwhiteĠduckĠandĠtheĠ": 3058,
      "youngĠyellowĠlion.": 3059,
      "youngĠyellowĠcat.": 3060,
      "oldĠgreenĠdog.": 3061,
      "oldĠgreenĠmouseĠandĠtheĠoldĠgreenĠ": 3062,
      "smallĠredĠmouse.": 3063,
      "henĠandĠtheĠsmallĠblackĠ": 3064,
      "henĠandĠtheĠyoungĠgreenĠ": 3065,
      "mouseĠandĠtheĠlargeĠgreenĠ": 3066,
      "mouseĠandĠtheĠsmallĠredĠ": 3067,
      "dogĠandĠtheĠoldĠgreenĠ": 3068,
      "bearĠandĠtheĠlargeĠredĠ": 3069,
      "bearĠandĠtheĠlargeĠwhiteĠ": 3070,
      "KÃ¼heĠundĠzweiĠ": 3071,
      "youngĠgreenĠfoxĠandĠtheĠyoungĠgreenĠ": 3072,
      "largeĠblackĠlionĠandĠtheĠlargeĠblackĠ": 3073,
      "Ġìĸ´ë¦°Ġëħ¸ëŀĢ": 3074,
      "íģ°Ġì´Īë¡ĿìĥīĠê³łìĸĳìĿ´": 3075,
      "íģ°ĠíĮĮëŀĢĠê³łìĸĳìĿ´": 3076,
      "ìĸ´ë¦°ĠíķĺìĸĢĠê³łìĸĳìĿ´": 3077,
      "LÃ¶weĠistĠrechtsĠvonĠderĠ": 3078,
      "BÃ¤rĠistĠunterhalbĠvonĠderĠ": 3079,
      "ĠëĬĻìĿĢĠë¹¨ê°ĦĠê³łìĸĳìĿ´ê°Ģ": 3080,
      "ìŀĳìĿĢĠì´Īë¡ĿìĥīĠìĺ¤ë¦¬": 3081,
      "ëĬĻìĿĢĠë¹¨ê°ĦĠíĨłëģ¼": 3082,
      "ëĬĻìĿĢĠíĮĮëŀĢĠìĤ¬ìŀĲ": 3083,
      "ëĬĻìĿĢĠê²ĢìĿĢĠê³łìĸĳìĿ´": 3084,
      "ëĬĻìĿĢĠíķĺìĸĢĠìĹ¬ìļ°": 3085,
      "íģ°ĠíĮĮëŀĢĠìĨĮ": 3086,
      "KaninchenĠistĠunterhalbĠvonĠderĠ": 3087,
      "KatzeĠistĠvorĠderĠ": 3088,
      "youngĠredĠhenĠandĠtheĠyoungĠredĠ": 3089,
      "smallĠblackĠduckĠandĠtheĠ": 3090,
      "smallĠblackĠhorseĠandĠtheĠsmallĠblackĠ": 3091,
      "oldĠblueĠcowĠandĠtheĠ": 3092,
      "oldĠblueĠrabbit.": 3093,
      "oldĠredĠmouseĠandĠtheĠoldĠredĠ": 3094,
      "youngĠblackĠhenĠandĠtheĠyoungĠblackĠ": 3095,
      "largeĠgreenĠcowĠandĠtheĠ": 3096,
      "smallĠblueĠhorseĠandĠtheĠ": 3097,
      "largeĠredĠlionĠandĠtheĠ": 3098,
      "largeĠwhiteĠhorseĠandĠtheĠ": 3099,
      "largeĠwhiteĠbear.": 3100,
      "youngĠwhiteĠlion.": 3101,
      "youngĠwhiteĠcowĠandĠtheĠyoungĠwhiteĠ": 3102,
      "youngĠblueĠlionĠandĠtheĠ": 3103,
      "oldĠblackĠduckĠandĠtheĠ": 3104,
      "oldĠwhiteĠsheepĠandĠtheĠ": 3105,
      "henĠandĠtheĠsmallĠwhiteĠ": 3106,
      "henĠandĠtheĠsmallĠyellowĠ": 3107,
      "henĠandĠtheĠoldĠgreenĠ": 3108,
      "catĠandĠtheĠoldĠwhiteĠ": 3109,
      "Ĥ¬ìŀĲê°ĢĠë³´ì§ĢĠìķĬëĬĶëĭ¤ëĬĶĠê²ĥìĿ´Ġëª¨ëĳĲĠìĤ¬ìĭ¤ìĿ´ëĭ¤.": 3110,
      "jungenĠschwarzenĠLÃ¶wen.": 3111,
      "ThereĠareĠfiveĠsmallĠyellowĠ": 3112,
      "EsĠgibtĠfÃ¼nfĠkleineĠgelbeĠ": 3113,
      "oldĠblueĠdogĠandĠtheĠoldĠblueĠ": 3114,
      "youngĠblackĠduckĠandĠtheĠyoungĠblackĠ": 3115,
      "oldĠyellowĠrabbitĠandĠtheĠoldĠyellowĠ": 3116,
      "smallĠyellowĠsheepĠandĠtheĠsmallĠyellowĠ": 3117,
      "smallĠyellowĠcowĠandĠtheĠsmallĠyellowĠ": 3118,
      "ëĬĻìĿĢĠë¹¨ê°ĦĠì¥Ĳ": 3119,
      "íģ°Ġê²ĢìĿĢĠìĤ¬ìŀĲ": 3120,
      "SchafĠistĠvorĠderĠ": 3121,
      "ĠëĬĻìĿĢĠëħ¸ëŀĢĠíĨłëģ¼ê°Ģ": 3122,
      "ĠëĬĻìĿĢĠíĮĮëŀĢĠê°ľê°Ģ": 3123,
      "ìŀĳìĿĢĠíķĺìĸĢĠíĨłëģ¼": 3124,
      "ìŀĳìĿĢĠëħ¸ëŀĢĠìĹ¬ìļ°": 3125,
      "ìŀĳìĿĢĠë¹¨ê°ĦĠê³łìĸĳìĿ´": 3126,
      "ìŀĳìĿĢĠì´Īë¡ĿìĥīĠê³łìĸĳìĿ´": 3127,
      "íģ°ĠíķĺìĸĢĠìĺ¤ë¦¬": 3128,
      "ìĸ´ë¦°ĠíĮĮëŀĢĠì¥Ĳ": 3129,
      "ìĸ´ë¦°Ġëħ¸ëŀĢĠì¥Ĳ": 3130,
      "EnteĠistĠhinterĠderĠ": 3131,
      "largeĠyellowĠdogĠandĠtheĠlargeĠyellowĠ": 3132,
      "youngĠredĠfoxĠandĠtheĠ": 3133,
      "smallĠblackĠlion.": 3134,
      "smallĠblackĠfox.": 3135,
      "largeĠblueĠcow.": 3136,
      "largeĠblueĠmouse.": 3137,
      "oldĠyellowĠfox.": 3138,
      "smallĠgreenĠcowĠandĠtheĠ": 3139,
      "smallĠgreenĠcat.": 3140,
      "youngĠgreenĠbear.": 3141,
      "largeĠgreenĠlionĠandĠtheĠ": 3142,
      "smallĠblueĠhen.": 3143,
      "smallĠyellowĠduckĠandĠtheĠ": 3144,
      "largeĠwhiteĠhen.": 3145,
      "youngĠwhiteĠhenĠandĠtheĠyoungĠwhiteĠ": 3146,
      "youngĠblueĠrabbitĠandĠtheĠ": 3147,
      "smallĠredĠhen.": 3148,
      "oldĠblackĠhorseĠandĠtheĠ": 3149,
      "oldĠwhiteĠhen.": 3150,
      "mouseĠandĠtheĠlargeĠwhiteĠ": 3151,
      "mouseĠandĠtheĠoldĠwhiteĠ": 3152,
      "dogĠandĠtheĠyoungĠblueĠ": 3153,
      "bearĠandĠtheĠsmallĠwhiteĠ": 3154,
      "bearĠandĠtheĠyoungĠgreenĠ": 3155,
      "bearĠandĠtheĠsmallĠredĠ": 3156,
      "catĠandĠtheĠyoungĠblackĠ": 3157,
      "ĠíĮĮëŀĢĠìĸĳìĿĢĠíģ°": 3158,
      "oldĠyellowĠhenĠandĠtheĠoldĠyellowĠ": 3159,
      "oldĠblackĠcowĠandĠtheĠoldĠblackĠ": 3160,
      "oldĠblueĠbearĠandĠtheĠoldĠblueĠ": 3161,
      "smallĠblackĠcowĠandĠtheĠsmallĠblackĠ": 3162,
      "ìŀĳìĿĢĠëħ¸ëŀĢĠê³łìĸĳìĿ´": 3163,
      "KaninchenĠistĠlinksĠvonĠderĠ": 3164,
      "EnteĠistĠrechtsĠvonĠderĠ": 3165,
      "Ġíģ°Ġëħ¸ëŀĢĠê³łìĸĳìĿ´ê°Ģ": 3166,
      "Ġíģ°Ġëħ¸ëŀĢĠê°ľê°Ģ": 3167,
      "ĠìŀĳìĿĢĠíĮĮëŀĢĠê°ľê°Ģ": 3168,
      "ìŀĳìĿĢĠê²ĢìĿĢĠìĺ¤ë¦¬": 3169,
      "ëĬĻìĿĢĠì´Īë¡ĿìĥīĠê³łìĸĳìĿ´": 3170,
      "íģ°Ġëħ¸ëŀĢĠìĺ¤ë¦¬": 3171,
      "íģ°ĠíķĺìĸĢĠê³łìĸĳìĿ´": 3172,
      "ìĸ´ë¦°Ġëħ¸ëŀĢĠìĤ¬ìŀĲ": 3173,
      "ìĸ´ë¦°Ġê²ĢìĿĢĠìĹ¬ìļ°": 3174,
      "KuhĠistĠlinksĠvonĠderĠ": 3175,
      "FuchsĠistĠoberhalbĠvonĠderĠ": 3176,
      "largeĠyellowĠfoxĠandĠtheĠlargeĠyellowĠ": 3177,
      "largeĠyellowĠcatĠandĠtheĠlargeĠyellowĠ": 3178,
      "smallĠblackĠfoxĠandĠtheĠ": 3179,
      "oldĠblueĠhorse.": 3180,
      "largeĠblueĠcowĠandĠtheĠ": 3181,
      "oldĠredĠduckĠandĠtheĠ": 3182,
      "youngĠblackĠcat.": 3183,
      "youngĠblackĠhorse.": 3184,
      "youngĠblackĠfoxĠandĠtheĠyoungĠblackĠ": 3185,
      "smallĠwhiteĠrabbitĠandĠtheĠ": 3186,
      "largeĠredĠhorseĠandĠtheĠ": 3187,
      "youngĠwhiteĠrabbitĠandĠtheĠ": 3188,
      "youngĠblueĠbearĠandĠtheĠyoungĠblueĠ": 3189,
      "oldĠgreenĠlionĠandĠtheĠ": 3190,
      "oldĠwhiteĠhorseĠandĠtheĠ": 3191,
      "henĠandĠtheĠlargeĠwhiteĠ": 3192,
      "bearĠandĠtheĠlargeĠgreenĠ": 3193,
      "ThereĠareĠfourĠyoungĠgreenĠ": 3194,
      "EsĠgibtĠvierĠjungeĠgrÃ¼neĠ": 3195,
      "Ġëħ¸ëŀĢĠê³°ìĿ´ĠëĬĻìĿĢ": 3196,
      "smallĠblueĠdogĠandĠtheĠsmallĠblueĠ": 3197,
      "largeĠyellowĠcowĠandĠtheĠlargeĠyellowĠ": 3198,
      "largeĠblackĠcatĠandĠtheĠlargeĠblackĠ": 3199,
      "ëĬĻìĿĢĠíķĺìĸĢĠì¥Ĳ": 3200,
      "íģ°Ġë¹¨ê°ĦĠì¥Ĳ": 3201,
      "ìĸ´ë¦°Ġë¹¨ê°ĦĠê³łìĸĳìĿ´": 3202,
      "KaninchenĠistĠhinterĠderĠ": 3203,
      "KaninchenĠistĠvorĠderĠ": 3204,
      "HundĠistĠunterhalbĠvonĠderĠ": 3205,
      "KuhĠistĠunterhalbĠvonĠderĠ": 3206,
      "EnteĠistĠunterhalbĠvonĠderĠ": 3207,
      "¥Ĳê°ĢĠë§ŀìĿ´íķĺì§ĢĠìķĬëĬĶëĭ¤ëĬĶĠê²ĥìĿ´Ġëª¨ëĳĲĠìĤ¬ìĭ¤ìĿ´ëĭ¤.": 3208,
      "ìŀĳìĿĢĠë¹¨ê°ĦĠìĹ¬ìļ°": 3209,
      "ëĬĻìĿĢĠë¹¨ê°ĦĠìĨĮ": 3210,
      "ëĬĻìĿĢĠëħ¸ëŀĢĠê³łìĸĳìĿ´": 3211,
      "ëĬĻìĿĢĠë¹¨ê°ĦĠìĹ¬ìļ°": 3212,
      "ìĸ´ë¦°Ġì´Īë¡ĿìĥīĠíĨłëģ¼": 3213,
      "ìĸ´ë¦°ĠíĮĮëŀĢĠìĹ¬ìļ°": 3214,
      "oldĠblueĠcat.": 3215,
      "youngĠblackĠbearĠandĠtheĠyoungĠblackĠ": 3216,
      "largeĠblackĠmouseĠandĠtheĠlargeĠblackĠ": 3217,
      "smallĠwhiteĠbear.": 3218,
      "smallĠgreenĠhorseĠandĠtheĠsmallĠgreenĠ": 3219,
      "youngĠgreenĠcatĠandĠtheĠyoungĠgreenĠ": 3220,
      "smallĠblueĠfoxĠandĠtheĠ": 3221,
      "smallĠyellowĠbearĠandĠtheĠsmallĠyellowĠ": 3222,
      "largeĠredĠmouse.": 3223,
      "youngĠwhiteĠlionĠandĠtheĠ": 3224,
      "youngĠblueĠcat.": 3225,
      "youngĠblueĠmouseĠandĠtheĠyoungĠblueĠ": 3226,
      "smallĠredĠfoxĠandĠtheĠ": 3227,
      "smallĠredĠdogĠandĠtheĠsmallĠredĠ": 3228,
      "henĠandĠtheĠoldĠredĠ": 3229,
      "mouseĠandĠtheĠlargeĠredĠ": 3230,
      "dogĠandĠtheĠoldĠblackĠ": 3231,
      "bearĠandĠtheĠoldĠyellowĠ": 3232,
      "catĠandĠtheĠsmallĠblackĠ": 3233,
      "catĠandĠtheĠoldĠgreenĠ": 3234,
      "jungenĠrotenĠBÃ¤ren.": 3235,
      "groÃŁenĠgelbenĠLÃ¶wen.": 3236,
      "Ġê²ĢìĿĢĠëĭŃìĿ´ĠëĬĻìĿĢ": 3237,
      "Ġìĸ´ë¦°Ġì´Īë¡ĿìĥīĠê³łìĸĳìĿ´ê°Ģ": 3238,
      "Ġíģ°Ġì´Īë¡ĿìĥīĠíĨłëģ¼ê°Ģ": 3239,
      "Ġëħ¸ëŀĢĠìĸĳìĿ´ĠìŀĳìĿĢ": 3240,
      "youngĠwhiteĠhorseĠandĠtheĠyoungĠwhiteĠ": 3241,
      "smallĠredĠrabbitĠandĠtheĠsmallĠredĠ": 3242,
      "smallĠwhiteĠsheepĠandĠtheĠsmallĠwhiteĠ": 3243,
      "largeĠwhiteĠlionĠandĠtheĠlargeĠwhiteĠ": 3244,
      "youngĠwhiteĠduckĠandĠtheĠyoungĠwhiteĠ": 3245,
      "oldĠyellowĠduckĠandĠtheĠoldĠyellowĠ": 3246,
      "largeĠgreenĠrabbitĠandĠtheĠlargeĠgreenĠ": 3247,
      "smallĠblueĠsheepĠandĠtheĠsmallĠblueĠ": 3248,
      "ĠëĬĻìĿĢĠíĮĮëŀĢ": 3249,
      "ìŀĳìĿĢĠíĮĮëŀĢĠê³łìĸĳìĿ´": 3250,
      "ëĬĻìĿĢĠê²ĢìĿĢĠì¥Ĳ": 3251,
      "HuhnĠistĠrechtsĠvonĠderĠ": 3252,
      "HundĠistĠhinterĠderĠ": 3253,
      "SchafĠistĠrechtsĠvonĠderĠ": 3254,
      "FuchsĠistĠhinterĠderĠ": 3255,
      "Ŀ¼ê³±Ġë§Īë¦¬ìĻĢĠìĸ´ë¦°": 3256,
      "ĠìŀĳìĿĢĠë¹¨ê°ĦĠê°ľê°Ģ": 3257,
      "ĠìŀĳìĿĢĠíĮĮëŀĢĠíĨłëģ¼ê°Ģ": 3258,
      "ĠìŀĳìĿĢĠë¹¨ê°ĦĠíĨłëģ¼ê°Ģ": 3259,
      "Ġìĸ´ë¦°ĠíķĺìĸĢĠê°ľê°Ģ": 3260,
      "ìŀĳìĿĢĠì´Īë¡ĿìĥīĠì¥Ĳ": 3261,
      "ìŀĳìĿĢĠíķĺìĸĢĠê³łìĸĳìĿ´": 3262,
      "íģ°Ġì´Īë¡ĿìĥīĠì¥Ĳ": 3263,
      "youngĠredĠhorseĠandĠtheĠ": 3264,
      "youngĠredĠbearĠandĠtheĠyoungĠredĠ": 3265,
      "oldĠredĠhorseĠandĠtheĠ": 3266,
      "youngĠblackĠmouseĠandĠtheĠyoungĠblackĠ": 3267,
      "smallĠblueĠfox.": 3268,
      "smallĠblueĠrabbitĠandĠtheĠsmallĠblueĠ": 3269,
      "largeĠredĠdogĠandĠtheĠlargeĠredĠ": 3270,
      "youngĠwhiteĠfox.": 3271,
      "youngĠwhiteĠdogĠandĠtheĠyoungĠwhiteĠ": 3272,
      "youngĠyellowĠmouse.": 3273,
      "youngĠblueĠduckĠandĠtheĠyoungĠblueĠ": 3274,
      "oldĠgreenĠcat.": 3275,
      "oldĠblackĠdog.": 3276,
      "oldĠblackĠcatĠandĠtheĠoldĠblackĠ": 3277,
      "oldĠwhiteĠrabbit.": 3278,
      "oldĠwhiteĠdogĠandĠtheĠoldĠwhiteĠ": 3279,
      "oldĠwhiteĠbearĠandĠtheĠoldĠwhiteĠ": 3280,
      "ê°ĢĠëĬĻìĿĢĠíĮĮëŀĢĠìĸĳìĿĦ": 3281,
      "henĠandĠtheĠoldĠwhiteĠ": 3282,
      "catĠandĠtheĠoldĠblueĠ": 3283,
      "catĠandĠtheĠyoungĠblueĠ": 3284,
      "catĠandĠtheĠsmallĠredĠ": 3285,
      "ThereĠareĠsixĠlargeĠblueĠ": 3286,
      "EsĠgibtĠsechsĠgroÃŁeĠblaueĠ": 3287,
      "Ġíģ°Ġê²ĢìĿĢĠê³łìĸĳìĿ´ê°Ģ": 3288,
      "ĠíĮĮëŀĢĠìĸĳìĿĢĠìŀĳìĿĢ": 3289,
      "ĠëĬĻìĿĢĠê²ĢìĿĢĠê³łìĸĳìĿ´ê°Ģ": 3290,
      "ĠíķĺìĸĢĠìĸĳìĿ´ĠìŀĳìĿĢ": 3291,
      "oldĠblueĠhenĠandĠtheĠoldĠblueĠ": 3292,
      "smallĠgreenĠfoxĠandĠtheĠsmallĠgreenĠ": 3293,
      "oldĠblueĠlionĠandĠtheĠoldĠblueĠ": 3294,
      "youngĠgreenĠlionĠandĠtheĠyoungĠgreenĠ": 3295,
      "smallĠwhiteĠcowĠandĠtheĠsmallĠwhiteĠ": 3296,
      "largeĠyellowĠlionĠandĠtheĠlargeĠyellowĠ": 3297,
      "smallĠgreenĠduckĠandĠtheĠsmallĠgreenĠ": 3298,
      "Ġìĸ´ë¦°Ġë¹¨ê°Ħ": 3299,
      "ëĬĻìĿĢĠëħ¸ëŀĢĠìĤ¬ìŀĲ": 3300,
      "ëĬĻìĿĢĠíķĺìĸĢĠê³łìĸĳìĿ´": 3301,
      "EnteĠistĠlinksĠvonĠderĠ": 3302,
      "FuchsĠistĠvorĠderĠ": 3303,
      "Ĥ¬ìŀĲê°ĢĠëĴ¤ëĶ°ë¥´ì§ĢĠìķĬëĬĶëĭ¤ëĬĶĠê²ĥìĿ´Ġëª¨ëĳĲĠìĤ¬ìĭ¤ìĿ´ëĭ¤.": 3304,
      "¥Ĳê°ĢĠëĴ¤ëĶ°ë¥´ì§ĢĠìķĬëĬĶëĭ¤ëĬĶĠê²ĥìĿ´Ġëª¨ëĳĲĠìĤ¬ìĭ¤ìĿ´ëĭ¤.": 3305,
      "ThereĠareĠeightĠoldĠblueĠ": 3306,
      "EsĠgibtĠachtĠalteĠblaueĠ": 3307,
      "ThereĠareĠsixĠoldĠredĠ": 3308,
      "EsĠgibtĠsechsĠalteĠroteĠ": 3309,
      "Ġíģ°Ġë¹¨ê°ĦĠê°ľê°Ģ": 3310,
      "Ġíģ°ĠíķĺìĸĢĠê°ľê°Ģ": 3311,
      "ĠëĬĻìĿĢĠë¹¨ê°ĦĠê°ľê°Ģ": 3312,
      "Ġìĸ´ë¦°ĠíĮĮëŀĢ": 3313,
      "Ġìĸ´ë¦°ĠíķĺìĸĢĠê³łìĸĳìĿ´ê°Ģ": 3314,
      "íģ°Ġëħ¸ëŀĢĠì¥Ĳ": 3315,
      "largeĠblueĠrabbitĠandĠtheĠ": 3316,
      "largeĠblueĠduckĠandĠtheĠlargeĠblueĠ": 3317,
      "largeĠblueĠhenĠandĠtheĠlargeĠblueĠ": 3318,
      "largeĠblueĠcatĠandĠtheĠlargeĠblueĠ": 3319,
      "oldĠredĠcowĠandĠtheĠ": 3320,
      "oldĠredĠduck.": 3321,
      "oldĠredĠdogĠandĠtheĠoldĠredĠ": 3322,
      "smallĠwhiteĠmouseĠandĠtheĠsmallĠwhiteĠ": 3323,
      "largeĠgreenĠcow.": 3324,
      "largeĠwhiteĠdogĠandĠtheĠlargeĠwhiteĠ": 3325,
      "youngĠwhiteĠsheepĠandĠtheĠ": 3326,
      "youngĠwhiteĠbear.": 3327,
      "youngĠwhiteĠcatĠandĠtheĠyoungĠwhiteĠ": 3328,
      "youngĠyellowĠcowĠandĠtheĠ": 3329,
      "youngĠyellowĠsheepĠandĠtheĠ": 3330,
      "smallĠredĠhorse.": 3331,
      "oldĠblackĠrabbit.": 3332,
      "oldĠwhiteĠduckĠandĠtheĠoldĠwhiteĠ": 3333,
      "ê°ĢĠëĬĻìĿĢĠëħ¸ëŀĢĠê³łìĸĳìĿ´ë¥¼": 3334,
      "mouseĠandĠtheĠyoungĠyellowĠ": 3335,
      "dogĠandĠtheĠyoungĠyellowĠ": 3336,
      "Ġë¹¨ê°ĦĠìĤ¬ìŀĲëĬĶĠëĬĻìĿĢ": 3337,
      "ĠíĮĮëŀĢĠìĸĳìĿ´ĠëĬĻìĿĢ": 3338,
      "Ġëħ¸ëŀĢĠìĸĳìĿ´ĠëĬĻìĿĢ": 3339,
      "ĠíĮĮëŀĢĠìĸĳìĿ´Ġìĸ´ë¦°": 3340,
      "smallĠyellowĠmouseĠandĠtheĠsmallĠyellowĠ": 3341,
      "largeĠredĠcowĠandĠtheĠlargeĠredĠ": 3342,
      "oldĠblueĠduckĠandĠtheĠoldĠblueĠ": 3343,
      "smallĠredĠsheepĠandĠtheĠsmallĠredĠ": 3344,
      "largeĠblackĠsheepĠandĠtheĠlargeĠblackĠ": 3345,
      "ìŀĳìĿĢĠíķĺìĸĢĠì¥Ĳ": 3346,
      "ìĸ´ë¦°Ġê²ĢìĿĢĠì¥Ĳ": 3347,
      "HundĠistĠvorĠderĠ": 3348,
      "ĨĮê°ĢĠë³´ì§ĢĠìķĬëĬĶëĭ¤ëĬĶĠê²ĥìĿ´Ġëª¨ëĳĲĠìĤ¬ìĭ¤ìĿ´ëĭ¤.": 3349,
      "Ġíģ°Ġëħ¸ëŀĢĠíĨłëģ¼ê°Ģ": 3350,
      "Ġíģ°ĠíĮĮëŀĢĠê³łìĸĳìĿ´ê°Ģ": 3351,
      "ĠëĬĻìĿĢĠíķĺìĸĢĠê°ľê°Ģ": 3352,
      "largeĠyellowĠbearĠandĠtheĠlargeĠyellowĠ": 3353,
      "smallĠblackĠdogĠandĠtheĠsmallĠblackĠ": 3354,
      "oldĠblueĠhorseĠandĠtheĠ": 3355,
      "oldĠredĠrabbitĠandĠtheĠ": 3356,
      "largeĠblackĠdogĠandĠtheĠlargeĠblackĠ": 3357,
      "youngĠyellowĠbearĠandĠtheĠyoungĠyellowĠ": 3358,
      "oldĠgreenĠhorseĠandĠtheĠ": 3359,
      "oldĠgreenĠduck.": 3360,
      "smallĠredĠbear.": 3361,
      "bearĠandĠtheĠoldĠblackĠ": 3362,
      "jungenĠrotenĠHund.": 3363,
      "groÃŁenĠblauenĠLÃ¶wen.": 3364,
      "groÃŁenĠgelbenĠFuchs.": 3365,
      "groÃŁenĠgrÃ¼nenĠHund.": 3366,
      "ThereĠareĠsevenĠsmallĠblackĠ": 3367,
      "EsĠgibtĠsiebenĠkleineĠschwarzeĠ": 3368,
      "Ġë¹¨ê°ĦĠìĤ¬ìŀĲëĬĶĠíģ°": 3369,
      "ĠìŀĳìĿĢĠê²ĢìĿĢĠê°ľê°Ģ": 3370,
      "smallĠwhiteĠhorseĠandĠtheĠsmallĠwhiteĠ": 3371,
      "largeĠblueĠfoxĠandĠtheĠlargeĠblueĠ": 3372,
      "oldĠredĠsheepĠandĠtheĠoldĠredĠ": 3373,
      "largeĠyellowĠrabbitĠandĠtheĠlargeĠyellowĠ": 3374,
      "oldĠblackĠhenĠandĠtheĠoldĠblackĠ": 3375,
      "smallĠgreenĠlionĠandĠtheĠsmallĠgreenĠ": 3376,
      "largeĠyellowĠhorseĠandĠtheĠlargeĠyellowĠ": 3377,
      "oldĠyellowĠlionĠandĠtheĠoldĠyellowĠ": 3378,
      "smallĠyellowĠhorseĠandĠtheĠsmallĠyellowĠ": 3379,
      "smallĠyellowĠcatĠandĠtheĠsmallĠyellowĠ": 3380,
      "smallĠredĠlionĠandĠtheĠsmallĠredĠ": 3381,
      "largeĠredĠsheepĠandĠtheĠlargeĠredĠ": 3382,
      "largeĠblackĠhenĠandĠtheĠlargeĠblackĠ": 3383,
      "youngĠgreenĠsheepĠandĠtheĠyoungĠgreenĠ": 3384,
      "largeĠwhiteĠfoxĠandĠtheĠlargeĠwhiteĠ": 3385,
      "ĠëĬĻìĿĢĠë¹¨ê°Ħ": 3386,
      "ìŀĳìĿĢĠëħ¸ëŀĢĠì¥Ĳ": 3387,
      "ìŀĳìĿĢĠë¹¨ê°ĦĠì¥Ĳ": 3388,
      "íģ°ĠíķĺìĸĢĠì¥Ĳ": 3389,
      "ĺ¤ë¦¬ê°ĢĠë³´ì§ĢĠìķĬëĬĶëĭ¤ëĬĶĠê²ĥìĿ´Ġëª¨ëĳĲĠìĤ¬ìĭ¤ìĿ´ëĭ¤.": 3390,
      "ĨĮê°ĢĠë³¸ëĭ¤ëĬĶĠê²ĥê³¼ĠìŀĳìĿĢ": 3391,
      "ThereĠareĠfourĠlargeĠyellowĠ": 3392,
      "EsĠgibtĠvierĠgroÃŁeĠgelbeĠ": 3393,
      "ThereĠareĠtwoĠoldĠblueĠ": 3394,
      "EsĠgibtĠzweiĠalteĠblaueĠ": 3395,
      "ìĿ´Ġë³´ì§ĢĠìķĬëĬĶëĭ¤ëĬĶĠê²ĥê³¼Ġíģ°": 3396,
      "Ġíģ°ĠíĮĮëŀĢ": 3397,
      "ĠëĬĻìĿĢĠíĮĮëŀĢĠìĸĳ": 3398,
      "Ġìĸ´ë¦°ĠíķĺìĸĢ": 3399,
      "ëĬĻìĿĢĠëħ¸ëŀĢĠì¥Ĳ": 3400,
      "íģ°Ġëħ¸ëŀĢĠê³łìĸĳìĿ´": 3401,
      "ìĸ´ë¦°Ġì´Īë¡ĿìĥīĠê°ľ": 3402,
      "PferdĠistĠoberhalbĠvonĠderĠ": 3403,
      "FuchsĠistĠunterhalbĠvonĠderĠ": 3404,
      "smallĠblackĠbearĠandĠtheĠsmallĠblackĠ": 3405,
      "smallĠblackĠhenĠandĠtheĠsmallĠblackĠ": 3406,
      "oldĠyellowĠbear.": 3407,
      "smallĠwhiteĠdogĠandĠtheĠsmallĠwhiteĠ": 3408,
      "smallĠgreenĠhenĠandĠtheĠsmallĠgreenĠ": 3409,
      "largeĠredĠhenĠandĠtheĠlargeĠredĠ": 3410,
      "smallĠredĠhorseĠandĠtheĠ": 3411,
      "oldĠblackĠrabbitĠandĠtheĠ": 3412,
      "oldĠblackĠbear.": 3413,
      "oldĠblackĠfox.": 3414,
      "mouseĠandĠtheĠoldĠblueĠ": 3415,
      "dogĠandĠtheĠsmallĠyellowĠ": 3416,
      "catĠandĠtheĠlargeĠwhiteĠ": 3417,
      "Ĺ¬ìļ°ê°ĢĠëĴ¤ëĶ°ë¥´ì§ĢĠìķĬëĬĶëĭ¤ëĬĶĠê²ĥìĿ´Ġëª¨ëĳĲĠìĤ¬ìĭ¤ìĿ´ëĭ¤.": 3418,
      "kleinenĠschwarzenĠBÃ¤ren.": 3419,
      "kleinenĠweiÃŁenĠHund.": 3420,
      "jungenĠgelbenĠBÃ¤ren.": 3421,
      "kleinenĠblauenĠLÃ¶wen.": 3422,
      "ThereĠareĠfiveĠlargeĠyellowĠ": 3423,
      "ThereĠareĠfiveĠlargeĠgreenĠ": 3424,
      "EsĠgibtĠfÃ¼nfĠgroÃŁeĠgelbeĠ": 3425,
      "EsĠgibtĠfÃ¼nfĠgroÃŁeĠgrÃ¼neĠ": 3426,
      "Ġë¹¨ê°ĦĠìĸĳìĿ´ĠëĬĻìĿĢ": 3427,
      "Ġíģ°Ġê²ĢìĿĢĠê°ľê°Ģ": 3428,
      "ĠíĮĮëŀĢĠìĸĳìĿĢĠëĬĻìĿĢ": 3429,
      "ìĿ´ĠëĴ¤ëĶ°ë¥´ì§ĢĠìķĬëĬĶëĭ¤ëĬĶĠê²ĥê³¼Ġíģ°": 3430,
      "ĠëĬĻìĿĢĠì´Īë¡ĿìĥīĠíĨłëģ¼ê°Ģ": 3431,
      "Ġëħ¸ëŀĢĠìĸĳìĿĢĠìŀĳìĿĢ": 3432,
      "ĠíĮĮëŀĢĠìĸĳìĿ´Ġíģ°": 3433,
      "smallĠblueĠlionĠandĠtheĠsmallĠblueĠ": 3434,
      "youngĠyellowĠfoxĠandĠtheĠyoungĠyellowĠ": 3435,
      "largeĠblackĠhorseĠandĠtheĠlargeĠblackĠ": 3436,
      "oldĠwhiteĠlionĠandĠtheĠoldĠwhiteĠ": 3437,
      "largeĠblackĠduckĠandĠtheĠlargeĠblackĠ": 3438,
      "smallĠyellowĠlionĠandĠtheĠsmallĠyellowĠ": 3439,
      "largeĠredĠfoxĠandĠtheĠlargeĠredĠ": 3440,
      "oldĠgreenĠrabbitĠandĠtheĠoldĠgreenĠ": 3441,
      "smallĠblueĠcowĠandĠtheĠsmallĠblueĠ": 3442,
      "oldĠblackĠduckĠandĠtheĠoldĠblackĠ": 3443,
      "ëĬĻìĿĢĠê²ĢìĿĢĠìĤ¬ìŀĲ": 3444,
      "ìĸ´ë¦°Ġëħ¸ëŀĢĠê³łìĸĳìĿ´": 3445,
      "MausĠistĠhinterĠderĠ": 3446,
      "BÃ¤rĠistĠoberhalbĠvonĠderĠ": 3447,
      "ThereĠareĠsevenĠoldĠblueĠ": 3448,
      "EsĠgibtĠsiebenĠalteĠblaueĠ": 3449,
      "ThereĠareĠeightĠlargeĠblackĠ": 3450,
      "EsĠgibtĠachtĠgroÃŁeĠschwarzeĠ": 3451,
      "ìĿ´Ġë³´ì§ĢĠìķĬëĬĶëĭ¤ëĬĶĠê²ĥê³¼Ġìĸ´ë¦°": 3452,
      "ĠìŀĳìĿĢĠëħ¸ëŀĢĠíĨłëģ¼ê°Ģ": 3453,
      "ĠìŀĳìĿĢĠëħ¸ëŀĢĠê³łìĸĳìĿ´ê°Ģ": 3454,
      "ĠìŀĳìĿĢĠíķĺìĸĢĠê°ľê°Ģ": 3455,
      "largeĠyellowĠduckĠandĠtheĠ": 3456,
      "largeĠyellowĠduck.": 3457,
      "youngĠredĠcatĠandĠtheĠyoungĠredĠ": 3458,
      "oldĠblueĠmouse.": 3459,
      "oldĠredĠhenĠandĠtheĠoldĠredĠ": 3460,
      "smallĠgreenĠdogĠandĠtheĠsmallĠgreenĠ": 3461,
      "oldĠblackĠmouseĠandĠtheĠoldĠblackĠ": 3462,
      "kleineĠgelbeĠKaninchen.": 3463,
      "Ŀ¼ê³±Ġë§Īë¦¬ìĻĢĠëĬĻìĿĢ": 3464,
      "henĠandĠtheĠsmallĠredĠ": 3465,
      "jungenĠgelbenĠHund.": 3466,
      "kleinenĠgrÃ¼nenĠFuchs.": 3467,
      "kleinenĠrotenĠLÃ¶wen.": 3468,
      "ThereĠareĠsevenĠsmallĠgreenĠ": 3469,
      "ThereĠareĠsevenĠlargeĠgreenĠ": 3470,
      "ThereĠareĠsevenĠlargeĠwhiteĠ": 3471,
      "EsĠgibtĠsiebenĠkleineĠgrÃ¼neĠ": 3472,
      "EsĠgibtĠsiebenĠgroÃŁeĠgrÃ¼neĠ": 3473,
      "EsĠgibtĠsiebenĠgroÃŁeĠweiÃŁeĠ": 3474,
      "ThereĠareĠeightĠyoungĠblueĠ": 3475,
      "EsĠgibtĠachtĠjungeĠblaueĠ": 3476,
      "ThereĠareĠfourĠsmallĠyellowĠ": 3477,
      "EsĠgibtĠvierĠkleineĠgelbeĠ": 3478,
      "ThereĠareĠsixĠoldĠblueĠ": 3479,
      "EsĠgibtĠsechsĠalteĠblaueĠ": 3480,
      "Ġìĸ´ë¦°Ġì´Īë¡ĿìĥīĠíĨłëģ¼ê°Ģ": 3481,
      "ĠìŀĳìĿĢĠê²ĢìĿĢĠíĨłëģ¼ê°Ģ": 3482,
      "ĠíķĺìĸĢĠìĸĳìĿĢĠíģ°": 3483,
      "Ġëħ¸ëŀĢĠìĸĳìĿĢĠìĸ´ë¦°": 3484,
      "youngĠgreenĠmouseĠandĠtheĠyoungĠgreenĠ": 3485,
      "smallĠgreenĠrabbitĠandĠtheĠsmallĠgreenĠ": 3486,
      "oldĠblueĠrabbitĠandĠtheĠoldĠblueĠ": 3487,
      "smallĠredĠcowĠandĠtheĠsmallĠredĠ": 3488,
      "smallĠwhiteĠduckĠandĠtheĠsmallĠwhiteĠ": 3489,
      "oldĠgreenĠsheepĠandĠtheĠoldĠgreenĠ": 3490,
      "smallĠblackĠrabbitĠandĠtheĠsmallĠblackĠ": 3491,
      "smallĠwhiteĠfoxĠandĠtheĠsmallĠwhiteĠ": 3492,
      "smallĠyellowĠrabbitĠandĠtheĠsmallĠyellowĠ": 3493,
      "youngĠgreenĠrabbitĠandĠtheĠyoungĠgreenĠ": 3494,
      "youngĠgreenĠduckĠandĠtheĠyoungĠgreenĠ": 3495,
      "largeĠredĠlionĠandĠtheĠlargeĠredĠ": 3496,
      "ĠëĬĻìĿĢĠëħ¸ëŀĢĠëĭŃ": 3497,
      "ìŀĳìĿĢĠíķĺìĸĢĠìĤ¬ìŀĲ": 3498,
      "ëĬĻìĿĢĠíĮĮëŀĢĠê³łìĸĳìĿ´": 3499,
      "íģ°Ġë¹¨ê°ĦĠê³łìĸĳìĿ´": 3500,
      "ìĸ´ë¦°ĠíĮĮëŀĢĠìĤ¬ìŀĲ": 3501,
      "ĺ¤ë¦¬ê°ĢĠë§ŀìĿ´íķĺì§ĢĠìķĬëĬĶëĭ¤ëĬĶĠê²ĥìĿ´Ġëª¨ëĳĲĠìĤ¬ìĭ¤ìĿ´ëĭ¤.": 3502,
      "EsĠgibtĠdreiĠkleineĠweiÃŁeĠ": 3503,
      "EsĠgibtĠdreiĠjungeĠgelbeĠ": 3504,
      "ThereĠareĠthreeĠsmallĠwhiteĠ": 3505,
      "ThereĠareĠthreeĠyoungĠyellowĠ": 3506,
      "ThereĠareĠsevenĠoldĠyellowĠ": 3507,
      "EsĠgibtĠsiebenĠalteĠgelbeĠ": 3508,
      "ThereĠareĠfourĠsmallĠblackĠ": 3509,
      "ThereĠareĠfourĠlargeĠredĠ": 3510,
      "EsĠgibtĠvierĠkleineĠschwarzeĠ": 3511,
      "EsĠgibtĠvierĠgroÃŁeĠroteĠ": 3512,
      "ThereĠareĠtwoĠsmallĠblueĠ": 3513,
      "EsĠgibtĠzweiĠkleineĠblaueĠ": 3514,
      "ìĿ´ĠëĴ¤ëĶ°ë¥´ì§ĢĠìķĬëĬĶëĭ¤ëĬĶĠê²ĥê³¼ĠìŀĳìĿĢ": 3515,
      "ìĿ´ĠëĴ¤ëĶ°ë¥´ì§ĢĠìķĬëĬĶëĭ¤ëĬĶĠê²ĥê³¼Ġìĸ´ë¦°": 3516,
      "ĠëĬĻìĿĢĠíĮĮëŀĢĠíĨłëģ¼ê°Ģ": 3517,
      "ëĬĻìĿĢĠê²ĢìĿĢĠìĺ¤ë¦¬": 3518,
      "ìĸ´ë¦°Ġë¹¨ê°ĦĠì¥Ĳ": 3519,
      "youngĠredĠmouseĠandĠtheĠyoungĠredĠ": 3520,
      "youngĠblackĠdogĠandĠtheĠyoungĠblackĠ": 3521,
      "smallĠwhiteĠhenĠandĠtheĠsmallĠwhiteĠ": 3522,
      "youngĠgreenĠdogĠandĠtheĠyoungĠgreenĠ": 3523,
      "largeĠgreenĠhenĠandĠtheĠlargeĠgreenĠ": 3524,
      "smallĠblueĠmouseĠandĠtheĠsmallĠblueĠ": 3525,
      "smallĠblueĠbearĠandĠtheĠsmallĠblueĠ": 3526,
      "smallĠyellowĠfox.": 3527,
      "ê°ĢĠíģ°Ġëħ¸ëŀĢĠìĸĳìĿĦ": 3528,
      "ê°ĢĠëĬĻìĿĢĠì´Īë¡ĿìĥīĠìĨĮë¥¼": 3529,
      "altenĠblauenĠHund.": 3530,
      "altenĠgelbenĠHund.": 3531,
      "altenĠrotenĠLÃ¶wen.": 3532,
      "altenĠrotenĠBÃ¤ren.": 3533,
      "groÃŁenĠweiÃŁenĠFuchs.": 3534,
      "kleinenĠgrÃ¼nenĠBÃ¤ren.": 3535,
      "EsĠgibtĠdreiĠgroÃŁeĠschwarzeĠ": 3536,
      "ThereĠareĠthreeĠlargeĠblackĠ": 3537,
      "kleinenĠrotenĠFuchs.": 3538,
      "ThereĠareĠsevenĠyoungĠredĠ": 3539,
      "EsĠgibtĠsiebenĠjungeĠroteĠ": 3540,
      "Ġë¹¨ê°ĦĠìĤ¬ìŀĲê°ĢĠìŀĳìĿĢ": 3541,
      "Ġê²ĢìĿĢĠìĸĳìĿ´ĠëĬĻìĿĢ": 3542,
      "Ġë¹¨ê°ĦĠê³°ìĿ´ĠëĬĻìĿĢ": 3543,
      "ĠíķĺìĸĢĠë§ĲìĿ´ĠëĬĻìĿĢ": 3544,
      "ĠìŀĳìĿĢĠì´Īë¡ĿìĥīĠê°ľê°Ģ": 3545,
      "ĠìŀĳìĿĢĠì´Īë¡ĿìĥīĠíĨłëģ¼ê°Ģ": 3546,
      "Ġìĸ´ë¦°Ġì´Īë¡ĿìĥīĠê°ľê°Ģ": 3547,
      "Ġë¹¨ê°ĦĠìĸĳìĿ´Ġíģ°": 3548,
      "Ġìĸ´ë¦°Ġê²ĢìĿĢĠê°ľê°Ģ": 3549,
      "ĠíķĺìĸĢĠìĸĳìĿĢĠìŀĳìĿĢ": 3550,
      "ĠíķĺìĸĢĠìĸĳìĿĢĠìĸ´ë¦°": 3551,
      "largeĠwhiteĠsheepĠandĠtheĠlargeĠwhiteĠ": 3552,
      "oldĠblackĠsheepĠandĠtheĠoldĠblackĠ": 3553,
      "youngĠredĠcowĠandĠtheĠyoungĠredĠ": 3554,
      "largeĠredĠrabbitĠandĠtheĠlargeĠredĠ": 3555,
      "largeĠblackĠfoxĠandĠtheĠlargeĠblackĠ": 3556,
      "oldĠyellowĠhorseĠandĠtheĠoldĠyellowĠ": 3557,
      "youngĠyellowĠduckĠandĠtheĠyoungĠyellowĠ": 3558,
      "oldĠredĠfoxĠandĠtheĠoldĠredĠ": 3559,
      "smallĠgreenĠsheepĠandĠtheĠsmallĠgreenĠ": 3560,
      "largeĠwhiteĠduckĠandĠtheĠlargeĠwhiteĠ": 3561,
      "ìĸ´ë¦°Ġê²ĢìĿĢĠê³łìĸĳìĿ´": 3562,
      "Ĥ¬ìŀĲê°ĢĠë§ŀìĿ´íķĺì§ĢĠìķĬëĬĶëĭ¤ëĬĶĠê²ĥìĿ´Ġëª¨ëĳĲĠìĤ¬ìĭ¤ìĿ´ëĭ¤.": 3563,
      "ThereĠareĠfiveĠlargeĠblackĠ": 3564,
      "ThereĠareĠfiveĠsmallĠgreenĠ": 3565,
      "ThereĠareĠfiveĠlargeĠwhiteĠ": 3566,
      "EsĠgibtĠfÃ¼nfĠgroÃŁeĠschwarzeĠ": 3567,
      "EsĠgibtĠfÃ¼nfĠkleineĠgrÃ¼neĠ": 3568,
      "EsĠgibtĠfÃ¼nfĠgroÃŁeĠweiÃŁeĠ": 3569,
      "EsĠgibtĠdreiĠkleineĠroteĠ": 3570,
      "ThereĠareĠthreeĠsmallĠredĠ": 3571,
      "ThereĠareĠeightĠlargeĠredĠ": 3572,
      "EsĠgibtĠachtĠgroÃŁeĠroteĠ": 3573,
      "ĠìĸĳìĿ´Ġë§ŀìĿ´íķľëĭ¤ëĬĶĠê²ĥìĿ´Ġëª¨ëĳĲĠìĤ¬ìĭ¤ìĿ´ëĭ¤.": 3574,
      "ìĿ´ĠëĴ¤ëĶ°ë¥´ì§ĢĠìķĬëĬĶëĭ¤ëĬĶĠê²ĥê³¼ĠëĬĻìĿĢ": 3575,
      "Ġíģ°Ġë¹¨ê°ĦĠíĨłëģ¼ê°Ģ": 3576,
      "ĠìŀĳìĿĢĠíĮĮëŀĢĠê³łìĸĳìĿ´ê°Ģ": 3577,
      "Ġìĸ´ë¦°Ġë¹¨ê°ĦĠê³łìĸĳìĿ´ê°Ģ": 3578,
      "ìĸ´ë¦°ĠíķĺìĸĢĠìĤ¬ìŀĲ": 3579,
      "largeĠblueĠmouseĠandĠtheĠlargeĠblueĠ": 3580,
      "oldĠyellowĠmouseĠandĠtheĠoldĠyellowĠ": 3581,
      "smallĠwhiteĠcatĠandĠtheĠsmallĠwhiteĠ": 3582,
      "smallĠgreenĠmouseĠandĠtheĠsmallĠgreenĠ": 3583,
      "smallĠblueĠcatĠandĠtheĠsmallĠblueĠ": 3584,
      "oldĠgreenĠbearĠandĠtheĠoldĠgreenĠ": 3585,
      "groÃŁeĠblaueĠKaninchen.": 3586,
      "ëĬĶĠíģ°Ġì´Īë¡ĿìĥīĠê³°": 3587,
      "ê°ĢĠìŀĳìĿĢĠê²ĢìĿĢĠì¥Ĳë¥¼": 3588,
      "ê°ĢĠìĸ´ë¦°Ġê²ĢìĿĢĠëĭŃìĿĦ": 3589,
      "ê°ĢĠìĸ´ë¦°Ġê²ĢìĿĢĠìĤ¬ìŀĲë¥¼": 3590,
      "ê°ĢĠìĸ´ë¦°Ġë¹¨ê°ĦĠìĺ¤ë¦¬ë¥¼": 3591,
      "ĠëĭŃìĿ´Ġë§ŀìĿ´íķĺì§ĢĠìķĬëĬĶëĭ¤ëĬĶĠê²ĥìĿ´Ġëª¨ëĳĲĠìĤ¬ìĭ¤ìĿ´ëĭ¤.": 3592,
      "ĺ¤ë¦¬ê°ĢĠëĴ¤ëĶ°ë¥¸ëĭ¤ëĬĶĠê²ĥê³¼Ġìĸ´ë¦°": 3593,
      "jungenĠrotenĠLÃ¶wen.": 3594,
      "Ĺ¬ìļ°ê°ĢĠë§ŀìĿ´íķĺì§ĢĠìķĬëĬĶëĭ¤ëĬĶĠê²ĥìĿ´Ġëª¨ëĳĲĠìĤ¬ìĭ¤ìĿ´ëĭ¤.": 3595,
      "kleinenĠschwarzenĠHund.": 3596,
      "kleinenĠweiÃŁenĠLÃ¶wen.": 3597,
      "kleinenĠgrÃ¼nenĠLÃ¶wen.": 3598,
      "kleinenĠgrÃ¼nenĠHund.": 3599,
      "altenĠweiÃŁenĠBÃ¤ren.": 3600,
      "kleinenĠblauenĠHund.": 3601,
      "groÃŁenĠrotenĠLÃ¶wen.": 3602,
      "EsĠgibtĠdreiĠkleineĠschwarzeĠ": 3603,
      "ThereĠareĠthreeĠsmallĠblackĠ": 3604,
      "ThereĠareĠeightĠlargeĠblueĠ": 3605,
      "ThereĠareĠeightĠoldĠwhiteĠ": 3606,
      "EsĠgibtĠachtĠgroÃŁeĠblaueĠ": 3607,
      "EsĠgibtĠachtĠalteĠweiÃŁeĠ": 3608,
      "ThereĠareĠfourĠyoungĠyellowĠ": 3609,
      "EsĠgibtĠvierĠjungeĠgelbeĠ": 3610,
      "ThereĠareĠtwoĠoldĠgreenĠ": 3611,
      "EsĠgibtĠzweiĠalteĠgrÃ¼neĠ": 3612,
      "ĠíķĺìĸĢĠëĭŃìĿ´ĠëĬĻìĿĢ": 3613,
      "Ġëħ¸ëŀĢĠëĭŃìĿ´ĠëĬĻìĿĢ": 3614,
      "Ġì´Īë¡ĿìĥīĠëĭŃìĿ´ĠëĬĻìĿĢ": 3615,
      "Ġìĸ´ë¦°Ġê²ĢìĿĢĠíĨłëģ¼ê°Ģ": 3616,
      "Ġëħ¸ëŀĢĠìĸĳìĿĢĠíģ°": 3617,
      "Ġëħ¸ëŀĢĠìĸĳìĿ´Ġíģ°": 3618,
      "oldĠyellowĠsheepĠandĠtheĠoldĠyellowĠ": 3619,
      "oldĠblueĠfoxĠandĠtheĠoldĠblueĠ": 3620,
      "largeĠgreenĠfoxĠandĠtheĠlargeĠgreenĠ": 3621,
      "largeĠgreenĠhorseĠandĠtheĠlargeĠgreenĠ": 3622,
      "smallĠredĠduckĠandĠtheĠsmallĠredĠ": 3623,
      "youngĠblackĠcowĠandĠtheĠyoungĠblackĠ": 3624,
      "youngĠblackĠrabbitĠandĠtheĠyoungĠblackĠ": 3625,
      "largeĠblackĠcowĠandĠtheĠlargeĠblackĠ": 3626,
      "youngĠgreenĠhorseĠandĠtheĠyoungĠgreenĠ": 3627,
      "youngĠblueĠcowĠandĠtheĠyoungĠblueĠ": 3628,
      "youngĠredĠlionĠandĠtheĠyoungĠredĠ": 3629,
      "largeĠblackĠrabbitĠandĠtheĠlargeĠblackĠ": 3630,
      "oldĠwhiteĠfoxĠandĠtheĠoldĠwhiteĠ": 3631,
      "largeĠredĠduckĠandĠtheĠlargeĠredĠ": 3632,
      "smallĠblackĠduckĠandĠtheĠsmallĠblackĠ": 3633,
      "largeĠredĠhorseĠandĠtheĠlargeĠredĠ": 3634,
      "Ġíģ°Ġëħ¸ëŀĢ": 3635,
      "ĠëĬĻìĿĢĠíķĺìĸĢ": 3636,
      "Ĥ¬ìŀĲê°ĢĠë³¸ëĭ¤ëĬĶĠê²ĥê³¼Ġíģ°": 3637,
      "EsĠgibtĠdreiĠalteĠroteĠ": 3638,
      "EsĠgibtĠdreiĠjungeĠweiÃŁeĠ": 3639,
      "ThereĠareĠthreeĠoldĠredĠ": 3640,
      "ThereĠareĠthreeĠyoungĠwhiteĠ": 3641,
      "ThereĠareĠsevenĠsmallĠblueĠ": 3642,
      "EsĠgibtĠsiebenĠkleineĠblaueĠ": 3643,
      "ThereĠareĠeightĠlargeĠgreenĠ": 3644,
      "EsĠgibtĠachtĠgroÃŁeĠgrÃ¼neĠ": 3645,
      "Ġíģ°ĠíĮĮëŀĢĠê°ľê°Ģ": 3646,
      "ĠìŀĳìĿĢĠíķĺìĸĢ": 3647,
      "ĠìŀĳìĿĢĠíķĺìĸĢĠê³łìĸĳìĿ´ê°Ģ": 3648,
      "ĠíĮĮëŀĢĠê³°ìĿ´ĠìŀĳìĿĢ": 3649,
      "ìĸ´ë¦°ĠíĮĮëŀĢĠê³łìĸĳìĿ´": 3650,
      "largeĠyellowĠhenĠandĠtheĠlargeĠyellowĠ": 3651,
      "largeĠblueĠdogĠandĠtheĠlargeĠblueĠ": 3652,
      "oldĠyellowĠdogĠandĠtheĠoldĠyellowĠ": 3653,
      "youngĠgreenĠhenĠandĠtheĠyoungĠgreenĠ": 3654,
      "largeĠgreenĠmouseĠandĠtheĠlargeĠgreenĠ": 3655,
      "smallĠblueĠhenĠandĠtheĠsmallĠblueĠ": 3656,
      "smallĠyellowĠhenĠandĠtheĠsmallĠyellowĠ": 3657,
      "largeĠredĠbearĠandĠtheĠlargeĠredĠ": 3658,
      "youngĠwhiteĠmouseĠandĠtheĠyoungĠwhiteĠ": 3659,
      "smallĠredĠcatĠandĠtheĠsmallĠredĠ": 3660,
      "alteĠblaueĠKaninchen.": 3661,
      "kleineĠroteĠKaninchen.": 3662,
      "ê°ĢĠíģ°Ġëħ¸ëŀĢĠê°ľë¥¼": 3663,
      "ëĬĶĠëĬĻìĿĢĠë¹¨ê°ĦĠìĤ¬ìŀĲ": 3664,
      "ëĬĶĠìŀĳìĿĢĠíĮĮëŀĢĠìĺ¤ë¦¬": 3665,
      "Ĺ¬ëįŁĠë§Īë¦¬ìĻĢĠíģ°": 3666,
      "ĨĮê°ĢĠëĴ¤ëĶ°ë¥´ì§ĢĠìķĬëĬĶëĭ¤ëĬĶĠê²ĥìĿ´Ġëª¨ëĳĲĠìĤ¬ìĭ¤ìĿ´ëĭ¤.": 3667,
      "groÃŁenĠblauenĠBÃ¤ren.": 3668,
      "jungenĠschwarzenĠHund.": 3669,
      "altenĠweiÃŁenĠHund.": 3670,
      "groÃŁenĠrotenĠHund.": 3671,
      "groÃŁenĠrotenĠFuchs.": 3672,
      "jungenĠgrÃ¼nenĠLÃ¶wen.": 3673,
      "ThereĠareĠfiveĠyoungĠgreenĠ": 3674,
      "ThereĠareĠfiveĠsmallĠblueĠ": 3675,
      "EsĠgibtĠfÃ¼nfĠjungeĠgrÃ¼neĠ": 3676,
      "EsĠgibtĠfÃ¼nfĠkleineĠblaueĠ": 3677,
      "EsĠgibtĠdreiĠjungeĠblaueĠ": 3678,
      "ThereĠareĠthreeĠyoungĠblueĠ": 3679,
      "altenĠgrÃ¼nenĠFuchs.": 3680,
      "ThereĠareĠeightĠoldĠredĠ": 3681,
      "EsĠgibtĠachtĠalteĠroteĠ": 3682,
      "ThereĠareĠtwoĠoldĠyellowĠ": 3683,
      "EsĠgibtĠzweiĠalteĠgelbeĠ": 3684,
      "ThereĠareĠsixĠlargeĠgreenĠ": 3685,
      "EsĠgibtĠsechsĠgroÃŁeĠgrÃ¼neĠ": 3686,
      "Ġë¹¨ê°ĦĠìĤ¬ìŀĲê°ĢĠíģ°": 3687,
      "Ġê²ĢìĿĢĠê³°ìĿ´ĠëĬĻìĿĢ": 3688,
      "Ġì´Īë¡ĿìĥīĠìĸĳìĿ´ĠëĬĻìĿĢ": 3689,
      "Ġëħ¸ëŀĢĠë§ĲìĿ´ĠëĬĻìĿĢ": 3690,
      "Ġíģ°Ġê²ĢìĿĢĠíĨłëģ¼ê°Ģ": 3691,
      "Ġëħ¸ëŀĢĠìĸĳìĿ´Ġìĸ´ë¦°": 3692,
      "youngĠredĠsheepĠandĠtheĠyoungĠredĠ": 3693,
      "youngĠblackĠhorseĠandĠtheĠyoungĠblackĠ": 3694,
      "oldĠblackĠlionĠandĠtheĠoldĠblackĠ": 3695,
      "largeĠgreenĠduckĠandĠtheĠlargeĠgreenĠ": 3696,
      "youngĠredĠrabbitĠandĠtheĠyoungĠredĠ": 3697,
      "smallĠwhiteĠrabbitĠandĠtheĠsmallĠwhiteĠ": 3698,
      "youngĠwhiteĠrabbitĠandĠtheĠyoungĠwhiteĠ": 3699,
      "ĠìŀĳìĿĢĠëħ¸ëŀĢ": 3700,
      "MausĠistĠvorĠderĠ": 3701,
      "ĨĮê°ĢĠë§ŀìĿ´íķĺì§ĢĠìķĬëĬĶëĭ¤ëĬĶĠê²ĥìĿ´Ġëª¨ëĳĲĠìĤ¬ìĭ¤ìĿ´ëĭ¤.": 3702,
      "ThereĠareĠfiveĠoldĠblueĠ": 3703,
      "ThereĠareĠfiveĠyoungĠwhiteĠ": 3704,
      "ThereĠareĠfiveĠoldĠblackĠ": 3705,
      "EsĠgibtĠfÃ¼nfĠalteĠblaueĠ": 3706,
      "EsĠgibtĠfÃ¼nfĠjungeĠweiÃŁeĠ": 3707,
      "EsĠgibtĠfÃ¼nfĠalteĠschwarzeĠ": 3708,
      "EsĠgibtĠdreiĠjungeĠroteĠ": 3709,
      "EsĠgibtĠdreiĠkleineĠblaueĠ": 3710,
      "ThereĠareĠthreeĠyoungĠredĠ": 3711,
      "ThereĠareĠthreeĠsmallĠblueĠ": 3712,
      "ThereĠareĠeightĠyoungĠblackĠ": 3713,
      "EsĠgibtĠachtĠjungeĠschwarzeĠ": 3714,
      "ThereĠareĠfourĠoldĠwhiteĠ": 3715,
      "EsĠgibtĠvierĠalteĠweiÃŁeĠ": 3716,
      "ThereĠareĠsixĠoldĠblackĠ": 3717,
      "EsĠgibtĠsechsĠalteĠschwarzeĠ": 3718,
      "ĠëĬĻìĿĢĠëħ¸ëŀĢĠê°ľê°Ģ": 3719,
      "ĠëĬĻìĿĢĠíķĺìĸĢĠê³łìĸĳìĿ´ê°Ģ": 3720,
      "ĠìŀĳìĿĢĠê²ĢìĿĢĠìĸĳ": 3721,
      "ĠìŀĳìĿĢĠë¹¨ê°ĦĠê³łìĸĳìĿ´ê°Ģ": 3722,
      "ĠìŀĳìĿĢĠíķĺìĸĢĠíĨłëģ¼ê°Ģ": 3723,
      "Ġìĸ´ë¦°ĠíĮĮëŀĢĠíĨłëģ¼ê°Ģ": 3724,
      "Ġìĸ´ë¦°Ġë¹¨ê°ĦĠíĨłëģ¼ê°Ģ": 3725,
      "Ġìĸ´ë¦°Ġëħ¸ëŀĢĠê°ľê°Ģ": 3726,
      "Ġìĸ´ë¦°ĠíķĺìĸĢĠíĨłëģ¼ê°Ģ": 3727,
      "smallĠyellowĠfoxĠandĠtheĠ": 3728,
      "largeĠwhiteĠbearĠandĠtheĠlargeĠwhiteĠ": 3729,
      "largeĠwhiteĠmouseĠandĠtheĠlargeĠwhiteĠ": 3730,
      "youngĠyellowĠdogĠandĠtheĠyoungĠyellowĠ": 3731,
      "oldĠgreenĠhenĠandĠtheĠoldĠgreenĠ": 3732,
      "oldĠwhiteĠcatĠandĠtheĠoldĠwhiteĠ": 3733,
      "groÃŁeĠgelbeĠKaninchen.": 3734,
      "jungeĠroteĠKaninchen.": 3735,
      "groÃŁeĠgrÃ¼neĠKaninchen.": 3736,
      "ëĬĶĠíģ°Ġëħ¸ëŀĢĠìĤ¬ìŀĲ": 3737,
      "ëĬĶĠíģ°ĠíķĺìĸĢĠê³łìĸĳìĿ´": 3738,
      "ëĬĶĠíģ°ĠíĮĮëŀĢĠë§Ĳ": 3739,
      "ê°ĢĠìĸ´ë¦°Ġëħ¸ëŀĢĠëĭŃìĿĦ": 3740,
      "ê°ĢĠìĸ´ë¦°Ġê²ĢìĿĢĠê³°ìĿĦ": 3741,
      "ëĬĶĠìĸ´ë¦°Ġê²ĢìĿĢĠìĤ¬ìŀĲ": 3742,
      "ëĬĶĠìĸ´ë¦°Ġë¹¨ê°ĦĠìĸĳ": 3743,
      "ëĬĶĠìĸ´ë¦°ĠíĮĮëŀĢĠëĭŃ": 3744,
      "ëĬĶĠìŀĳìĿĢĠê²ĢìĿĢĠìĸĳ": 3745,
      "Ĺ¬ìĦ¯Ġë§Īë¦¬ìĻĢĠëĬĻìĿĢ": 3746,
      "Ġë§ĲìĿ´Ġë§ŀìĿ´íķĺì§ĢĠìķĬëĬĶëĭ¤ëĬĶĠê²ĥìĿ´Ġëª¨ëĳĲĠìĤ¬ìĭ¤ìĿ´ëĭ¤.": 3747,
      "Ġë§ĲìĿ´Ġë§ŀìĿ´íķľëĭ¤ëĬĶĠê²ĥê³¼Ġíģ°": 3748,
      "ĨĮê°ĢĠëĴ¤ëĶ°ë¥¸ëĭ¤ëĬĶĠê²ĥê³¼ĠìŀĳìĿĢ": 3749,
      "groÃŁenĠblauenĠHund.": 3750,
      "groÃŁenĠgelbenĠBÃ¤ren.": 3751,
      "groÃŁenĠgelbenĠHund.": 3752,
      "jungenĠschwarzenĠBÃ¤ren.": 3753,
      "altenĠrotenĠHund.": 3754,
      "groÃŁenĠschwarzenĠLÃ¶wen.": 3755,
      "groÃŁenĠschwarzenĠHund.": 3756,
      "jungenĠgelbenĠFuchs.": 3757,
      "altenĠweiÃŁenĠLÃ¶wen.": 3758,
      "kleinenĠblauenĠBÃ¤ren.": 3759,
      "jungenĠblauenĠHund.": 3760,
      "ThereĠareĠfiveĠoldĠredĠ": 3761,
      "EsĠgibtĠfÃ¼nfĠalteĠroteĠ": 3762,
      "kleinenĠgelbenĠHund.": 3763,
      "ThereĠareĠfourĠlargeĠwhiteĠ": 3764,
      "EsĠgibtĠvierĠgroÃŁeĠweiÃŁeĠ": 3765,
      "ThereĠareĠtwoĠyoungĠredĠ": 3766,
      "EsĠgibtĠzweiĠjungeĠroteĠ": 3767,
      "Ġë¹¨ê°ĦĠë§ĲìĿ´ĠëĬĻìĿĢ": 3768,
      "ĠíĮĮëŀĢĠìĸĳìĿĢĠìĸ´ë¦°": 3769,
      "ĠíķĺìĸĢĠìĸĳìĿĢĠëĬĻìĿĢ": 3770,
      "youngĠyellowĠlionĠandĠtheĠyoungĠyellowĠ": 3771,
      "oldĠwhiteĠcowĠandĠtheĠoldĠwhiteĠ": 3772,
      "oldĠyellowĠcowĠandĠtheĠoldĠyellowĠ": 3773,
      "oldĠgreenĠfoxĠandĠtheĠoldĠgreenĠ": 3774,
      "youngĠblueĠfoxĠandĠtheĠyoungĠblueĠ": 3775,
      "youngĠgreenĠcowĠandĠtheĠyoungĠgreenĠ": 3776,
      "youngĠblueĠrabbitĠandĠtheĠyoungĠblueĠ": 3777,
      "oldĠblackĠhorseĠandĠtheĠoldĠblackĠ": 3778,
      "oldĠgreenĠlionĠandĠtheĠoldĠgreenĠ": 3779,
      "oldĠredĠhorseĠandĠtheĠoldĠredĠ": 3780,
      "ĠìŀĳìĿĢĠíĮĮëŀĢ": 3781,
      "ĠìŀĳìĿĢĠê²ĢìĿĢĠë§Ĳ": 3782,
      "ĺ¤ë¦¬ê°ĢĠëĴ¤ëĶ°ë¥´ì§ĢĠìķĬëĬĶëĭ¤ëĬĶĠê²ĥìĿ´Ġëª¨ëĳĲĠìĤ¬ìĭ¤ìĿ´ëĭ¤.": 3783,
      "Ĺ¬ìļ°ê°ĢĠë³´ì§ĢĠìķĬëĬĶëĭ¤ëĬĶĠê²ĥìĿ´Ġëª¨ëĳĲĠìĤ¬ìĭ¤ìĿ´ëĭ¤.": 3784,
      "ThereĠareĠfiveĠyoungĠblueĠ": 3785,
      "EsĠgibtĠfÃ¼nfĠjungeĠblaueĠ": 3786,
      "EsĠgibtĠdreiĠalteĠblaueĠ": 3787,
      "EsĠgibtĠdreiĠkleineĠgrÃ¼neĠ": 3788,
      "EsĠgibtĠdreiĠalteĠgrÃ¼neĠ": 3789,
      "ThereĠareĠthreeĠoldĠblueĠ": 3790,
      "ThereĠareĠthreeĠsmallĠgreenĠ": 3791,
      "ThereĠareĠthreeĠoldĠgreenĠ": 3792,
      "ThereĠareĠtwoĠyoungĠblackĠ": 3793,
      "ThereĠareĠtwoĠlargeĠgreenĠ": 3794,
      "EsĠgibtĠzweiĠjungeĠschwarzeĠ": 3795,
      "EsĠgibtĠzweiĠgroÃŁeĠgrÃ¼neĠ": 3796,
      "Ġíģ°Ġëħ¸ëŀĢĠìĸĳ": 3797,
      "Ġíģ°ĠíķĺìĸĢĠíĨłëģ¼ê°Ģ": 3798,
      "Ġìĸ´ë¦°Ġëħ¸ëŀĢĠê³łìĸĳìĿ´ê°Ģ": 3799,
      "Ġìĸ´ë¦°ĠíĮĮëŀĢĠê°ľê°Ģ": 3800,
      "íģ°Ġëħ¸ëŀĢĠì¥Ĳë¥¼": 3801,
      "ìĸ´ë¦°ĠíķĺìĸĢĠìĹ¬ìļ°": 3802,
      "largeĠgreenĠdogĠandĠtheĠlargeĠgreenĠ": 3803,
      "youngĠyellowĠcatĠandĠtheĠyoungĠyellowĠ": 3804,
      "youngĠblueĠdogĠandĠtheĠyoungĠblueĠ": 3805,
      "alteĠgelbeĠKaninchen.": 3806,
      "alteĠgrÃ¼neĠKaninchen.": 3807,
      "ëĬĶĠíģ°Ġì´Īë¡ĿìĥīĠê³łìĸĳìĿ´": 3808,
      "ê°ĢĠìŀĳìĿĢĠê²ĢìĿĢĠë§ĲìĿĦ": 3809,
      "ê°ĢĠìĸ´ë¦°Ġê²ĢìĿĢĠìĺ¤ë¦¬ë¥¼": 3810,
      "ê°ĢĠìĸ´ë¦°ĠíķĺìĸĢĠìĨĮë¥¼": 3811,
      "ê°ĢĠíģ°ĠíĮĮëŀĢĠìĤ¬ìŀĲë¥¼": 3812,
      "ê°ĢĠíģ°ĠíĮĮëŀĢĠë§ĲìĿĦ": 3813,
      "ê°ĢĠíģ°Ġê²ĢìĿĢĠê³łìĸĳìĿ´ë¥¼": 3814,
      "ê°ĢĠëĬĻìĿĢĠë¹¨ê°ĦĠê³°ìĿĦ": 3815,
      "ëĬĶĠëĬĻìĿĢĠëħ¸ëŀĢĠìĸĳ": 3816,
      "ëĬĶĠìĸ´ë¦°Ġëħ¸ëŀĢĠìĨĮ": 3817,
      "ĠëĭŃìĿ´Ġë§ŀìĿ´íķľëĭ¤ëĬĶĠê²ĥê³¼Ġìĸ´ë¦°": 3818,
      "Ġê³°ìĿ´Ġë§ŀìĿ´íķľëĭ¤ëĬĶĠê²ĥê³¼ĠëĬĻìĿĢ": 3819,
      "ĺ¤ë¦¬ê°ĢĠë§ŀìĿ´íķľëĭ¤ëĬĶĠê²ĥê³¼Ġìĸ´ë¦°": 3820,
      "Ĺ¬ìļ°ê°ĢĠëĴ¤ëĶ°ë¥¸ëĭ¤ëĬĶĠê²ĥê³¼ĠìŀĳìĿĢ": 3821,
      "groÃŁenĠweiÃŁenĠHund.": 3822,
      "EsĠgibtĠdreiĠalteĠschwarzeĠ": 3823,
      "ThereĠareĠthreeĠoldĠblackĠ": 3824,
      "altenĠgrÃ¼nenĠBÃ¤ren.": 3825,
      "ThereĠareĠeightĠsmallĠredĠ": 3826,
      "EsĠgibtĠachtĠkleineĠroteĠ": 3827,
      "ThereĠareĠfourĠyoungĠblackĠ": 3828,
      "EsĠgibtĠvierĠjungeĠschwarzeĠ": 3829,
      "ThereĠareĠtwoĠlargeĠyellowĠ": 3830,
      "ThereĠareĠtwoĠsmallĠblackĠ": 3831,
      "EsĠgibtĠzweiĠgroÃŁeĠgelbeĠ": 3832,
      "EsĠgibtĠzweiĠkleineĠschwarzeĠ": 3833,
      "Ġë¹¨ê°ĦĠìĤ¬ìŀĲê°ĢĠëĬĻìĿĢ": 3834,
      "ĠíĮĮëŀĢĠê³°ìĿ´ĠëĬĻìĿĢ": 3835,
      "Ġë¹¨ê°ĦĠëĭŃìĿ´ĠëĬĻìĿĢ": 3836,
      "Ġë¹¨ê°ĦĠìĸĳìĿ´ĠìŀĳìĿĢ": 3837,
      "Ġíģ°Ġì´Īë¡ĿìĥīĠê°ľê°Ģ": 3838,
      "ìĿ´Ġë³´ì§ĢĠìķĬëĬĶëĭ¤ëĬĶĠê²ĥê³¼ĠìŀĳìĿĢ": 3839,
      "ìĿ´Ġë³´ì§ĢĠìķĬëĬĶëĭ¤ëĬĶĠê²ĥê³¼ĠëĬĻìĿĢ": 3840,
      "largeĠwhiteĠcowĠandĠtheĠlargeĠwhiteĠ": 3841,
      "oldĠredĠlionĠandĠtheĠoldĠredĠ": 3842,
      "oldĠyellowĠfoxĠandĠtheĠoldĠyellowĠ": 3843,
      "largeĠwhiteĠrabbitĠandĠtheĠlargeĠwhiteĠ": 3844,
      "youngĠyellowĠhorseĠandĠtheĠyoungĠyellowĠ": 3845,
      "youngĠblueĠhorseĠandĠtheĠyoungĠblueĠ": 3846,
      "oldĠblueĠcowĠandĠtheĠoldĠblueĠ": 3847,
      "smallĠblueĠhorseĠandĠtheĠsmallĠblueĠ": 3848,
      "largeĠwhiteĠhorseĠandĠtheĠlargeĠwhiteĠ": 3849,
      "largeĠgreenĠlionĠandĠtheĠlargeĠgreenĠ": 3850,
      "Ġìĸ´ë¦°Ġê²ĢìĿĢĠëĭŃ": 3851,
      "Ĺ¬ëįŁĠë§Īë¦¬ìĻĢĠëĬĻìĿĢ": 3852,
      "Ħ¸Ġë§Īë¦¬ìĻĢĠíģ°": 3853,
      "Ĺ¬ìĦ¯Ġë§Īë¦¬ìĻĢĠìŀĳìĿĢ": 3854,
      "ThereĠareĠfiveĠsmallĠredĠ": 3855,
      "EsĠgibtĠfÃ¼nfĠkleineĠroteĠ": 3856,
      "ThereĠareĠfourĠoldĠredĠ": 3857,
      "ThereĠareĠfourĠoldĠyellowĠ": 3858,
      "ThereĠareĠfourĠyoungĠwhiteĠ": 3859,
      "EsĠgibtĠvierĠalteĠgelbeĠ": 3860,
      "EsĠgibtĠvierĠalteĠroteĠ": 3861,
      "EsĠgibtĠvierĠjungeĠweiÃŁeĠ": 3862,
      "largeĠblackĠbearĠandĠtheĠlargeĠblackĠ": 3863,
      "smallĠgreenĠcatĠandĠtheĠsmallĠgreenĠ": 3864,
      "largeĠgreenĠcatĠandĠtheĠlargeĠgreenĠ": 3865,
      "youngĠwhiteĠfoxĠandĠtheĠ": 3866,
      "oldĠgreenĠdogĠandĠtheĠoldĠgreenĠ": 3867,
      "oldĠwhiteĠmouseĠandĠtheĠoldĠwhiteĠ": 3868,
      "oldĠwhiteĠhenĠandĠtheĠoldĠwhiteĠ": 3869,
      "ëĬĶĠíģ°Ġê²ĢìĿĢĠê³łìĸĳìĿ´": 3870,
      "ê°ĢĠìŀĳìĿĢĠê²ĢìĿĢĠìĨĮë¥¼": 3871,
      "ê°ĢĠìŀĳìĿĢĠëħ¸ëŀĢĠìĸĳìĿĦ": 3872,
      "ê°ĢĠìĸ´ë¦°ĠíķĺìĸĢĠê°ľë¥¼": 3873,
      "ê°ĢĠíģ°Ġëħ¸ëŀĢĠì¥Ĳë¥¼": 3874,
      "ê°ĢĠëĬĻìĿĢĠëħ¸ëŀĢĠíĨłëģ¼ë¥¼": 3875,
      "Ŀ¼ê³±Ġë§Īë¦¬ìĻĢĠìŀĳìĿĢ": 3876,
      "Ĺ¬ëįŁĠë§Īë¦¬ìĻĢĠìŀĳìĿĢ": 3877,
      "Ħ¸Ġë§Īë¦¬ìĻĢĠìŀĳìĿĢ": 3878,
      "Ġê³°ìĿ´Ġë§ŀìĿ´íķľëĭ¤ëĬĶĠê²ĥê³¼Ġìĸ´ë¦°": 3879,
      "groÃŁenĠblauenĠFuchs.": 3880,
      "jungenĠschwarzenĠLÃ¶wenĠundĠderĠ": 3881,
      "Ĺ¬ìļ°ê°ĢĠë§ŀìĿ´íķľëĭ¤ëĬĶĠê²ĥê³¼Ġíģ°": 3882,
      "altenĠblauenĠBÃ¤ren.": 3883,
      "groÃŁenĠweiÃŁenĠLÃ¶wen.": 3884,
      "groÃŁenĠschwarzenĠFuchs.": 3885,
      "jungenĠblauenĠLÃ¶wen.": 3886,
      "ThereĠareĠfiveĠoldĠyellowĠ": 3887,
      "EsĠgibtĠfÃ¼nfĠalteĠgelbeĠ": 3888,
      "kleinenĠgelbenĠLÃ¶wen.": 3889,
      "EsĠgibtĠdreiĠgroÃŁeĠweiÃŁeĠ": 3890,
      "ThereĠareĠthreeĠlargeĠwhiteĠ": 3891,
      "ThereĠareĠsevenĠyoungĠgreenĠ": 3892,
      "ThereĠareĠsevenĠoldĠwhiteĠ": 3893,
      "EsĠgibtĠsiebenĠjungeĠgrÃ¼neĠ": 3894,
      "EsĠgibtĠsiebenĠalteĠweiÃŁeĠ": 3895,
      "ThereĠareĠeightĠsmallĠblackĠ": 3896,
      "EsĠgibtĠachtĠkleineĠschwarzeĠ": 3897,
      "ThereĠareĠfourĠyoungĠblueĠ": 3898,
      "EsĠgibtĠvierĠjungeĠblaueĠ": 3899,
      "ThereĠareĠsixĠyoungĠyellowĠ": 3900,
      "EsĠgibtĠsechsĠjungeĠgelbeĠ": 3901,
      "Ġì´Īë¡ĿìĥīĠê³°ìĿ´ĠëĬĻìĿĢ": 3902,
      "ĠíķĺìĸĢĠìĸĳìĿ´ĠëĬĻìĿĢ": 3903,
      "Ġê²ĢìĿĢĠë§ĲìĿ´ĠëĬĻìĿĢ": 3904,
      "Ġëħ¸ëŀĢĠìĹ¬ìļ°ë¥¼Ġë³¸ëĭ¤ëĬĶĠê²ĥìĿ´Ġëª¨ëĳĲĠìĤ¬ìĭ¤ìĿ´ëĭ¤.": 3905,
      "ĠìŀĳìĿĢĠì´Īë¡ĿìĥīĠê³łìĸĳìĿ´ê°Ģ": 3906,
      "Ġë¹¨ê°ĦĠìĸĳìĿ´Ġìĸ´ë¦°": 3907,
      "Ġíģ°Ġì´Īë¡ĿìĥīĠê³łìĸĳìĿ´ê°Ģ": 3908,
      "ĠëĬĻìĿĢĠì´Īë¡ĿìĥīĠê°ľê°Ģ": 3909,
      "ĠíķĺìĸĢĠìĸĳìĿ´Ġíģ°": 3910,
      "ĠíķĺìĸĢĠìĸĳìĿ´Ġìĸ´ë¦°": 3911,
      "smallĠblackĠlionĠandĠtheĠsmallĠblackĠ": 3912,
      "smallĠblueĠduckĠandĠtheĠsmallĠblueĠ": 3913,
      "youngĠblueĠsheepĠandĠtheĠyoungĠblueĠ": 3914,
      "oldĠgreenĠduckĠandĠtheĠoldĠgreenĠ": 3915,
      "smallĠblackĠfoxĠandĠtheĠsmallĠblackĠ": 3916,
      "smallĠredĠfoxĠandĠtheĠsmallĠredĠ": 3917,
      "youngĠwhiteĠsheepĠandĠtheĠyoungĠwhiteĠ": 3918,
      "Ġíģ°Ġë¹¨ê°Ħ": 3919,
      "íģ°Ġì´Īë¡ĿìĥīĠìĤ¬ìŀĲ": 3920,
      "Ŀ¼ê³±Ġë§Īë¦¬ìĻĢĠíģ°": 3921,
      "ĨĮê°ĢĠëĴ¤ëĶ°ë¥¸ëĭ¤ëĬĶĠê²ĥê³¼Ġìĸ´ë¦°": 3922,
      "ThereĠareĠfiveĠlargeĠblueĠ": 3923,
      "ThereĠareĠfiveĠsmallĠwhiteĠ": 3924,
      "EsĠgibtĠfÃ¼nfĠgroÃŁeĠblaueĠ": 3925,
      "EsĠgibtĠfÃ¼nfĠkleineĠweiÃŁeĠ": 3926,
      "ThereĠareĠsevenĠsmallĠwhiteĠ": 3927,
      "ThereĠareĠsevenĠyoungĠwhiteĠ": 3928,
      "ThereĠareĠsevenĠsmallĠredĠ": 3929,
      "EsĠgibtĠsiebenĠkleineĠweiÃŁeĠ": 3930,
      "EsĠgibtĠsiebenĠjungeĠweiÃŁeĠ": 3931,
      "EsĠgibtĠsiebenĠkleineĠroteĠ": 3932,
      "ThereĠareĠeightĠyoungĠredĠ": 3933,
      "ThereĠareĠeightĠoldĠyellowĠ": 3934,
      "ThereĠareĠeightĠoldĠblackĠ": 3935,
      "EsĠgibtĠachtĠalteĠgelbeĠ": 3936,
      "EsĠgibtĠachtĠjungeĠroteĠ": 3937,
      "EsĠgibtĠachtĠalteĠschwarzeĠ": 3938,
      "ThereĠareĠfourĠyoungĠredĠ": 3939,
      "ThereĠareĠfourĠoldĠblueĠ": 3940,
      "EsĠgibtĠvierĠalteĠblaueĠ": 3941,
      "EsĠgibtĠvierĠjungeĠroteĠ": 3942,
      "ThereĠareĠsixĠyoungĠredĠ": 3943,
      "ThereĠareĠsixĠsmallĠwhiteĠ": 3944,
      "ThereĠareĠsixĠsmallĠyellowĠ": 3945,
      "EsĠgibtĠsechsĠjungeĠroteĠ": 3946,
      "EsĠgibtĠsechsĠkleineĠweiÃŁeĠ": 3947,
      "EsĠgibtĠsechsĠkleineĠgelbeĠ": 3948,
      "Ġíģ°Ġë¹¨ê°ĦĠê³łìĸĳìĿ´ê°Ģ": 3949,
      "smallĠblackĠcatĠandĠtheĠsmallĠblackĠ": 3950,
      "largeĠblueĠbearĠandĠtheĠlargeĠblueĠ": 3951,
      "youngĠblackĠcatĠandĠtheĠyoungĠblackĠ": 3952,
      "smallĠwhiteĠbearĠandĠtheĠsmallĠwhiteĠ": 3953,
      "largeĠredĠcatĠandĠtheĠlargeĠredĠ": 3954,
      "youngĠyellowĠmouseĠandĠtheĠyoungĠyellowĠ": 3955,
      "youngĠblueĠhenĠandĠtheĠyoungĠblueĠ": 3956,
      "oldĠgreenĠcatĠandĠtheĠoldĠgreenĠ": 3957,
      "alteĠroteĠKaninchen.": 3958,
      "jungeĠschwarzeĠKaninchen.": 3959,
      "kleineĠweiÃŁeĠKaninchen.": 3960,
      "jungeĠgelbeĠKaninchen.": 3961,
      "groÃŁeĠroteĠKaninchen.": 3962,
      "jungeĠblaueĠKaninchen.": 3963,
      "ëĬĶĠíģ°Ġì´Īë¡ĿìĥīĠíĨłëģ¼": 3964,
      "ëĬĶĠíģ°ĠíķĺìĸĢĠìĨĮ": 3965,
      "ëĬĶĠíģ°Ġê²ĢìĿĢĠëĭŃ": 3966,
      "ëĬĶĠíģ°Ġì´Īë¡ĿìĥīĠìĸĳ": 3967,
      "ê°ĢĠìŀĳìĿĢĠëħ¸ëŀĢĠìĨĮë¥¼": 3968,
      "ê°ĢĠìĸ´ë¦°Ġëħ¸ëŀĢĠíĨłëģ¼ë¥¼": 3969,
      "ê°ĢĠìĸ´ë¦°Ġì´Īë¡ĿìĥīĠíĨłëģ¼ë¥¼": 3970,
      "ê°ĢĠìĸ´ë¦°ĠíķĺìĸĢĠëĭŃìĿĦ": 3971,
      "ê°ĢĠìĸ´ë¦°Ġì´Īë¡ĿìĥīĠê³łìĸĳìĿ´ë¥¼": 3972,
      "ê°ĢĠíģ°Ġê²ĢìĿĢĠìĤ¬ìŀĲë¥¼": 3973,
      "ê°ĢĠíģ°Ġê²ĢìĿĢĠê°ľë¥¼": 3974,
      "ê°ĢĠíģ°Ġë¹¨ê°ĦĠìĨĮë¥¼": 3975,
      "ê°ĢĠíģ°ĠíķĺìĸĢĠìĸĳìĿĦ": 3976,
      "ê°ĢĠëĬĻìĿĢĠë¹¨ê°ĦĠìĹ¬ìļ°ë¥¼": 3977,
      "ëĬĶĠëĬĻìĿĢĠëħ¸ëŀĢĠê³łìĸĳìĿ´": 3978,
      "ëĬĶĠëĬĻìĿĢĠíķĺìĸĢĠìĤ¬ìŀĲ": 3979,
      "ëĬĶĠìĸ´ë¦°Ġë¹¨ê°ĦĠìĨĮ": 3980,
      "ëĬĶĠìĸ´ë¦°Ġê²ĢìĿĢĠíĨłëģ¼": 3981,
      "ëĬĶĠìĸ´ë¦°Ġë¹¨ê°ĦĠìĤ¬ìŀĲ": 3982,
      "ëĬĶĠìŀĳìĿĢĠíķĺìĸĢĠìĺ¤ë¦¬": 3983,
      "ëĬĶĠìŀĳìĿĢĠë¹¨ê°ĦĠìĨĮ": 3984,
      "ëĬĶĠìŀĳìĿĢĠíĮĮëŀĢĠìĤ¬ìŀĲ": 3985,
      "ĠëĭŃìĿ´Ġë§ŀìĿ´íķľëĭ¤ëĬĶĠê²ĥê³¼Ġíģ°": 3986,
      "¥Ĳê°ĢĠë§ŀìĿ´íķľëĭ¤ëĬĶĠê²ĥê³¼ĠëĬĻìĿĢ": 3987,
      "¥Ĳê°ĢĠë³¸ëĭ¤ëĬĶĠê²ĥê³¼Ġíģ°": 3988,
      "ĺ¤ë¦¬ê°ĢĠë§ŀìĿ´íķľëĭ¤ëĬĶĠê²ĥê³¼Ġíģ°": 3989,
      "groÃŁenĠgrÃ¼nenĠKatze.": 3990,
      "ThereĠareĠfiveĠsmallĠblackĠ": 3991,
      "EsĠgibtĠfÃ¼nfĠkleineĠschwarzeĠ": 3992,
      "kleinenĠgelbenĠBÃ¤ren.": 3993,
      "altenĠgrÃ¼nenĠHuhn.": 3994,
      "ThereĠareĠsevenĠlargeĠblueĠ": 3995,
      "ThereĠareĠsevenĠyoungĠyellowĠ": 3996,
      "EsĠgibtĠsiebenĠgroÃŁeĠblaueĠ": 3997,
      "EsĠgibtĠsiebenĠjungeĠgelbeĠ": 3998,
      "jungenĠweiÃŁenĠLÃ¶wen.": 3999,
      "jungenĠweiÃŁenĠHund.": 4000,
      "ThereĠareĠfourĠoldĠblackĠ": 4001,
      "EsĠgibtĠvierĠalteĠschwarzeĠ": 4002,
      "ThereĠareĠtwoĠyoungĠgreenĠ": 4003,
      "EsĠgibtĠzweiĠjungeĠgrÃ¼neĠ": 4004,
      "Ġë¹¨ê°ĦĠê°ľê°ĢĠëĬĻìĿĢ": 4005,
      "KaninchenĠundĠdasĠkleineĠblaueĠ": 4006,
      "MausĠundĠdieĠgroÃŁeĠgelbeĠ": 4007,
      "Ġê²ĢìĿĢĠëĭŃìĿĦĠë§ŀìĿ´íķľëĭ¤ëĬĶĠê²ĥìĿ´Ġëª¨ëĳĲĠìĤ¬ìĭ¤ìĿ´ëĭ¤.": 4008,
      "youngĠblackĠsheepĠandĠtheĠyoungĠblackĠ": 4009,
      "largeĠgreenĠcowĠandĠtheĠlargeĠgreenĠ": 4010,
      "youngĠblueĠlionĠandĠtheĠyoungĠblueĠ": 4011,
      "youngĠredĠfoxĠandĠtheĠyoungĠredĠ": 4012,
      "smallĠgreenĠcowĠandĠtheĠsmallĠgreenĠ": 4013,
      "largeĠblueĠcowĠandĠtheĠlargeĠblueĠ": 4014,
      "smallĠblueĠfoxĠandĠtheĠsmallĠblueĠ": 4015,
      "oldĠblueĠhorseĠandĠtheĠoldĠblueĠ": 4016,
      "oldĠredĠrabbitĠandĠtheĠoldĠredĠ": 4017,
      "Ġíģ°Ġëħ¸ëŀĢĠê³°": 4018,
      "ĠëĬĻìĿĢĠëħ¸ëŀĢ": 4019,
      "ĠëĬĻìĿĢĠíĮĮëŀĢĠëĭŃ": 4020,
      "ĠìŀĳìĿĢĠíĮĮëŀĢĠìĸĳ": 4021,
      "ĠìŀĳìĿĢĠì´Īë¡ĿìĥīĠê³°": 4022,
      "ëĬĻìĿĢĠì´Īë¡ĿìĥīĠìĤ¬ìŀĲ": 4023,
      "Ĥ¬ìŀĲê°ĢĠëĴ¤ëĶ°ë¥¸ëĭ¤ëĬĶĠê²ĥê³¼Ġíģ°": 4024,
      "¥Ĳê°ĢĠëĴ¤ëĶ°ë¥¸ëĭ¤ëĬĶĠê²ĥê³¼Ġíģ°": 4025,
      "¥Ĳê°ĢĠë³¸ëĭ¤ëĬĶĠê²ĥê³¼ĠìŀĳìĿĢ": 4026,
      "ĨĮê°ĢĠë§ŀìĿ´íķľëĭ¤ëĬĶĠê²ĥê³¼ĠìŀĳìĿĢ": 4027,
      "EsĠgibtĠdreiĠgroÃŁeĠgelbeĠ": 4028,
      "EsĠgibtĠdreiĠalteĠgelbeĠ": 4029,
      "EsĠgibtĠdreiĠgroÃŁeĠgrÃ¼neĠ": 4030,
      "ThereĠareĠthreeĠlargeĠyellowĠ": 4031,
      "ThereĠareĠthreeĠoldĠyellowĠ": 4032,
      "ThereĠareĠthreeĠlargeĠgreenĠ": 4033,
      "ThereĠareĠsevenĠyoungĠblueĠ": 4034,
      "EsĠgibtĠsiebenĠjungeĠblaueĠ": 4035,
      "ThereĠareĠeightĠyoungĠgreenĠ": 4036,
      "EsĠgibtĠachtĠjungeĠgrÃ¼neĠ": 4037,
      "ThereĠareĠtwoĠoldĠredĠ": 4038,
      "ThereĠareĠtwoĠyoungĠyellowĠ": 4039,
      "EsĠgibtĠzweiĠalteĠroteĠ": 4040,
      "EsĠgibtĠzweiĠjungeĠgelbeĠ": 4041,
      "Ġíģ°ĠíĮĮëŀĢĠë§Ĳ": 4042,
      "Ġíģ°ĠíĮĮëŀĢĠíĨłëģ¼ê°Ģ": 4043,
      "Ġë¹¨ê°ĦĠê³°ìĿ´Ġìĸ´ë¦°": 4044,
      "ĠëĬĻìĿĢĠíĮĮëŀĢĠê³°": 4045,
      "ĠëĬĻìĿĢĠë¹¨ê°ĦĠìĸĳ": 4046,
      "ĠëĬĻìĿĢĠë¹¨ê°ĦĠíĨłëģ¼ê°Ģ": 4047,
      "ĠìŀĳìĿĢĠëħ¸ëŀĢĠê³°": 4048,
      "Ġìĸ´ë¦°ĠíķĺìĸĢĠëĭŃ": 4049,
      "ìŀĳìĿĢĠëħ¸ëŀĢĠìĸĳìĿĦ": 4050,
      "ëĬĻìĿĢĠíĮĮëŀĢĠê³°ìĿĦ": 4051,
      "íģ°ĠíĮĮëŀĢĠë§ĲìĿĦ": 4052,
      "ìĸ´ë¦°Ġê²ĢìĿĢĠìĺ¤ë¦¬ë¥¼": 4053,
      "ìĸ´ë¦°Ġì´Īë¡ĿìĥīĠìĹ¬ìļ°ë¥¼": 4054,
      "ìĸ´ë¦°ĠíķĺìĸĢĠë§ĲìĿĦ": 4055,
      "largeĠgreenĠbearĠandĠtheĠlargeĠgreenĠ": 4056,
      "smallĠredĠbearĠandĠtheĠsmallĠredĠ": 4057,
      "oldĠblackĠdogĠandĠtheĠoldĠblackĠ": 4058,
      "kleineĠschwarzeĠKaninchen.": 4059,
      "jungeĠweiÃŁeĠKaninchen.": 4060,
      "ëĬĶĠíģ°ĠíķĺìĸĢĠìĺ¤ë¦¬": 4061,
      "ëĬĶĠíģ°ĠíĮĮëŀĢĠìĨĮ": 4062,
      "ëĬĶĠíģ°ĠíĮĮëŀĢĠìĸĳ": 4063,
      "ëĬĶĠíģ°ĠíķĺìĸĢĠê³°": 4064,
      "ê°ĢĠìŀĳìĿĢĠì´Īë¡ĿìĥīĠìĹ¬ìļ°ë¥¼": 4065,
      "ê°ĢĠìĸ´ë¦°Ġë¹¨ê°ĦĠëĭŃìĿĦ": 4066,
      "ê°ĢĠìĸ´ë¦°Ġê²ĢìĿĢĠìĹ¬ìļ°ë¥¼": 4067,
      "ê°ĢĠìĸ´ë¦°ĠíķĺìĸĢĠê³łìĸĳìĿ´ë¥¼": 4068,
      "ê°ĢĠíģ°ĠíķĺìĸĢĠìĺ¤ë¦¬ë¥¼": 4069,
      "ê°ĢĠëĬĻìĿĢĠíĮĮëŀĢĠìĤ¬ìŀĲë¥¼": 4070,
      "ê°ĢĠëĬĻìĿĢĠë¹¨ê°ĦĠìĸĳìĿĦ": 4071,
      "ê°ĢĠëĬĻìĿĢĠíķĺìĸĢĠê³°ìĿĦ": 4072,
      "ëĬĶĠëĬĻìĿĢĠíķĺìĸĢĠìĨĮ": 4073,
      "ëĬĶĠìŀĳìĿĢĠê²ĢìĿĢĠê³°": 4074,
      "Ĺ¬ìĦ¯Ġë§Īë¦¬ìĻĢĠìĸ´ë¦°": 4075,
      "Ĥ¬ìŀĲê°ĢĠë§ŀìĿ´íķľëĭ¤ëĬĶĠê²ĥê³¼Ġíģ°": 4076,
      "¥Ĳê°ĢĠë³¸ëĭ¤ëĬĶĠê²ĥê³¼ĠëĬĻìĿĢ": 4077,
      "¥Ĳê°ĢĠëĴ¤ëĶ°ë¥¸ëĭ¤ëĬĶĠê²ĥê³¼ĠëĬĻìĿĢ": 4078,
      "groÃŁenĠblauenĠPferd.": 4079,
      "jungenĠschwarzenĠFuchs.": 4080,
      "altenĠrotenĠFuchs.": 4081,
      "groÃŁenĠweiÃŁenĠPferd.": 4082,
      "groÃŁenĠgrÃ¼nenĠBÃ¤ren.": 4083,
      "kleinenĠblauenĠKuh.": 4084,
      "groÃŁenĠrotenĠBÃ¤ren.": 4085,
      "EsĠgibtĠdreiĠgroÃŁeĠblaueĠ": 4086,
      "ThereĠareĠthreeĠlargeĠblueĠ": 4087,
      "ThereĠareĠsevenĠsmallĠyellowĠ": 4088,
      "EsĠgibtĠsiebenĠkleineĠgelbeĠ": 4089,
      "ThereĠareĠeightĠsmallĠyellowĠ": 4090,
      "EsĠgibtĠachtĠkleineĠgelbeĠ": 4091,
      "ThereĠareĠtwoĠyoungĠwhiteĠ": 4092,
      "EsĠgibtĠzweiĠjungeĠweiÃŁeĠ": 4093,
      "ThereĠareĠsixĠlargeĠredĠ": 4094,
      "EsĠgibtĠsechsĠgroÃŁeĠroteĠ": 4095
    },
    "merges": [
      [
        "e",
        "Ġ"
      ],
      [
        "Ġ",
        "ì"
      ],
      [
        "ì",
        "Ŀ"
      ],
      [
        "n",
        "Ġ"
      ],
      [
        "Ġ",
        "ë"
      ],
      [
        "d",
        "Ġ"
      ],
      [
        "e",
        "nĠ"
      ],
      [
        "ĭ",
        "¤"
      ],
      [
        "s",
        "Ġ"
      ],
      [
        "h",
        "eĠ"
      ],
      [
        "u",
        "n"
      ],
      [
        "Ġ",
        "ê"
      ],
      [
        "g",
        "r"
      ],
      [
        "t",
        "Ġ"
      ],
      [
        "ìĿ",
        "Ģ"
      ],
      [
        "ë",
        "ĭ¤"
      ],
      [
        "ìĿ",
        "´"
      ],
      [
        "t",
        "heĠ"
      ],
      [
        "ë",
        "Ĭ"
      ],
      [
        "Ġê",
        "²"
      ],
      [
        "Ġ",
        "í"
      ],
      [
        "ëĬ",
        "Ķ"
      ],
      [
        "e",
        "r"
      ],
      [
        "l",
        "a"
      ],
      [
        "c",
        "h"
      ],
      [
        "a",
        "l"
      ],
      [
        "Ã",
        "Ł"
      ],
      [
        "t",
        "eĠ"
      ],
      [
        "un",
        "g"
      ],
      [
        "Ģ",
        "Ġì"
      ],
      [
        "ë",
        "¦"
      ],
      [
        "e",
        "i"
      ],
      [
        "¬",
        "ì"
      ],
      [
        "o",
        "l"
      ],
      [
        "ê",
        "°"
      ],
      [
        "ëĭ¤",
        "ëĬĶ"
      ],
      [
        "Ġê²",
        "ĥ"
      ],
      [
        "ëĭ¤ëĬĶ",
        "Ġê²ĥ"
      ],
      [
        "Ĳ",
        "Ġì"
      ],
      [
        "o",
        "w"
      ],
      [
        "a",
        "n"
      ],
      [
        "e",
        "l"
      ],
      [
        "ë",
        "ŀ"
      ],
      [
        "un",
        "dĠ"
      ],
      [
        "b",
        "la"
      ],
      [
        "Ġë",
        "§"
      ],
      [
        "a",
        "r"
      ],
      [
        "ì",
        "ĸ"
      ],
      [
        "Ã",
        "¼"
      ],
      [
        "ë",
        "¥"
      ],
      [
        "Ĥ",
        "¬ì"
      ],
      [
        "Ġ",
        "theĠ"
      ],
      [
        "o",
        "nĠ"
      ],
      [
        "er",
        "Ġ"
      ],
      [
        "i",
        "sĠ"
      ],
      [
        "ëĭ¤",
        "."
      ],
      [
        "an",
        "dĠ"
      ],
      [
        "u",
        "eĠ"
      ],
      [
        "n",
        "eĠ"
      ],
      [
        "ÃŁ",
        "eĠ"
      ],
      [
        "l",
        "ow"
      ],
      [
        "ìĿ´",
        "Ġë"
      ],
      [
        "ĳ",
        "ìĿĢ"
      ],
      [
        "e",
        "dĠ"
      ],
      [
        "gr",
        "e"
      ],
      [
        "gr",
        "Ã¼"
      ],
      [
        "g",
        "eĠ"
      ],
      [
        "r",
        "geĠ"
      ],
      [
        "ģ",
        "°"
      ],
      [
        "gr",
        "o"
      ],
      [
        "la",
        "rgeĠ"
      ],
      [
        "c",
        "k"
      ],
      [
        "k",
        "l"
      ],
      [
        "l",
        "Ġ"
      ],
      [
        "m",
        "al"
      ],
      [
        "s",
        "mal"
      ],
      [
        "ŀ",
        "ĳìĿĢ"
      ],
      [
        "kl",
        "ei"
      ],
      [
        "smal",
        "lĠ"
      ],
      [
        "j",
        "ung"
      ],
      [
        "o",
        "ung"
      ],
      [
        "y",
        "oung"
      ],
      [
        "´",
        "ë¦"
      ],
      [
        "young",
        "Ġ"
      ],
      [
        "´ë¦",
        "°"
      ],
      [
        "Ļ",
        "ìĿĢ"
      ],
      [
        "ol",
        "dĠ"
      ],
      [
        "s",
        "e"
      ],
      [
        "onĠ",
        "d"
      ],
      [
        "v",
        "onĠd"
      ],
      [
        "ê",
        "³"
      ],
      [
        "undĠ",
        "d"
      ],
      [
        "ck",
        "Ġ"
      ],
      [
        "T",
        "heĠ"
      ],
      [
        "¨",
        "ë"
      ],
      [
        "ª",
        "¨ë"
      ],
      [
        "ĳ",
        "ĲĠì"
      ],
      [
        "ŀ",
        "Ī"
      ],
      [
        "ĭ¤",
        "ìĿ´"
      ],
      [
        "ëĭ¤ëĬĶĠê²ĥ",
        "ìĿ´Ġë"
      ],
      [
        "ëĭ¤ëĬĶĠê²ĥ",
        "ê³"
      ],
      [
        "Ĥ¬ì",
        "ĭ¤ìĿ´"
      ],
      [
        "andĠ",
        "theĠ"
      ],
      [
        "ª¨ë",
        "ĳĲĠì"
      ],
      [
        "ëĭ¤ëĬĶĠê²ĥìĿ´Ġë",
        "ª¨ëĳĲĠì"
      ],
      [
        "ëĭ¤ëĬĶĠê²ĥê³",
        "¼"
      ],
      [
        "Ĥ¬ìĭ¤ìĿ´",
        "ëĭ¤."
      ],
      [
        "ëĭ¤ëĬĶĠê²ĥìĿ´Ġëª¨ëĳĲĠì",
        "Ĥ¬ìĭ¤ìĿ´ëĭ¤."
      ],
      [
        "h",
        "i"
      ],
      [
        "ë¥",
        "¼"
      ],
      [
        "a",
        "sĠ"
      ],
      [
        "e",
        "m"
      ],
      [
        "em",
        "Ġ"
      ],
      [
        "f",
        "ol"
      ],
      [
        "i",
        "eĠ"
      ],
      [
        "r",
        "o"
      ],
      [
        "ķ",
        "ĺ"
      ],
      [
        "w",
        "ei"
      ],
      [
        "Ġí",
        "ģ°"
      ],
      [
        "Ġì",
        "ĸ"
      ],
      [
        "Ĭ",
        "ĻìĿĢ"
      ],
      [
        "z",
        "eĠ"
      ],
      [
        "ëŀ",
        "Ģ"
      ],
      [
        "g",
        "el"
      ],
      [
        "y",
        "el"
      ],
      [
        "ħ",
        "¸"
      ],
      [
        "Ġë",
        "ħ¸"
      ],
      [
        "low",
        "Ġ"
      ],
      [
        "gel",
        "b"
      ],
      [
        "yel",
        "lowĠ"
      ],
      [
        "s",
        "ch"
      ],
      [
        "w",
        "ar"
      ],
      [
        "Ģ",
        "ìĿĢ"
      ],
      [
        "Ġê²",
        "ĢìĿĢ"
      ],
      [
        "bla",
        "ckĠ"
      ],
      [
        "sch",
        "war"
      ],
      [
        "b",
        "l"
      ],
      [
        "Į",
        "Į"
      ],
      [
        "Ġí",
        "ĮĮ"
      ],
      [
        "bl",
        "ueĠ"
      ],
      [
        "ëŀ",
        "ĢĠì"
      ],
      [
        "gro",
        "ÃŁeĠ"
      ],
      [
        "klei",
        "neĠ"
      ],
      [
        "jung",
        "eĠ"
      ],
      [
        "r",
        "edĠ"
      ],
      [
        "¨",
        "ê°"
      ],
      [
        "¹",
        "¨ê°"
      ],
      [
        "Ġë",
        "¹¨ê°"
      ],
      [
        "Ġë¹¨ê°",
        "Ħ"
      ],
      [
        "al",
        "teĠ"
      ],
      [
        "¡",
        "Ŀ"
      ],
      [
        "´",
        "Ī"
      ],
      [
        "ë",
        "¡Ŀ"
      ],
      [
        "ì",
        "ĥ"
      ],
      [
        "Ġì",
        "´Ī"
      ],
      [
        "gre",
        "enĠ"
      ],
      [
        "ë¡Ŀ",
        "ìĥ"
      ],
      [
        "Ġì´Ī",
        "ë¡Ŀìĥ"
      ],
      [
        "Ġì´Īë¡Ŀìĥ",
        "ī"
      ],
      [
        "Ġë",
        "ĬĻìĿĢ"
      ],
      [
        "Ġê",
        "³"
      ],
      [
        "w",
        "hi"
      ],
      [
        "Ġí",
        "ķĺ"
      ],
      [
        "whi",
        "teĠ"
      ],
      [
        "Ġíķĺ",
        "ìĸ"
      ],
      [
        "vonĠd",
        "emĠ"
      ],
      [
        "tĠ",
        "d"
      ],
      [
        "ë¦",
        "¬"
      ],
      [
        "u",
        "h"
      ],
      [
        "t",
        "enĠ"
      ],
      [
        "ê°",
        "Ģ"
      ],
      [
        "b",
        "y"
      ],
      [
        "i",
        "r"
      ],
      [
        "i",
        "s"
      ],
      [
        "w",
        "ir"
      ],
      [
        "ì",
        "Ĺ"
      ],
      [
        "ìĿ",
        "ĺ"
      ],
      [
        "ĲĠì",
        "ŀĪ"
      ],
      [
        "Ġë§",
        "Ī"
      ],
      [
        "by",
        "ĠtheĠ"
      ],
      [
        "is",
        "tĠ"
      ],
      [
        "wir",
        "dĠ"
      ],
      [
        "ìĹ",
        "ĲĠìŀĪ"
      ],
      [
        "h",
        "e"
      ],
      [
        "ÃŁ",
        "enĠ"
      ],
      [
        "n",
        "enĠ"
      ],
      [
        "Ġì",
        "ŀĳìĿĢ"
      ],
      [
        "Ġìĸ",
        "´ë¦°"
      ],
      [
        "n",
        "."
      ],
      [
        "ê°",
        "ĢĠì"
      ],
      [
        "ìĿĺ",
        "Ġì"
      ],
      [
        "s",
        "eĠ"
      ],
      [
        "Ĵ",
        "¤"
      ],
      [
        "Ġ",
        "isĠ"
      ],
      [
        "gelb",
        "eĠ"
      ],
      [
        "schwar",
        "zeĠ"
      ],
      [
        "d",
        "o"
      ],
      [
        "a",
        "t"
      ],
      [
        "bla",
        "ueĠ"
      ],
      [
        "l",
        "i"
      ],
      [
        "ro",
        "teĠ"
      ],
      [
        "grÃ¼",
        "neĠ"
      ],
      [
        "wei",
        "ÃŁeĠ"
      ],
      [
        "sĠ",
        "theĠ"
      ],
      [
        "a",
        "b"
      ],
      [
        "o",
        "r"
      ],
      [
        "ĺ",
        "¤"
      ],
      [
        "b",
        "e"
      ],
      [
        "Ġë",
        "Ĵ¤"
      ],
      [
        "f",
        "o"
      ],
      [
        "Ĺ",
        "¬ì"
      ],
      [
        "ë¥",
        "¸"
      ],
      [
        "ŀ",
        "ìĿ´"
      ],
      [
        "Ġë§",
        "ŀìĿ´"
      ],
      [
        "gre",
        "e"
      ],
      [
        "grÃ¼",
        "ÃŁ"
      ],
      [
        "Ġë§ŀìĿ´",
        "í"
      ],
      [
        "edĠ",
        "byĠtheĠ"
      ],
      [
        "v",
        "er"
      ],
      [
        "ë",
        "Ķ"
      ],
      [
        "fol",
        "g"
      ],
      [
        "fol",
        "low"
      ],
      [
        "ver",
        "folg"
      ],
      [
        "ëĶ",
        "°"
      ],
      [
        "g",
        "e"
      ],
      [
        "ìĿ",
        "Ħ"
      ],
      [
        "Ã",
        "¤"
      ],
      [
        "ĳ",
        "ìĿ´"
      ],
      [
        "Ġ",
        "andĠtheĠ"
      ],
      [
        "s",
        "i"
      ],
      [
        "Ġëħ¸",
        "ëŀĢ"
      ],
      [
        "L",
        "Ã"
      ],
      [
        "¶",
        "w"
      ],
      [
        "Ĥ¬ì",
        "ŀ"
      ],
      [
        "LÃ",
        "¶w"
      ],
      [
        "°",
        "ľ"
      ],
      [
        "Ġê",
        "°ľ"
      ],
      [
        "do",
        "g"
      ],
      [
        "ĭ",
        "Ń"
      ],
      [
        "Ġë",
        "ĭŃ"
      ],
      [
        "gro",
        "ÃŁenĠ"
      ],
      [
        "ĠíĮĮ",
        "ëŀĢĠì"
      ],
      [
        "gree",
        "t"
      ],
      [
        "S",
        "ch"
      ],
      [
        "a",
        "f"
      ],
      [
        "e",
        "p"
      ],
      [
        "s",
        "he"
      ],
      [
        "Sch",
        "af"
      ],
      [
        "she",
        "ep"
      ],
      [
        "c",
        "ow"
      ],
      [
        "Ĩ",
        "Į"
      ],
      [
        "t",
        "."
      ],
      [
        "jung",
        "enĠ"
      ],
      [
        "ĠíĮĮ",
        "ëŀĢ"
      ],
      [
        "Ġëħ¸",
        "ëŀĢĠì"
      ],
      [
        "klei",
        "nenĠ"
      ],
      [
        "P",
        "f"
      ],
      [
        "h",
        "or"
      ],
      [
        "Pf",
        "er"
      ],
      [
        "K",
        "an"
      ],
      [
        "b",
        "i"
      ],
      [
        "i",
        "n"
      ],
      [
        "r",
        "ab"
      ],
      [
        "ë",
        "ģ"
      ],
      [
        "Ĩ",
        "ł"
      ],
      [
        "Ġí",
        "Ĩł"
      ],
      [
        "Kan",
        "in"
      ],
      [
        "rab",
        "bi"
      ],
      [
        "ëģ",
        "¼"
      ],
      [
        "ĠíĨł",
        "ëģ¼"
      ],
      [
        "Kanin",
        "ch"
      ],
      [
        "K",
        "at"
      ],
      [
        "ł",
        "ìĸ"
      ],
      [
        "Ġê³",
        "łìĸ"
      ],
      [
        "al",
        "tenĠ"
      ],
      [
        "E",
        "n"
      ],
      [
        "d",
        "u"
      ],
      [
        "ĺ¤",
        "ë¦¬"
      ],
      [
        "Ġíķĺìĸ",
        "ĢĠì"
      ],
      [
        "Ġíķĺìĸ",
        "Ģ"
      ],
      [
        "B",
        "Ã¤"
      ],
      [
        "Ġê³",
        "°"
      ],
      [
        "be",
        "ar"
      ],
      [
        "BÃ¤",
        "r"
      ],
      [
        "Ĥ¬ìŀ",
        "Ĳ"
      ],
      [
        "ĠëĴ¤",
        "ëĶ°"
      ],
      [
        "s",
        "."
      ],
      [
        "vonĠd",
        "erĠ"
      ],
      [
        "ļ",
        "°"
      ],
      [
        "fo",
        "x"
      ],
      [
        "Ĺ¬ì",
        "ļ°"
      ],
      [
        "h",
        "enĠ"
      ],
      [
        "Ġë",
        "³"
      ],
      [
        "¥",
        "Ĳ"
      ],
      [
        "ch",
        "sĠ"
      ],
      [
        "Ġê³łìĸ",
        "ĳìĿ´"
      ],
      [
        "Ġë§",
        "Ĳ"
      ],
      [
        "ch",
        "tĠ"
      ],
      [
        "H",
        "uh"
      ],
      [
        "K",
        "uh"
      ],
      [
        "undĠd",
        "asĠ"
      ],
      [
        "M",
        "a"
      ],
      [
        "m",
        "o"
      ],
      [
        "Ma",
        "u"
      ],
      [
        "mo",
        "u"
      ],
      [
        "ķ",
        "ľ"
      ],
      [
        "Ġë§ŀìĿ´í",
        "ķľ"
      ],
      [
        "ì",
        "ŀĳìĿĢ"
      ],
      [
        "f",
        "ĠtheĠ"
      ],
      [
        "o",
        "fĠtheĠ"
      ],
      [
        "tĠ",
        "ofĠtheĠ"
      ],
      [
        "ëĬ",
        "ĻìĿĢ"
      ],
      [
        "D",
        "erĠ"
      ],
      [
        "D",
        "ieĠ"
      ],
      [
        "E",
        "sĠ"
      ],
      [
        "T",
        "h"
      ],
      [
        "g",
        "i"
      ],
      [
        "n",
        "i"
      ],
      [
        "n",
        "o"
      ],
      [
        "§",
        "ĢĠì"
      ],
      [
        "ì",
        "§ĢĠì"
      ],
      [
        "í",
        "ģ°"
      ],
      [
        "Ĭ",
        "ëĬĶ"
      ],
      [
        "ķ",
        "ĬëĬĶ"
      ],
      [
        "eĠ",
        "ar"
      ],
      [
        "er",
        "eĠar"
      ],
      [
        "ë¦",
        "¬ì"
      ],
      [
        "ŀĪ",
        "ëĭ¤."
      ],
      [
        "ë¦¬",
        "ê°ĢĠì"
      ],
      [
        "Ġë§Ī",
        "ë¦¬ì"
      ],
      [
        "Ġë§Ī",
        "ë¦¬ê°ĢĠì"
      ],
      [
        "ìĹĲĠìŀĪ",
        "ëĭ¤ëĬĶĠê²ĥê³¼"
      ],
      [
        "ìĹĲĠìŀĪ",
        "ëĭ¤ëĬĶĠê²ĥìĿ´Ġëª¨ëĳĲĠìĤ¬ìĭ¤ìĿ´ëĭ¤."
      ],
      [
        "EsĠ",
        "gi"
      ],
      [
        "Th",
        "ereĠar"
      ],
      [
        "no",
        "tĠ"
      ],
      [
        "ì§ĢĠì",
        "ķĬëĬĶ"
      ],
      [
        "Ġë§Īë¦¬ì",
        "Ļ"
      ],
      [
        "Ġë§Īë¦¬ê°ĢĠì",
        "ŀĪëĭ¤."
      ],
      [
        "EsĠgi",
        "b"
      ],
      [
        "ThereĠar",
        "eĠ"
      ],
      [
        "wirdĠ",
        "vonĠdemĠ"
      ],
      [
        "Ġê²ĢìĿĢ",
        "Ġì"
      ],
      [
        "D",
        "asĠ"
      ],
      [
        "ìĸ",
        "´ë¦°"
      ],
      [
        "undĠd",
        "erĠ"
      ],
      [
        "undĠd",
        "ieĠ"
      ],
      [
        "Ġì´Īë¡Ŀìĥī",
        "Ġì"
      ],
      [
        "si",
        "e"
      ],
      [
        "Ġë¹¨ê°Ħ",
        "Ġì"
      ],
      [
        "F",
        "u"
      ],
      [
        "Kaninch",
        "enĠ"
      ],
      [
        "Huh",
        "nĠ"
      ],
      [
        "H",
        "undĠ"
      ],
      [
        "z",
        "enĠ"
      ],
      [
        "Mau",
        "sĠ"
      ],
      [
        "Kuh",
        "Ġ"
      ],
      [
        "Schaf",
        "Ġ"
      ],
      [
        "EsĠgib",
        "tĠ"
      ],
      [
        "En",
        "teĠ"
      ],
      [
        "e",
        "n."
      ],
      [
        "ĠëĴ¤ëĶ°",
        "ë¥¸"
      ],
      [
        "Kat",
        "zeĠ"
      ],
      [
        "Pfer",
        "dĠ"
      ],
      [
        "sĠ",
        "andĠ"
      ],
      [
        "Ġë³",
        "¸"
      ],
      [
        "Fu",
        "chsĠ"
      ],
      [
        "u",
        "enĠ"
      ],
      [
        "bla",
        "uenĠ"
      ],
      [
        "gelb",
        "enĠ"
      ],
      [
        "schwar",
        "zenĠ"
      ],
      [
        "ro",
        "tenĠ"
      ],
      [
        "wei",
        "ÃŁenĠ"
      ],
      [
        "grÃ¼",
        "nenĠ"
      ],
      [
        "mou",
        "seĠ"
      ],
      [
        "TheĠ",
        "smallĠ"
      ],
      [
        "ni",
        "chtĠ"
      ],
      [
        "TheĠ",
        "largeĠ"
      ],
      [
        "TheĠ",
        "oldĠ"
      ],
      [
        "TheĠ",
        "youngĠ"
      ],
      [
        "li",
        "onĠ"
      ],
      [
        "du",
        "ckĠ"
      ],
      [
        "c",
        "a"
      ],
      [
        "hor",
        "seĠ"
      ],
      [
        "rabbi",
        "tĠ"
      ],
      [
        "ca",
        "tĠ"
      ],
      [
        "o",
        "ĠtheĠ"
      ],
      [
        "t",
        "oĠtheĠ"
      ],
      [
        "ª",
        "½"
      ],
      [
        "ì",
        "ª½"
      ],
      [
        "b",
        "Ġ"
      ],
      [
        "h",
        "al"
      ],
      [
        "er",
        "hal"
      ],
      [
        "erhal",
        "bĠ"
      ],
      [
        "grÃ¼ÃŁ",
        "tĠd"
      ],
      [
        "ge",
        "grÃ¼ÃŁ"
      ],
      [
        "greet",
        "edĠbyĠtheĠ"
      ],
      [
        "follow",
        "edĠbyĠtheĠ"
      ],
      [
        "verfolg",
        "tĠd"
      ],
      [
        "´",
        "ì§ĢĠìķĬëĬĶ"
      ],
      [
        "se",
        "."
      ],
      [
        "h",
        "tĠd"
      ],
      [
        "enĠ",
        "byĠtheĠ"
      ],
      [
        "se",
        "enĠbyĠtheĠ"
      ],
      [
        "ìĿĺĠì",
        "ķ"
      ],
      [
        "ge",
        "se"
      ],
      [
        "sie",
        "htĠd"
      ],
      [
        "hi",
        "n"
      ],
      [
        "v",
        "eĠ"
      ],
      [
        "e",
        "."
      ],
      [
        "g",
        "h"
      ],
      [
        "r",
        "e"
      ],
      [
        "he",
        "n."
      ],
      [
        "ĸ",
        "´ë¦°"
      ],
      [
        "Ħ",
        "¯"
      ],
      [
        "LÃ¶w",
        "eĠ"
      ],
      [
        "Ġë§ŀìĿ´íķľ",
        "ëĭ¤ëĬĶĠê²ĥìĿ´Ġëª¨ëĳĲĠìĤ¬ìĭ¤ìĿ´ëĭ¤."
      ],
      [
        "ëĭ¤ëĬĶĠê²ĥê³¼",
        "ĠìŀĳìĿĢ"
      ],
      [
        "Ġë§Īë¦¬ìĻ",
        "Ģ"
      ],
      [
        "greet",
        "sĠtheĠ"
      ],
      [
        "follow",
        "sĠtheĠ"
      ],
      [
        "ëĭ¤ëĬĶĠê²ĥê³¼",
        "Ġíģ°"
      ],
      [
        "wirdĠ",
        "vonĠderĠ"
      ],
      [
        "e",
        "sĠ"
      ],
      [
        "ëĭ¤ëĬĶĠê²ĥê³¼",
        "Ġìĸ´ë¦°"
      ],
      [
        "wirdĠ",
        "nichtĠ"
      ],
      [
        "esĠ",
        "notĠ"
      ],
      [
        "Ġë§Īë¦¬ìĻ",
        "ĢĠì"
      ],
      [
        "ëĭ¤ëĬĶĠê²ĥê³¼",
        "ĠëĬĻìĿĢ"
      ],
      [
        "e",
        "sĠtheĠ"
      ],
      [
        "se",
        "esĠtheĠ"
      ],
      [
        "BÃ¤r",
        "Ġ"
      ],
      [
        "largeĠ",
        "yellowĠ"
      ],
      [
        "youngĠ",
        "redĠ"
      ],
      [
        "smallĠ",
        "blackĠ"
      ],
      [
        "oldĠ",
        "blueĠ"
      ],
      [
        "largeĠ",
        "blueĠ"
      ],
      [
        "oldĠ",
        "redĠ"
      ],
      [
        "oldĠ",
        "yellowĠ"
      ],
      [
        "youngĠ",
        "blackĠ"
      ],
      [
        "largeĠ",
        "blackĠ"
      ],
      [
        "smallĠ",
        "whiteĠ"
      ],
      [
        "smallĠ",
        "greenĠ"
      ],
      [
        "youngĠ",
        "greenĠ"
      ],
      [
        "largeĠ",
        "greenĠ"
      ],
      [
        "smallĠ",
        "blueĠ"
      ],
      [
        "smallĠ",
        "yellowĠ"
      ],
      [
        "LÃ¶w",
        "enĠ"
      ],
      [
        "erhalbĠ",
        "vonĠdemĠ"
      ],
      [
        "sĠ",
        "vonĠdemĠ"
      ],
      [
        "largeĠ",
        "redĠ"
      ],
      [
        "largeĠ",
        "whiteĠ"
      ],
      [
        "youngĠ",
        "whiteĠ"
      ],
      [
        "youngĠ",
        "yellowĠ"
      ],
      [
        "youngĠ",
        "blueĠ"
      ],
      [
        "oldĠ",
        "greenĠ"
      ],
      [
        "d",
        "emĠ"
      ],
      [
        "smallĠ",
        "redĠ"
      ],
      [
        "oldĠ",
        "blackĠ"
      ],
      [
        "oldĠ",
        "whiteĠ"
      ],
      [
        "BÃ¤r",
        "enĠ"
      ],
      [
        "li",
        "o"
      ],
      [
        "c",
        "at"
      ],
      [
        "Ġìĸ",
        "ĳ"
      ],
      [
        "Ġë³¸",
        "ëĭ¤ëĬĶĠê²ĥìĿ´Ġëª¨ëĳĲĠìĤ¬ìĭ¤ìĿ´ëĭ¤."
      ],
      [
        "groÃŁeĠ",
        "gelbeĠ"
      ],
      [
        "ĠëĴ¤ëĶ°ë¥¸",
        "ëĭ¤ëĬĶĠê²ĥìĿ´Ġëª¨ëĳĲĠìĤ¬ìĭ¤ìĿ´ëĭ¤."
      ],
      [
        "kleineĠ",
        "schwarzeĠ"
      ],
      [
        "du",
        "ck"
      ],
      [
        "alteĠ",
        "blaueĠ"
      ],
      [
        "ĸ",
        "ĳ"
      ],
      [
        "alteĠ",
        "gelbeĠ"
      ],
      [
        "jungeĠ",
        "roteĠ"
      ],
      [
        "alteĠ",
        "roteĠ"
      ],
      [
        "groÃŁeĠ",
        "blaueĠ"
      ],
      [
        "groÃŁeĠ",
        "schwarzeĠ"
      ],
      [
        "jungeĠ",
        "schwarzeĠ"
      ],
      [
        "kleineĠ",
        "weiÃŁeĠ"
      ],
      [
        "kleineĠ",
        "gelbeĠ"
      ],
      [
        "jungeĠ",
        "grÃ¼neĠ"
      ],
      [
        "kleineĠ",
        "blaueĠ"
      ],
      [
        "isĠ",
        "toĠtheĠ"
      ],
      [
        "kleineĠ",
        "grÃ¼neĠ"
      ],
      [
        "groÃŁeĠ",
        "grÃ¼neĠ"
      ],
      [
        "jungeĠ",
        "weiÃŁeĠ"
      ],
      [
        "jungeĠ",
        "gelbeĠ"
      ],
      [
        "groÃŁeĠ",
        "roteĠ"
      ],
      [
        "groÃŁeĠ",
        "weiÃŁeĠ"
      ],
      [
        "alteĠ",
        "schwarzeĠ"
      ],
      [
        "alteĠ",
        "grÃ¼neĠ"
      ],
      [
        "do",
        "esĠnotĠ"
      ],
      [
        "jungeĠ",
        "blaueĠ"
      ],
      [
        "kleineĠ",
        "roteĠ"
      ],
      [
        "alteĠ",
        "weiÃŁeĠ"
      ],
      [
        "Ĥ¬ìŀĲ",
        "ë¥¼"
      ],
      [
        "ëĬĶ",
        "Ġíģ°"
      ],
      [
        "Ġê°ľ",
        "ë¥¼"
      ],
      [
        "ĠëĭŃ",
        "ìĿĦ"
      ],
      [
        "cow",
        "ĠisĠ"
      ],
      [
        "¥Ĳ",
        "ë¥¼"
      ],
      [
        "e",
        "f"
      ],
      [
        "i",
        "gh"
      ],
      [
        "l",
        "ef"
      ],
      [
        "n",
        "k"
      ],
      [
        "r",
        "igh"
      ],
      [
        "¼",
        "ìª½"
      ],
      [
        "Ļ",
        "¼ìª½"
      ],
      [
        "ch",
        "t"
      ],
      [
        "istĠ",
        "li"
      ],
      [
        "istĠ",
        "re"
      ],
      [
        "ìĿĺĠì",
        "ĺ¤"
      ],
      [
        "ìĿĺĠì",
        "Ļ¼ìª½"
      ],
      [
        "ë¥¸",
        "ìª½"
      ],
      [
        "sheep",
        "ĠisĠ"
      ],
      [
        "lef",
        "tĠofĠtheĠ"
      ],
      [
        "righ",
        "tĠofĠtheĠ"
      ],
      [
        "istĠli",
        "nk"
      ],
      [
        "istĠre",
        "cht"
      ],
      [
        "ìĿĺĠìĺ¤",
        "ë¥¸ìª½"
      ],
      [
        "ê°ĢĠì",
        "ŀĳìĿĢ"
      ],
      [
        "dog",
        "ĠisĠ"
      ],
      [
        "H",
        "un"
      ],
      [
        "Hun",
        "d"
      ],
      [
        "ê°ĢĠì",
        "ĸ´ë¦°"
      ],
      [
        "sheep",
        "."
      ],
      [
        "b",
        "el"
      ],
      [
        "o",
        "b"
      ],
      [
        "o",
        "veĠ"
      ],
      [
        "Ħ",
        "ëŀ"
      ],
      [
        "ľ",
        "Ħ"
      ],
      [
        "un",
        "t"
      ],
      [
        "ow",
        "ĠtheĠ"
      ],
      [
        "istĠ",
        "ob"
      ],
      [
        "istĠ",
        "unt"
      ],
      [
        "ìĿĺĠì",
        "ľĦ"
      ],
      [
        "ab",
        "oveĠ"
      ],
      [
        "ìĿĺĠìķ",
        "Ħëŀ"
      ],
      [
        "bel",
        "owĠtheĠ"
      ],
      [
        "aboveĠ",
        "theĠ"
      ],
      [
        "ìĿĺĠìķĦëŀ",
        "ĺ"
      ],
      [
        "ĺ¤ë¦¬",
        "ë¥¼"
      ],
      [
        "gegrÃ¼ÃŁ",
        "tĠ"
      ],
      [
        "gegrÃ¼ÃŁ",
        "t."
      ],
      [
        "ê°Ģ",
        "Ġíģ°"
      ],
      [
        "ĨĮ",
        "ë¥¼"
      ],
      [
        "verfolg",
        "tĠ"
      ],
      [
        "verfolg",
        "t."
      ],
      [
        "wirdĠnichtĠ",
        "vonĠdemĠ"
      ],
      [
        "ķĺ",
        "ì§ĢĠìķĬëĬĶ"
      ],
      [
        "Ġë§ŀìĿ´í",
        "ķĺì§ĢĠìķĬëĬĶ"
      ],
      [
        "ĠíĨłëģ¼",
        "ë¥¼"
      ],
      [
        "´ì§ĢĠìķĬëĬĶ",
        "ëĭ¤ëĬĶĠê²ĥìĿ´Ġëª¨ëĳĲĠìĤ¬ìĭ¤ìĿ´ëĭ¤."
      ],
      [
        "gese",
        "henĠ"
      ],
      [
        "gese",
        "hen."
      ],
      [
        "ê°Ģ",
        "ĠëĬĻìĿĢ"
      ],
      [
        "ëĬĶ",
        "ĠëĬĻìĿĢ"
      ],
      [
        "bear",
        "ĠisĠ"
      ],
      [
        "f",
        "ro"
      ],
      [
        "i",
        "nĠ"
      ],
      [
        "n",
        "tĠofĠtheĠ"
      ],
      [
        "t",
        "erĠ"
      ],
      [
        "v",
        "or"
      ],
      [
        "dĠ",
        "theĠ"
      ],
      [
        "ìĿĺ",
        "ĠëĴ¤"
      ],
      [
        "istĠ",
        "hin"
      ],
      [
        "istĠ",
        "vor"
      ],
      [
        "be",
        "hin"
      ],
      [
        "ìĿĺĠìķ",
        "ŀ"
      ],
      [
        "fro",
        "ntĠofĠtheĠ"
      ],
      [
        "inĠ",
        "frontĠofĠtheĠ"
      ],
      [
        "istĠhin",
        "terĠ"
      ],
      [
        "istĠvor",
        "Ġ"
      ],
      [
        "behin",
        "dĠtheĠ"
      ],
      [
        "Pfer",
        "d"
      ],
      [
        "Ġê³łìĸĳìĿ´",
        "ë¥¼"
      ],
      [
        "Ġê³°",
        "ìĿĦ"
      ],
      [
        "ëĬĶ",
        "Ġìĸ´ë¦°"
      ],
      [
        "ëĬĶ",
        "ĠìŀĳìĿĢ"
      ],
      [
        "Ġë§Ĳ",
        "ìĿĦ"
      ],
      [
        "Ĺ¬ìļ°",
        "ë¥¼"
      ],
      [
        "fox",
        "ĠisĠ"
      ],
      [
        "b",
        "enĠ"
      ],
      [
        "f",
        "i"
      ],
      [
        "f",
        "Ġ"
      ],
      [
        "f",
        "Ã¼"
      ],
      [
        "n",
        "fĠ"
      ],
      [
        "v",
        "enĠ"
      ],
      [
        "¼",
        "ê³"
      ],
      [
        "ì",
        "Ħ¯"
      ],
      [
        "Ŀ",
        "¼ê³"
      ],
      [
        "ĭ¤",
        "ìĦ¯"
      ],
      [
        "isĠ",
        "greetedĠbyĠtheĠ"
      ],
      [
        "se",
        "venĠ"
      ],
      [
        "sie",
        "benĠ"
      ],
      [
        "fi",
        "veĠ"
      ],
      [
        "fÃ¼",
        "nfĠ"
      ],
      [
        "Ŀ¼ê³",
        "±"
      ],
      [
        "isĠ",
        "notĠ"
      ],
      [
        "isĠ",
        "followedĠbyĠtheĠ"
      ],
      [
        "i",
        "erĠ"
      ],
      [
        "r",
        "Ġ"
      ],
      [
        "u",
        "rĠ"
      ],
      [
        "v",
        "ierĠ"
      ],
      [
        "Ħ",
        "¤"
      ],
      [
        "fo",
        "urĠ"
      ],
      [
        "isĠ",
        "seenĠbyĠtheĠ"
      ],
      [
        "a",
        "chtĠ"
      ],
      [
        "¬",
        "ë"
      ],
      [
        "į",
        "Ł"
      ],
      [
        "Ĺ",
        "¬ë"
      ],
      [
        "ei",
        "gh"
      ],
      [
        "Ĺ¬ë",
        "įŁ"
      ],
      [
        "eigh",
        "tĠ"
      ],
      [
        "h",
        "re"
      ],
      [
        "r",
        "ei"
      ],
      [
        "t",
        "hre"
      ],
      [
        "Ħ",
        "¸"
      ],
      [
        "rei",
        "Ġ"
      ],
      [
        "thre",
        "eĠ"
      ],
      [
        "ĠëĴ¤ëĶ°",
        "ë¥"
      ],
      [
        "o",
        "Ġ"
      ],
      [
        "t",
        "w"
      ],
      [
        "z",
        "wei"
      ],
      [
        "ĳ",
        "Ĳ"
      ],
      [
        "tw",
        "oĠ"
      ],
      [
        "zwei",
        "Ġ"
      ],
      [
        "x",
        "Ġ"
      ],
      [
        "se",
        "chsĠ"
      ],
      [
        "Ĺ¬ì",
        "Ħ¯"
      ],
      [
        "si",
        "xĠ"
      ],
      [
        "Ġë",
        "Ħ¤"
      ],
      [
        "Ġë",
        "ĭ¤ìĦ¯"
      ],
      [
        "ìĹĲĠìŀĪëĭ¤ëĬĶĠê²ĥê³¼",
        "Ġíģ°"
      ],
      [
        "lionĠ",
        "andĠtheĠ"
      ],
      [
        "lio",
        "n."
      ],
      [
        "henĠ",
        "andĠtheĠ"
      ],
      [
        "dog",
        "."
      ],
      [
        "mouseĠ",
        "andĠtheĠ"
      ],
      [
        "wirdĠvonĠdemĠ",
        "kleinenĠ"
      ],
      [
        "cow",
        "."
      ],
      [
        "wirdĠvonĠdemĠ",
        "groÃŁenĠ"
      ],
      [
        "Ġë§Īë¦¬ìĻĢ",
        "ĠëĬĻìĿĢ"
      ],
      [
        "dog",
        "ĠandĠtheĠ"
      ],
      [
        "ìĹĲĠìŀĪëĭ¤ëĬĶĠê²ĥê³¼",
        "Ġìĸ´ë¦°"
      ],
      [
        "cow",
        "ĠandĠtheĠ"
      ],
      [
        "sheep",
        "ĠandĠtheĠ"
      ],
      [
        "Ġë§Īë¦¬ìĻĢ",
        "Ġíģ°"
      ],
      [
        "duckĠ",
        "andĠtheĠ"
      ],
      [
        "cat",
        "."
      ],
      [
        "ch",
        "t."
      ],
      [
        "rabbi",
        "t."
      ],
      [
        "ni",
        "cht."
      ],
      [
        "mou",
        "se."
      ],
      [
        "Ġë",
        "ĳĲ"
      ],
      [
        "sheep",
        "Ġ"
      ],
      [
        "hor",
        "se."
      ],
      [
        "Ġë§Īë¦¬ìĻĢĠì",
        "ĸ´ë¦°"
      ],
      [
        "Ġë§Īë¦¬ìĻĢĠì",
        "ŀĳìĿĢ"
      ],
      [
        "bear",
        "ĠandĠtheĠ"
      ],
      [
        "wirdĠvonĠdemĠ",
        "jungenĠ"
      ],
      [
        "rabbitĠ",
        "andĠtheĠ"
      ],
      [
        "ìĹĲĠìŀĪëĭ¤ëĬĶĠê²ĥê³¼",
        "ĠìŀĳìĿĢ"
      ],
      [
        "horseĠ",
        "andĠtheĠ"
      ],
      [
        "wirdĠvonĠdemĠ",
        "altenĠ"
      ],
      [
        "catĠ",
        "andĠtheĠ"
      ],
      [
        "bear",
        "."
      ],
      [
        "duck",
        "."
      ],
      [
        "ìĹĲĠìŀĪëĭ¤ëĬĶĠê²ĥê³¼",
        "ĠëĬĻìĿĢ"
      ],
      [
        "fox",
        "ĠandĠtheĠ"
      ],
      [
        "fox",
        "."
      ],
      [
        "Kat",
        "z"
      ],
      [
        "LÃ¶w",
        "en."
      ],
      [
        "istĠrecht",
        "sĠvonĠdemĠ"
      ],
      [
        "grÃ¼ÃŁtĠd",
        "ieĠ"
      ],
      [
        "istĠunt",
        "erhalbĠvonĠdemĠ"
      ],
      [
        "grÃ¼ÃŁtĠd",
        "asĠ"
      ],
      [
        "verfolgtĠd",
        "enĠ"
      ],
      [
        "siehtĠd",
        "enĠ"
      ],
      [
        "istĠob",
        "erhalbĠvonĠdemĠ"
      ],
      [
        "eĠ",
        "undĠ"
      ],
      [
        "sĠ",
        "vonĠderĠ"
      ],
      [
        "BÃ¤r",
        "en."
      ],
      [
        "istĠlink",
        "sĠvonĠdemĠ"
      ],
      [
        "verfolgtĠd",
        "ieĠ"
      ],
      [
        "ìĿ´Ġë",
        "Ĵ¤"
      ],
      [
        "ìĿ´ĠëĴ¤",
        "ëĶ°"
      ],
      [
        "Kaninch",
        "en."
      ],
      [
        "istĠvorĠ",
        "demĠ"
      ],
      [
        "siehtĠd",
        "asĠ"
      ],
      [
        "erhalbĠ",
        "vonĠderĠ"
      ],
      [
        "verfolgtĠd",
        "asĠ"
      ],
      [
        "ìĿ´Ġë",
        "³"
      ],
      [
        "Ġì",
        "Ħ¸"
      ],
      [
        "siehtĠd",
        "ieĠ"
      ],
      [
        "grÃ¼ÃŁtĠd",
        "enĠ"
      ],
      [
        "d",
        "erĠ"
      ],
      [
        "Ġì",
        "Ĺ¬ëįŁ"
      ],
      [
        "En",
        "t"
      ],
      [
        "Ġì",
        "Ŀ¼ê³±"
      ],
      [
        "istĠhinterĠ",
        "demĠ"
      ],
      [
        "isĠ",
        "aboveĠtheĠ"
      ],
      [
        "Ġì",
        "Ĺ¬ìĦ¯"
      ],
      [
        "isĠ",
        "belowĠtheĠ"
      ],
      [
        "isĠtoĠtheĠ",
        "rightĠofĠtheĠ"
      ],
      [
        "isĠ",
        "behindĠtheĠ"
      ],
      [
        "isĠ",
        "inĠfrontĠofĠtheĠ"
      ],
      [
        "isĠtoĠtheĠ",
        "leftĠofĠtheĠ"
      ],
      [
        "ĠëĭŃ",
        "ìĿ´"
      ],
      [
        "hor",
        "se"
      ],
      [
        "ĠëĭŃ",
        "ìĿĢ"
      ],
      [
        "Ġê³°",
        "ìĿ´"
      ],
      [
        "M",
        "Ã¤"
      ],
      [
        "i",
        "c"
      ],
      [
        "m",
        "ic"
      ],
      [
        "MÃ¤",
        "u"
      ],
      [
        "Ġë§Ĳ",
        "ìĿ´"
      ],
      [
        "Ĥ¬ìŀĲ",
        "ê°Ģ"
      ],
      [
        "Ġê°ľ",
        "ê°Ģ"
      ],
      [
        "dog",
        "Ġ"
      ],
      [
        "ìĿĺĠìķĦëŀĺ",
        "ìĹĲĠìŀĪëĭ¤ëĬĶĠê²ĥìĿ´Ġëª¨ëĳĲĠìĤ¬ìĭ¤ìĿ´ëĭ¤."
      ],
      [
        "¥Ĳ",
        "ê°Ģ"
      ],
      [
        "ìĿĺĠìĺ¤ë¥¸ìª½",
        "ìĹĲĠìŀĪëĭ¤ëĬĶĠê²ĥìĿ´Ġëª¨ëĳĲĠìĤ¬ìĭ¤ìĿ´ëĭ¤."
      ],
      [
        "Ġë§Ĳ",
        "ìĿĢ"
      ],
      [
        "ìĿĺĠëĴ¤",
        "ìĹĲĠìŀĪëĭ¤ëĬĶĠê²ĥìĿ´Ġëª¨ëĳĲĠìĤ¬ìĭ¤ìĿ´ëĭ¤."
      ],
      [
        "ìĿĺĠìĻ¼ìª½",
        "ìĹĲĠìŀĪëĭ¤ëĬĶĠê²ĥìĿ´Ġëª¨ëĳĲĠìĤ¬ìĭ¤ìĿ´ëĭ¤."
      ],
      [
        "eĠ",
        "theĠ"
      ],
      [
        "se",
        "eĠtheĠ"
      ],
      [
        "ĺ¤ë¦¬",
        "ê°Ģ"
      ],
      [
        "ĸĳ",
        "ìĿĦ"
      ],
      [
        "cow",
        "Ġ"
      ],
      [
        "ĨĮ",
        "ê°Ģ"
      ],
      [
        "Ġìĸĳ",
        "ìĿĦ"
      ],
      [
        "ìĿ´ĠëĴ¤ëĶ°",
        "ë¥¸"
      ],
      [
        "wirdĠnichtĠ",
        "vonĠderĠ"
      ],
      [
        "tĠ",
        "theĠ"
      ],
      [
        "gree",
        "tĠtheĠ"
      ],
      [
        "ĠíĨłëģ¼",
        "ê°Ģ"
      ],
      [
        "rabbi",
        "t"
      ],
      [
        "Ġë§ŀìĿ´íķĺì§ĢĠìķĬëĬĶ",
        "ëĭ¤ëĬĶĠê²ĥìĿ´Ġëª¨ëĳĲĠìĤ¬ìĭ¤ìĿ´ëĭ¤."
      ],
      [
        "ìĿĺĠìľĦ",
        "ìĹĲĠìŀĪëĭ¤ëĬĶĠê²ĥìĿ´Ġëª¨ëĳĲĠìĤ¬ìĭ¤ìĿ´ëĭ¤."
      ],
      [
        "Ġê³°",
        "ìĿĢ"
      ],
      [
        "follow",
        "ĠtheĠ"
      ],
      [
        "jungenĠ",
        "rotenĠ"
      ],
      [
        "ìĿ´Ġë",
        "ĬĻìĿĢ"
      ],
      [
        "ìĿ´Ġë³",
        "¸"
      ],
      [
        "lio",
        "n"
      ],
      [
        "Ġê³łìĸĳìĿ´",
        "ê°Ģ"
      ],
      [
        "F",
        "Ã¼"
      ],
      [
        "bear",
        "Ġ"
      ],
      [
        "fox",
        "e"
      ],
      [
        "FÃ¼",
        "ch"
      ],
      [
        "groÃŁenĠ",
        "blauenĠ"
      ],
      [
        "groÃŁenĠ",
        "gelbenĠ"
      ],
      [
        "jungenĠ",
        "schwarzenĠ"
      ],
      [
        "fox",
        "Ġ"
      ],
      [
        "Ĺ¬ìļ°",
        "ê°Ģ"
      ],
      [
        "H",
        "Ã¼"
      ],
      [
        "h",
        "n"
      ],
      [
        "he",
        "n"
      ],
      [
        "HÃ¼",
        "hn"
      ],
      [
        "ìĿĺĠìķŀ",
        "ìĹĲĠìŀĪëĭ¤ëĬĶĠê²ĥìĿ´Ġëª¨ëĳĲĠìĤ¬ìĭ¤ìĿ´ëĭ¤."
      ],
      [
        "kleinenĠ",
        "schwarzenĠ"
      ],
      [
        "altenĠ",
        "blauenĠ"
      ],
      [
        "K",
        "Ã¼"
      ],
      [
        "Huh",
        "n."
      ],
      [
        "altenĠ",
        "gelbenĠ"
      ],
      [
        "altenĠ",
        "rotenĠ"
      ],
      [
        "groÃŁenĠ",
        "weiÃŁenĠ"
      ],
      [
        "kleinenĠ",
        "weiÃŁenĠ"
      ],
      [
        "groÃŁenĠ",
        "grÃ¼nenĠ"
      ],
      [
        "Hund",
        "."
      ],
      [
        "groÃŁenĠ",
        "schwarzenĠ"
      ],
      [
        "Kuh",
        "."
      ],
      [
        "jungenĠ",
        "gelbenĠ"
      ],
      [
        "kleinenĠ",
        "grÃ¼nenĠ"
      ],
      [
        "altenĠ",
        "weiÃŁenĠ"
      ],
      [
        "kleinenĠ",
        "blauenĠ"
      ],
      [
        "Schaf",
        "."
      ],
      [
        "groÃŁenĠ",
        "rotenĠ"
      ],
      [
        "jungenĠ",
        "grÃ¼nenĠ"
      ],
      [
        "jungenĠ",
        "blauenĠ"
      ],
      [
        "ThereĠareĠ",
        "fiveĠ"
      ],
      [
        "EsĠgibtĠ",
        "fÃ¼nfĠ"
      ],
      [
        "Katz",
        "e."
      ],
      [
        "kleinenĠ",
        "gelbenĠ"
      ],
      [
        "tĠd",
        "reiĠ"
      ],
      [
        "EsĠgib",
        "tĠdreiĠ"
      ],
      [
        "ThereĠareĠ",
        "threeĠ"
      ],
      [
        "altenĠ",
        "grÃ¼nenĠ"
      ],
      [
        "kleinenĠ",
        "rotenĠ"
      ],
      [
        "ThereĠareĠ",
        "sevenĠ"
      ],
      [
        "EsĠgibtĠ",
        "siebenĠ"
      ],
      [
        "Pferd",
        "."
      ],
      [
        "toĠtheĠ",
        "leftĠofĠtheĠ"
      ],
      [
        "jungenĠ",
        "weiÃŁenĠ"
      ],
      [
        "ThereĠareĠ",
        "eightĠ"
      ],
      [
        "EsĠgibtĠ",
        "achtĠ"
      ],
      [
        "Mau",
        "s."
      ],
      [
        "seĠ",
        "undĠ"
      ],
      [
        "ThereĠareĠ",
        "fourĠ"
      ],
      [
        "EsĠgibtĠ",
        "vierĠ"
      ],
      [
        "altenĠ",
        "schwarzenĠ"
      ],
      [
        "toĠtheĠ",
        "rightĠofĠtheĠ"
      ],
      [
        "Ġë³",
        "´ì§ĢĠìķĬëĬĶ"
      ],
      [
        "Ġë³",
        "´ì§ĢĠìķĬëĬĶëĭ¤ëĬĶĠê²ĥìĿ´Ġëª¨ëĳĲĠìĤ¬ìĭ¤ìĿ´ëĭ¤."
      ],
      [
        "undĠd",
        "reiĠ"
      ],
      [
        "ĠëĴ¤ëĶ°ë¥",
        "´ì§ĢĠìķĬëĬĶëĭ¤ëĬĶĠê²ĥìĿ´Ġëª¨ëĳĲĠìĤ¬ìĭ¤ìĿ´ëĭ¤."
      ],
      [
        "ThereĠareĠ",
        "twoĠ"
      ],
      [
        "EsĠgibtĠ",
        "zweiĠ"
      ],
      [
        "ĠëĴ¤ëĶ°ë¥",
        "´ì§ĢĠìķĬëĬĶ"
      ],
      [
        "ch",
        "s."
      ],
      [
        "Fu",
        "chs."
      ],
      [
        "ĠëĦ¤",
        "Ġë§Īë¦¬ê°ĢĠìŀĪëĭ¤."
      ],
      [
        "Ġëĭ¤ìĦ¯",
        "Ġë§Īë¦¬ê°ĢĠìŀĪëĭ¤."
      ],
      [
        "TheĠlargeĠ",
        "yellowĠ"
      ],
      [
        "Ġë§ŀìĿ´íķľ",
        "ëĭ¤ëĬĶĠê²ĥê³¼Ġìĸ´ë¦°"
      ],
      [
        "TheĠsmallĠ",
        "blackĠ"
      ],
      [
        "ThereĠareĠ",
        "sixĠ"
      ],
      [
        "EsĠgibtĠ",
        "sechsĠ"
      ],
      [
        "TheĠyoungĠ",
        "blackĠ"
      ],
      [
        "TheĠoldĠ",
        "blueĠ"
      ],
      [
        "Ent",
        "e."
      ],
      [
        "TheĠoldĠ",
        "yellowĠ"
      ],
      [
        "TheĠsmallĠ",
        "whiteĠ"
      ],
      [
        "TheĠyoungĠ",
        "redĠ"
      ],
      [
        "TheĠlargeĠ",
        "blackĠ"
      ],
      [
        "o",
        "esĠnotĠ"
      ],
      [
        "TheĠlargeĠ",
        "blueĠ"
      ],
      [
        "TheĠyoungĠ",
        "yellowĠ"
      ],
      [
        "TheĠsmallĠ",
        "blueĠ"
      ],
      [
        "TheĠsmallĠ",
        "greenĠ"
      ],
      [
        "doesĠnotĠ",
        "greetĠtheĠ"
      ],
      [
        "sĠandĠ",
        "sevenĠ"
      ],
      [
        "TheĠyoungĠ",
        "greenĠ"
      ],
      [
        "doesĠnotĠ",
        "followĠtheĠ"
      ],
      [
        "sĠandĠ",
        "fiveĠ"
      ],
      [
        "doesĠnotĠ",
        "seeĠtheĠ"
      ],
      [
        "Ġë¹¨ê°Ħ",
        "Ġê°ľ"
      ],
      [
        "sĠandĠ",
        "fourĠ"
      ],
      [
        "TheĠsmallĠ",
        "yellowĠ"
      ],
      [
        "TheĠoldĠ",
        "whiteĠ"
      ],
      [
        "Ġë§ŀìĿ´íķľ",
        "ëĭ¤ëĬĶĠê²ĥê³¼ĠìŀĳìĿĢ"
      ],
      [
        "ĠëĳĲ",
        "Ġë§Īë¦¬ê°ĢĠìŀĪëĭ¤."
      ],
      [
        "Ġë§ŀìĿ´íķľ",
        "ëĭ¤ëĬĶĠê²ĥê³¼ĠëĬĻìĿĢ"
      ],
      [
        "TheĠoldĠ",
        "redĠ"
      ],
      [
        "TheĠlargeĠ",
        "whiteĠ"
      ],
      [
        "sĠandĠ",
        "eightĠ"
      ],
      [
        "Ġë§ŀìĿ´íķľ",
        "ëĭ¤ëĬĶĠê²ĥê³¼Ġíģ°"
      ],
      [
        "TheĠoldĠ",
        "greenĠ"
      ],
      [
        "TheĠlargeĠ",
        "greenĠ"
      ],
      [
        "TheĠoldĠ",
        "blackĠ"
      ],
      [
        "TheĠyoungĠ",
        "whiteĠ"
      ],
      [
        "TheĠlargeĠ",
        "redĠ"
      ],
      [
        "TheĠsmallĠ",
        "redĠ"
      ],
      [
        "ĠíķĺìĸĢ",
        "Ġê°ľ"
      ],
      [
        "Ġëħ¸ëŀĢ",
        "Ġê°ľ"
      ],
      [
        "Ġëħ¸ëŀĢ",
        "ĠíĨłëģ¼"
      ],
      [
        "sĠandĠ",
        "threeĠ"
      ],
      [
        "TheĠyoungĠ",
        "blueĠ"
      ],
      [
        "Ġëħ¸ëŀĢĠì",
        "ĨĮ"
      ],
      [
        "istĠlink",
        "sĠvonĠderĠ"
      ],
      [
        "ĠíķĺìĸĢĠì",
        "ĺ¤ë¦¬"
      ],
      [
        "ĠíĮĮëŀĢĠì",
        "ĨĮ"
      ],
      [
        "gegrÃ¼ÃŁtĠ",
        "undĠdasĠ"
      ],
      [
        "sĠandĠ",
        "sixĠ"
      ],
      [
        "Ġì´Īë¡ĿìĥīĠì",
        "Ĺ¬ìļ°"
      ],
      [
        "gesehenĠ",
        "undĠdieĠ"
      ],
      [
        "Ġê²ĢìĿĢĠì",
        "ĨĮ"
      ],
      [
        "Ġë¹¨ê°Ħ",
        "ĠíĨłëģ¼"
      ],
      [
        "ĠíĮĮëŀĢ",
        "Ġê°ľ"
      ],
      [
        "Ġë¹¨ê°ĦĠì",
        "ĺ¤ë¦¬"
      ],
      [
        "gegrÃ¼ÃŁtĠ",
        "undĠderĠ"
      ],
      [
        "verfolgtĠ",
        "undĠderĠ"
      ],
      [
        "ĠìĿ¼ê³±",
        "Ġë§Īë¦¬ê°ĢĠìŀĪëĭ¤."
      ],
      [
        "ĠëĴ¤ëĶ°ë¥¸",
        "ëĭ¤ëĬĶĠê²ĥê³¼Ġíģ°"
      ],
      [
        "Ġì´Īë¡Ŀìĥī",
        "ĠíĨłëģ¼"
      ],
      [
        "ĠíķĺìĸĢĠì",
        "ĨĮ"
      ],
      [
        "verfolgtĠ",
        "undĠdieĠ"
      ],
      [
        "Ġë¹¨ê°ĦĠì",
        "ĨĮ"
      ],
      [
        "sĠandĠ",
        "twoĠ"
      ],
      [
        "istĠhinterĠ",
        "derĠ"
      ],
      [
        "verfolgtĠ",
        "undĠdasĠ"
      ],
      [
        "istĠob",
        "erhalbĠvonĠderĠ"
      ],
      [
        "ĠíķĺìĸĢ",
        "ĠíĨłëģ¼"
      ],
      [
        "istĠrecht",
        "sĠvonĠderĠ"
      ],
      [
        "gesehenĠ",
        "undĠderĠ"
      ],
      [
        "ĠíĮĮëŀĢĠì",
        "ĺ¤ë¦¬"
      ],
      [
        "gegrÃ¼ÃŁtĠ",
        "undĠdieĠ"
      ],
      [
        "ĠíĮĮëŀĢĠì",
        "Ĺ¬ìļ°"
      ],
      [
        "Ġê²ĢìĿĢ",
        "Ġê°ľ"
      ],
      [
        "istĠunt",
        "erhalbĠvonĠderĠ"
      ],
      [
        "gesehenĠ",
        "undĠdasĠ"
      ],
      [
        "ĠëĴ¤ëĶ°ë¥¸",
        "ëĭ¤ëĬĶĠê²ĥê³¼Ġìĸ´ë¦°"
      ],
      [
        "ĠìĹ¬ëįŁ",
        "Ġë§Īë¦¬ê°ĢĠìŀĪëĭ¤."
      ],
      [
        "Ġëħ¸ëŀĢĠì",
        "ĺ¤ë¦¬"
      ],
      [
        "Ġëħ¸ëŀĢĠì",
        "Ĺ¬ìļ°"
      ],
      [
        "Ġë³¸",
        "ëĭ¤ëĬĶĠê²ĥê³¼ĠìŀĳìĿĢ"
      ],
      [
        "Ġê²ĢìĿĢĠì",
        "ĺ¤ë¦¬"
      ],
      [
        "istĠvorĠ",
        "derĠ"
      ],
      [
        "Ġì´Īë¡ĿìĥīĠì",
        "ĨĮ"
      ],
      [
        "Ġì´Īë¡Ŀìĥī",
        "Ġê°ľ"
      ],
      [
        "ĠíĮĮëŀĢ",
        "ĠíĨłëģ¼"
      ],
      [
        "ĠëĴ¤ëĶ°ë¥¸",
        "ëĭ¤ëĬĶĠê²ĥê³¼ĠìŀĳìĿĢ"
      ],
      [
        "ĠìĦ¸",
        "Ġë§Īë¦¬ê°ĢĠìŀĪëĭ¤."
      ],
      [
        "Ġëħ¸ëŀĢĠì",
        "Ĥ¬ìŀĲ"
      ],
      [
        "Ġëħ¸ëŀĢ",
        "Ġê³łìĸĳìĿ´"
      ],
      [
        "Ġê²ĢìĿĢ",
        "ĠíĨłëģ¼"
      ],
      [
        "ĠíĮĮëŀĢĠì",
        "Ĥ¬ìŀĲ"
      ],
      [
        "Ġë³¸",
        "ëĭ¤ëĬĶĠê²ĥê³¼ĠëĬĻìĿĢ"
      ],
      [
        "Ġê²ĢìĿĢĠì",
        "Ĺ¬ìļ°"
      ],
      [
        "Ġë¹¨ê°ĦĠì",
        "Ĥ¬ìŀĲ"
      ],
      [
        "Ġë³¸",
        "ëĭ¤ëĬĶĠê²ĥê³¼Ġíģ°"
      ],
      [
        "Ġë¹¨ê°Ħ",
        "Ġê³łìĸĳìĿ´"
      ],
      [
        "ĠëĴ¤ëĶ°ë¥¸",
        "ëĭ¤ëĬĶĠê²ĥê³¼ĠëĬĻìĿĢ"
      ],
      [
        "Ġë¹¨ê°ĦĠì",
        "Ĺ¬ìļ°"
      ],
      [
        "¥",
        "ĲĠì"
      ],
      [
        "isĠnotĠ",
        "greetedĠbyĠtheĠ"
      ],
      [
        "Ġì´Īë¡Ŀìĥī",
        "Ġê³łìĸĳìĿ´"
      ],
      [
        "ĠìĹ¬ìĦ¯",
        "Ġë§Īë¦¬ê°ĢĠìŀĪëĭ¤."
      ],
      [
        "Ġë§",
        "ĲĠì"
      ],
      [
        "Ġì´Īë¡ĿìĥīĠì",
        "¥Ĳ"
      ],
      [
        "Ġê²ĢìĿĢ",
        "Ġê³łìĸĳìĿ´"
      ],
      [
        "Ġê²ĢìĿĢĠì",
        "Ĥ¬ìŀĲ"
      ],
      [
        "ĠíķĺìĸĢĠì",
        "Ĺ¬ìļ°"
      ],
      [
        "KaninchenĠ",
        "undĠdasĠ"
      ],
      [
        "ĠíĮĮëŀĢĠì",
        "¥Ĳ"
      ],
      [
        "LÃ¶wenĠ",
        "undĠderĠ"
      ],
      [
        "isĠnotĠ",
        "seenĠbyĠtheĠ"
      ],
      [
        "Ġë³¸",
        "ëĭ¤ëĬĶĠê²ĥê³¼Ġìĸ´ë¦°"
      ],
      [
        "Ġì´Īë¡ĿìĥīĠì",
        "ĺ¤ë¦¬"
      ],
      [
        "Ġê²ĢìĿĢĠì",
        "¥Ĳ"
      ],
      [
        "ĠíķĺìĸĢ",
        "Ġê³łìĸĳìĿ´"
      ],
      [
        "ĠíķĺìĸĢĠì",
        "¥Ĳ"
      ],
      [
        "HuhnĠ",
        "undĠdasĠ"
      ],
      [
        "Ġì´Īë¡ĿìĥīĠì",
        "Ĥ¬ìŀĲ"
      ],
      [
        "isĠnotĠ",
        "followedĠbyĠtheĠ"
      ],
      [
        "Ĥ¬ìŀ",
        "ĲĠì"
      ],
      [
        "EnteĠ",
        "undĠdieĠ"
      ],
      [
        "Ġëħ¸ëŀĢĠì",
        "¥Ĳ"
      ],
      [
        "ĠíķĺìĸĢĠì",
        "Ĥ¬ìŀĲ"
      ],
      [
        "ĠíĮĮëŀĢ",
        "Ġê³łìĸĳìĿ´"
      ],
      [
        "ĸ",
        "ĳìĿ´"
      ],
      [
        "dog",
        "s."
      ],
      [
        "Hund",
        "e."
      ],
      [
        "HundĠ",
        "undĠderĠ"
      ],
      [
        "MausĠ",
        "undĠdieĠ"
      ],
      [
        "Ġë¹¨ê°ĦĠì",
        "¥Ĳ"
      ],
      [
        "Ġìĸ",
        "ĳìĿ´"
      ],
      [
        "Pferd",
        "e."
      ],
      [
        "horse",
        "s."
      ],
      [
        "Ġê²ĢìĿĢ",
        "Ġìĸĳ"
      ],
      [
        "KuhĠ",
        "undĠdieĠ"
      ],
      [
        "PferdĠ",
        "undĠdasĠ"
      ],
      [
        "undĠ",
        "fÃ¼nfĠ"
      ],
      [
        "KatzeĠ",
        "undĠdieĠ"
      ],
      [
        "SchafĠ",
        "undĠdasĠ"
      ],
      [
        "FuchsĠ",
        "undĠderĠ"
      ],
      [
        "eĠ",
        "andĠ"
      ],
      [
        "mic",
        "e."
      ],
      [
        "mic",
        "eĠandĠ"
      ],
      [
        "MÃ¤u",
        "se."
      ],
      [
        "BÃ¤renĠ",
        "undĠderĠ"
      ],
      [
        "nichtĠ",
        "undĠdieĠ"
      ],
      [
        "ĠíķĺìĸĢ",
        "ĠëĭŃ"
      ],
      [
        "Ġìĸ",
        "ĳìĿĢ"
      ],
      [
        "ĸ",
        "ĳìĿĢ"
      ],
      [
        "ĠíĮĮëŀĢ",
        "Ġê³°"
      ],
      [
        "En",
        "tenĠ"
      ],
      [
        "duck",
        "s."
      ],
      [
        "Ent",
        "en."
      ],
      [
        "undĠ",
        "siebenĠ"
      ],
      [
        "undĠ",
        "vierĠ"
      ],
      [
        "ĠíĮĮëŀĢĠì",
        "ĸĳ"
      ],
      [
        "undĠ",
        "achtĠ"
      ],
      [
        "Kat",
        "zenĠ"
      ],
      [
        "cat",
        "s."
      ],
      [
        "Katz",
        "en."
      ],
      [
        "Ġë¹¨ê°Ħ",
        "Ġê³°"
      ],
      [
        "Ġë¹¨ê°Ħ",
        "Ġìĸĳ"
      ],
      [
        "rabbit",
        "s."
      ],
      [
        "nichtĠ",
        "undĠdasĠ"
      ],
      [
        "tĠd",
        "oesĠnotĠ"
      ],
      [
        "Ġëħ¸ëŀĢĠì",
        "ĸĳ"
      ],
      [
        "nichtĠ",
        "undĠderĠ"
      ],
      [
        "Ġê²ĢìĿĢ",
        "ĠëĭŃ"
      ],
      [
        "Schaf",
        "e."
      ],
      [
        "sheepĠ",
        "andĠ"
      ],
      [
        "lion",
        "s."
      ],
      [
        "Ġëħ¸ëŀĢ",
        "ĠëĭŃ"
      ],
      [
        "ìĿ´Ġë³¸",
        "ëĭ¤ëĬĶĠê²ĥìĿ´Ġëª¨ëĳĲĠìĤ¬ìĭ¤ìĿ´ëĭ¤."
      ],
      [
        "foxe",
        "s."
      ],
      [
        "FÃ¼ch",
        "se."
      ],
      [
        "ìĿ´ĠëĴ¤ëĶ°ë¥¸",
        "ëĭ¤ëĬĶĠê²ĥìĿ´Ġëª¨ëĳĲĠìĤ¬ìĭ¤ìĿ´ëĭ¤."
      ],
      [
        "bear",
        "s."
      ],
      [
        "Ġì´Īë¡Ŀìĥī",
        "ĠëĭŃ"
      ],
      [
        "Ġê²ĢìĿĢ",
        "Ġê³°"
      ],
      [
        "ĠíĮĮëŀĢ",
        "ĠëĭŃ"
      ],
      [
        "er",
        "."
      ],
      [
        "hen",
        "s."
      ],
      [
        "HÃ¼hn",
        "erĠ"
      ],
      [
        "HÃ¼hn",
        "er."
      ],
      [
        "Ġë¹¨ê°Ħ",
        "ĠëĭŃ"
      ],
      [
        "Ġì´Īë¡Ŀìĥī",
        "Ġê³°"
      ],
      [
        "Ġëħ¸ëŀĢ",
        "Ġê³°"
      ],
      [
        "he",
        "."
      ],
      [
        "cow",
        "s."
      ],
      [
        "KÃ¼",
        "heĠ"
      ],
      [
        "KÃ¼",
        "he."
      ],
      [
        "Hund",
        "eĠundĠ"
      ],
      [
        "undĠ",
        "sechsĠ"
      ],
      [
        "Ġì´Īë¡Ŀìĥī",
        "Ġìĸĳ"
      ],
      [
        "Pferd",
        "eĠundĠ"
      ],
      [
        "undĠ",
        "zweiĠ"
      ],
      [
        "MÃ¤u",
        "seĠundĠ"
      ],
      [
        "ĳ",
        "ìĿ´Ġë"
      ],
      [
        "Ġê³łìĸ",
        "ĳìĿ´Ġë"
      ],
      [
        "ĠíķĺìĸĢĠì",
        "ĸĳ"
      ],
      [
        "notĠ",
        "seenĠbyĠtheĠ"
      ],
      [
        "Ġì´Īë¡Ŀìĥī",
        "Ġë§Ĳ"
      ],
      [
        "Schaf",
        "eĠundĠ"
      ],
      [
        "notĠ",
        "followedĠbyĠtheĠ"
      ],
      [
        "ĠíķĺìĸĢ",
        "Ġê³°"
      ],
      [
        "FÃ¼ch",
        "seĠundĠ"
      ],
      [
        "Ġëħ¸ëŀĢ",
        "Ġë§Ĳ"
      ],
      [
        "Ġê²ĢìĿĢĠì",
        "¥Ĳë¥¼"
      ],
      [
        "notĠ",
        "greetedĠbyĠtheĠ"
      ],
      [
        "ĠíķĺìĸĢ",
        "Ġë§Ĳ"
      ],
      [
        "Ġë¹¨ê°Ħ",
        "Ġê°ľë¥¼"
      ],
      [
        "Ġê²ĢìĿĢ",
        "Ġë§Ĳ"
      ],
      [
        "Ġëħ¸ëŀĢ",
        "ĠíĨłëģ¼ë¥¼"
      ],
      [
        "ĠíĮĮëŀĢ",
        "Ġë§Ĳ"
      ],
      [
        "Ġëħ¸ëŀĢ",
        "Ġê³łìĸĳìĿ´ë¥¼"
      ],
      [
        "Ġê²ĢìĿĢ",
        "ĠëĭŃìĿĦ"
      ],
      [
        "Ġê²ĢìĿĢĠì",
        "Ĥ¬ìŀĲë¥¼"
      ],
      [
        "ĠíĮĮëŀĢĠì",
        "Ĥ¬ìŀĲë¥¼"
      ],
      [
        "ĠíķĺìĸĢ",
        "Ġê°ľë¥¼"
      ],
      [
        "Ġë¹¨ê°Ħ",
        "Ġë§Ĳ"
      ],
      [
        "Ġëħ¸ëŀĢ",
        "ĠëĭŃìĿĦ"
      ],
      [
        "Ġê²ĢìĿĢĠì",
        "ĺ¤ë¦¬ë¥¼"
      ],
      [
        "Ġê²ĢìĿĢĠì",
        "ĨĮë¥¼"
      ],
      [
        "Ġì´Īë¡Ŀìĥī",
        "ĠíĨłëģ¼ë¥¼"
      ],
      [
        "ĠíĮĮëŀĢ",
        "Ġê°ľë¥¼"
      ],
      [
        "Ġëħ¸ëŀĢĠì",
        "¥Ĳë¥¼"
      ],
      [
        "ĠíķĺìĸĢĠì",
        "Ĥ¬ìŀĲë¥¼"
      ],
      [
        "Ġì´Īë¡ĿìĥīĠì",
        "Ĺ¬ìļ°ë¥¼"
      ],
      [
        "ĠíĮĮëŀĢ",
        "Ġê³°ìĿĦ"
      ],
      [
        "Ġëħ¸ëŀĢĠì",
        "ĸĳìĿĦ"
      ],
      [
        "ĠíķĺìĸĢĠì",
        "ĨĮë¥¼"
      ],
      [
        "ĠíķĺìĸĢĠì",
        "ĺ¤ë¦¬ë¥¼"
      ],
      [
        "ĠíĮĮëŀĢĠì",
        "ĺ¤ë¦¬ë¥¼"
      ],
      [
        "Ġê²ĢìĿĢ",
        "ĠìĸĳìĿĦ"
      ],
      [
        "Ġë¹¨ê°Ħ",
        "Ġê³°ìĿĦ"
      ],
      [
        "Ġì´Īë¡ĿìĥīĠì",
        "¥Ĳë¥¼"
      ],
      [
        "Ġëħ¸ëŀĢĠì",
        "ĨĮë¥¼"
      ],
      [
        "Ġë¹¨ê°Ħ",
        "ĠìĸĳìĿĦ"
      ],
      [
        "Ġëħ¸ëŀĢ",
        "Ġë§ĲìĿĦ"
      ],
      [
        "ĠíĮĮëŀĢĠì",
        "ĸĳìĿĦ"
      ],
      [
        "Ġê²ĢìĿĢ",
        "Ġë§ĲìĿĦ"
      ],
      [
        "Ġë¹¨ê°Ħ",
        "ĠëĭŃìĿĦ"
      ],
      [
        "ĠíĮĮëŀĢ",
        "ĠëĭŃìĿĦ"
      ],
      [
        "Ġë¹¨ê°Ħ",
        "Ġê³łìĸĳìĿ´ë¥¼"
      ],
      [
        "Ġë¹¨ê°ĦĠì",
        "ĺ¤ë¦¬ë¥¼"
      ],
      [
        "ìĿ´ĠëĴ¤ëĶ°",
        "ë¥"
      ],
      [
        "Ġê²ĢìĿĢ",
        "Ġê°ľë¥¼"
      ],
      [
        "Ġì´Īë¡ĿìĥīĠì",
        "Ĥ¬ìŀĲë¥¼"
      ],
      [
        "Ġëħ¸ëŀĢĠì",
        "Ĥ¬ìŀĲë¥¼"
      ],
      [
        "ĠíķĺìĸĢ",
        "Ġë§ĲìĿĦ"
      ],
      [
        "ĠíĮĮëŀĢ",
        "Ġë§ĲìĿĦ"
      ],
      [
        "Ġì´Īë¡ĿìĥīĠì",
        "ĺ¤ë¦¬ë¥¼"
      ],
      [
        "Ġê²ĢìĿĢ",
        "Ġê³łìĸĳìĿ´ë¥¼"
      ],
      [
        "ĠíĮĮëŀĢ",
        "ĠíĨłëģ¼ë¥¼"
      ],
      [
        "Ġì´Īë¡ĿìĥīĠì",
        "ĨĮë¥¼"
      ],
      [
        "Ġë¹¨ê°ĦĠì",
        "Ĥ¬ìŀĲë¥¼"
      ],
      [
        "Ġë¹¨ê°ĦĠì",
        "ĨĮë¥¼"
      ],
      [
        "Ġë¹¨ê°Ħ",
        "ĠíĨłëģ¼ë¥¼"
      ],
      [
        "Ġì´Īë¡Ŀìĥī",
        "ĠëĭŃìĿĦ"
      ],
      [
        "Ġì´Īë¡Ŀìĥī",
        "Ġê³°ìĿĦ"
      ],
      [
        "Ġì´Īë¡Ŀìĥī",
        "Ġë§ĲìĿĦ"
      ],
      [
        "Ġëħ¸ëŀĢ",
        "Ġê³°ìĿĦ"
      ],
      [
        "ĠíķĺìĸĢ",
        "ĠëĭŃìĿĦ"
      ],
      [
        "Ġì´Īë¡Ŀìĥī",
        "ĠìĸĳìĿĦ"
      ],
      [
        "Ġê²ĢìĿĢĠì",
        "Ĺ¬ìļ°ë¥¼"
      ],
      [
        "Ġì´Īë¡Ŀìĥī",
        "Ġê°ľë¥¼"
      ],
      [
        "Ġë¹¨ê°ĦĠì",
        "Ĺ¬ìļ°ë¥¼"
      ],
      [
        "Ġê²ĢìĿĢ",
        "ĠíĨłëģ¼ë¥¼"
      ],
      [
        "Ġê²ĢìĿĢ",
        "Ġê³°ìĿĦ"
      ],
      [
        "ĠíĮĮëŀĢĠì",
        "¥Ĳë¥¼"
      ],
      [
        "ĠíĮĮëŀĢĠì",
        "Ĺ¬ìļ°ë¥¼"
      ],
      [
        "ĠíķĺìĸĢĠì",
        "ĸĳìĿĦ"
      ],
      [
        "Ġë¹¨ê°ĦĠì",
        "¥Ĳë¥¼"
      ],
      [
        "Ġì´Īë¡Ŀìĥī",
        "Ġê³łìĸĳìĿ´ë¥¼"
      ],
      [
        "Ġëħ¸ëŀĢ",
        "Ġê°ľë¥¼"
      ],
      [
        "ĠíķĺìĸĢĠì",
        "¥Ĳë¥¼"
      ],
      [
        "ĠíķĺìĸĢ",
        "Ġê³łìĸĳìĿ´ë¥¼"
      ],
      [
        "Ġëħ¸ëŀĢĠì",
        "Ĺ¬ìļ°ë¥¼"
      ],
      [
        "ĠíķĺìĸĢĠì",
        "Ĺ¬ìļ°ë¥¼"
      ],
      [
        "ĠíĮĮëŀĢĠì",
        "ĨĮë¥¼"
      ],
      [
        "Ġëħ¸ëŀĢĠì",
        "ĺ¤ë¦¬ë¥¼"
      ],
      [
        "ĠíķĺìĸĢ",
        "ĠíĨłëģ¼ë¥¼"
      ],
      [
        "DerĠ",
        "jungeĠschwarzeĠ"
      ],
      [
        "ĠíĮĮëŀĢ",
        "Ġê³łìĸĳìĿ´ë¥¼"
      ],
      [
        "ĠíķĺìĸĢ",
        "Ġê³°ìĿĦ"
      ],
      [
        "DerĠ",
        "alteĠblaueĠ"
      ],
      [
        "ĠëĭŃìĿĢ",
        "ĠìŀĳìĿĢ"
      ],
      [
        "DasĠ",
        "kleineĠschwarzeĠ"
      ],
      [
        "wirdĠvonĠdemĠgroÃŁenĠ",
        "gelbenĠ"
      ],
      [
        "cowĠ",
        "followsĠtheĠ"
      ],
      [
        "Ġë¹¨ê°Ħ",
        "Ġë§ĲìĿĦ"
      ],
      [
        "henĠ",
        "followsĠtheĠ"
      ],
      [
        "ĠëĭŃìĿĢ",
        "Ġìĸ´ë¦°"
      ],
      [
        "wirdĠvonĠdemĠkleinenĠ",
        "grÃ¼nenĠ"
      ],
      [
        "DasĠ",
        "alteĠgelbeĠ"
      ],
      [
        "DieĠ",
        "alteĠgelbeĠ"
      ],
      [
        "lionĠ",
        "seesĠtheĠ"
      ],
      [
        "DieĠ",
        "jungeĠweiÃŁeĠ"
      ],
      [
        "ìĿĺĠìķŀ",
        "ìĹĲĠìŀĪëĭ¤ëĬĶĠê²ĥê³¼Ġíģ°"
      ],
      [
        "DasĠ",
        "alteĠblaueĠ"
      ],
      [
        "rabbitĠ",
        "greetsĠtheĠ"
      ],
      [
        "ìĿĺĠìĺ¤ë¥¸ìª½",
        "ìĹĲĠìŀĪëĭ¤ëĬĶĠê²ĥê³¼Ġíģ°"
      ],
      [
        "wirdĠvonĠdemĠjungenĠ",
        "schwarzenĠ"
      ],
      [
        "onĠd",
        "oesĠnotĠ"
      ],
      [
        "li",
        "onĠdoesĠnotĠ"
      ],
      [
        "sheepĠ",
        "followsĠtheĠ"
      ],
      [
        "DasĠ",
        "kleineĠweiÃŁeĠ"
      ],
      [
        "dogĠ",
        "greetsĠtheĠ"
      ],
      [
        "DieĠ",
        "jungeĠroteĠ"
      ],
      [
        "DieĠ",
        "groÃŁeĠschwarzeĠ"
      ],
      [
        "DasĠ",
        "jungeĠgelbeĠ"
      ],
      [
        "ìĿĺĠìĻ¼ìª½",
        "ìĹĲĠìŀĪëĭ¤ëĬĶĠê²ĥê³¼Ġíģ°"
      ],
      [
        "ìĿĺĠìľĦ",
        "ìĹĲĠìŀĪëĭ¤ëĬĶĠê²ĥê³¼Ġíģ°"
      ],
      [
        "wirdĠvonĠdemĠaltenĠ",
        "blauenĠ"
      ],
      [
        "DieĠ",
        "kleineĠschwarzeĠ"
      ],
      [
        "foxĠ",
        "followsĠtheĠ"
      ],
      [
        "DerĠ",
        "groÃŁeĠgelbeĠ"
      ],
      [
        "DerĠ",
        "kleineĠgrÃ¼neĠ"
      ],
      [
        "DerĠ",
        "alteĠweiÃŁeĠ"
      ],
      [
        "mouseĠ",
        "greetsĠtheĠ"
      ],
      [
        "duckĠ",
        "seesĠtheĠ"
      ],
      [
        "ĠëĭŃìĿ´",
        "Ġìĸ´ë¦°"
      ],
      [
        "dogĠisĠ",
        "greetedĠbyĠtheĠ"
      ],
      [
        "wirdĠvonĠdemĠkleinenĠ",
        "weiÃŁenĠ"
      ],
      [
        "DerĠ",
        "groÃŁeĠblaueĠ"
      ],
      [
        "DieĠ",
        "groÃŁeĠgelbeĠ"
      ],
      [
        "FuchsĠ",
        "wirdĠvonĠderĠ"
      ],
      [
        "DasĠ",
        "groÃŁeĠgelbeĠ"
      ],
      [
        "HuhnĠ",
        "wirdĠvonĠderĠ"
      ],
      [
        "cowĠ",
        "seesĠtheĠ"
      ],
      [
        "henĠ",
        "isĠgreetedĠbyĠtheĠ"
      ],
      [
        "ìĿĺĠìķŀ",
        "ìĹĲĠìŀĪëĭ¤ëĬĶĠê²ĥê³¼Ġìĸ´ë¦°"
      ],
      [
        "DerĠ",
        "jungeĠgelbeĠ"
      ],
      [
        "DieĠ",
        "kleineĠweiÃŁeĠ"
      ],
      [
        "lionĠ",
        "isĠgreetedĠbyĠtheĠ"
      ],
      [
        "ĠëĭŃìĿ´",
        "Ġíģ°"
      ],
      [
        "SchafĠ",
        "wirdĠvonĠderĠ"
      ],
      [
        "ìĿĺĠìķĦëŀĺ",
        "ìĹĲĠìŀĪëĭ¤ëĬĶĠê²ĥê³¼Ġíģ°"
      ],
      [
        "DerĠ",
        "alteĠroteĠ"
      ],
      [
        "DerĠ",
        "kleineĠblaueĠ"
      ],
      [
        "mouseĠ",
        "isĠgreetedĠbyĠtheĠ"
      ],
      [
        "lionĠ",
        "greetsĠtheĠ"
      ],
      [
        "wirdĠvonĠdemĠgroÃŁenĠ",
        "schwarzenĠ"
      ],
      [
        "Ġë§ĲìĿĢ",
        "Ġìĸ´ë¦°"
      ],
      [
        "ìĿĺĠìľĦ",
        "ìĹĲĠìŀĪëĭ¤ëĬĶĠê²ĥê³¼ĠëĬĻìĿĢ"
      ],
      [
        "henĠ",
        "greetsĠtheĠ"
      ],
      [
        "Ġë§ĲìĿĢ",
        "Ġíģ°"
      ],
      [
        "henĠ",
        "isĠfollowedĠbyĠtheĠ"
      ],
      [
        "HundĠ",
        "wirdĠvonĠderĠ"
      ],
      [
        "lionĠ",
        "isĠseenĠbyĠtheĠ"
      ],
      [
        "dogĠisĠ",
        "seenĠbyĠtheĠ"
      ],
      [
        "ìĿĺĠìķĦëŀĺ",
        "ìĹĲĠìŀĪëĭ¤ëĬĶĠê²ĥê³¼Ġìĸ´ë¦°"
      ],
      [
        "wirdĠvonĠdemĠkleinenĠ",
        "blauenĠ"
      ],
      [
        "wirdĠvonĠdemĠgroÃŁenĠ",
        "blauenĠ"
      ],
      [
        "DerĠ",
        "groÃŁeĠweiÃŁeĠ"
      ],
      [
        "DieĠ",
        "kleineĠgelbeĠ"
      ],
      [
        "DieĠ",
        "alteĠschwarzeĠ"
      ],
      [
        "DasĠ",
        "groÃŁeĠschwarzeĠ"
      ],
      [
        "DerĠ",
        "jungeĠroteĠ"
      ],
      [
        "DasĠ",
        "kleineĠgelbeĠ"
      ],
      [
        "horseĠ",
        "seesĠtheĠ"
      ],
      [
        "dogĠ",
        "seesĠtheĠ"
      ],
      [
        "duckĠ",
        "isĠgreetedĠbyĠtheĠ"
      ],
      [
        "wirdĠvonĠdemĠkleinenĠ",
        "schwarzenĠ"
      ],
      [
        "DieĠ",
        "alteĠgrÃ¼neĠ"
      ],
      [
        "duckĠ",
        "greetsĠtheĠ"
      ],
      [
        "rabbitĠ",
        "isĠgreetedĠbyĠtheĠ"
      ],
      [
        "Ġë§ŀìĿ´íķĺì§ĢĠìķĬëĬĶ",
        "ëĭ¤ëĬĶĠê²ĥê³¼ĠëĬĻìĿĢ"
      ],
      [
        "Ġê³°ìĿĢ",
        "Ġìĸ´ë¦°"
      ],
      [
        "sheepĠisĠ",
        "followedĠbyĠtheĠ"
      ],
      [
        "ìĿĺĠìĺ¤ë¥¸ìª½",
        "ìĹĲĠìŀĪëĭ¤ëĬĶĠê²ĥê³¼ĠìŀĳìĿĢ"
      ],
      [
        "Ġë§ŀìĿ´íķĺì§ĢĠìķĬëĬĶ",
        "ëĭ¤ëĬĶĠê²ĥê³¼ĠìŀĳìĿĢ"
      ],
      [
        "cowĠisĠ",
        "seenĠbyĠtheĠ"
      ],
      [
        "wirdĠvonĠdemĠgroÃŁenĠ",
        "rotenĠ"
      ],
      [
        "catĠ",
        "isĠfollowedĠbyĠtheĠ"
      ],
      [
        "wirdĠvonĠdemĠjungenĠ",
        "grÃ¼nenĠ"
      ],
      [
        "DasĠ",
        "jungeĠschwarzeĠ"
      ],
      [
        "KuhĠ",
        "wirdĠvonĠderĠ"
      ],
      [
        "duckĠ",
        "isĠfollowedĠbyĠtheĠ"
      ],
      [
        "ìĿĺĠìĺ¤ë¥¸ìª½",
        "ìĹĲĠìŀĪëĭ¤ëĬĶĠê²ĥê³¼Ġìĸ´ë¦°"
      ],
      [
        "dogĠisĠ",
        "followedĠbyĠtheĠ"
      ],
      [
        "KaninchenĠ",
        "wirdĠvonĠderĠ"
      ],
      [
        "catĠ",
        "followsĠtheĠ"
      ],
      [
        "ìĿĺĠìĻ¼ìª½",
        "ìĹĲĠìŀĪëĭ¤ëĬĶĠê²ĥê³¼Ġìĸ´ë¦°"
      ],
      [
        "wirdĠvonĠdemĠjungenĠ",
        "rotenĠ"
      ],
      [
        "bearĠ",
        "seesĠtheĠ"
      ],
      [
        "MausĠ",
        "wirdĠvonĠderĠ"
      ],
      [
        "cowĠisĠ",
        "followedĠbyĠtheĠ"
      ],
      [
        "henĠ",
        "isĠseenĠbyĠtheĠ"
      ],
      [
        "DieĠ",
        "jungeĠgrÃ¼neĠ"
      ],
      [
        "DasĠ",
        "groÃŁeĠgrÃ¼neĠ"
      ],
      [
        "DasĠ",
        "jungeĠweiÃŁeĠ"
      ],
      [
        "mouseĠ",
        "followsĠtheĠ"
      ],
      [
        "mouseĠ",
        "isĠfollowedĠbyĠtheĠ"
      ],
      [
        "sheepĠ",
        "greetsĠtheĠ"
      ],
      [
        "ĠëĭŃìĿ´",
        "ĠìŀĳìĿĢ"
      ],
      [
        "Ġë§ĲìĿ´",
        "ĠìŀĳìĿĢ"
      ],
      [
        "ĠìŀĳìĿĢ",
        "ĠíķĺìĸĢĠì"
      ],
      [
        "wirdĠvonĠdemĠaltenĠ",
        "rotenĠ"
      ],
      [
[...]
