{
  "version": "1.0",
  "truncation": null,
  "padding": null,
  "added_tokens": [
    {
      "id": 0,
      "content": "[PAD]",
      "single_word": false,
      "lstrip": false,
      "rstrip": false,
      "normalized": false,
      "special": true
    },
    {
      "id": 1,
      "content": "[UNK]",
      "single_word": false,
      "lstrip": false,
      "rstrip": false,
      "normalized": false,
      "special": true
    },
    {
      "id": 2,
      "content": "[SEP]",
      "single_word": false,
      "lstrip": false,
      "rstrip": false,
      "normalized": false,
      "special": true
    },
    {
      "id": 3,
      "content": "[EOS]",
      "single_word": false,
      "lstrip": false,
      "rstrip": false,
      "normalized": false,
      "special": true
    }
  ],
  "normalizer": {
    "type": "NFC"
  },
  "pre_tokenizer": {
    "type": "ByteLevel",
    "add_prefix_space": false,
    "trim_offsets": true,
    "use_regex": true
  },
  "post_processor": null,
  "decoder": {
    "type": "ByteLevel",
    "add_prefix_space": true,
    "trim_offsets": true,
    "use_regex": true
  },
  "model": {
    "type": "BPE",
    "dropout": null,
    "unk_token": "[UNK]",
    "continuing_subword_prefix": null,
    "end_of_word_suffix": null,
    "fuse_unk": false,
    "byte_fallback": false,
    "ignore_merges": false,
    "vocab": {
      "[PAD]": 0,
      "[UNK]": 1,
      "[SEP]": 2,
      "[EOS]": 3,
      "!": 4,
      "\"": 5,
      "#": 6,
      "$": 7,
      "%": 8,
      "&": 9,
      "'": 10,
      "(": 11,
      ")": 12,
      "*": 13,
      "+": 14,
      ",": 15,
      "-": 16,
      ".": 17,
      "/": 18,
      "0": 19,
      "1": 20,
      "2": 21,
      "3": 22,
      "4": 23,
      "5": 24,
      "6": 25,
      "7": 26,
      "8": 27,
      "9": 28,
      ":": 29,
      ";": 30,
      "<": 31,
      "=": 32,
      ">": 33,
      "?": 34,
      "@": 35,
      "A": 36,
      "B": 37,
      "C": 38,
      "D": 39,
      "E": 40,
      "F": 41,
      "G": 42,
      "H": 43,
      "I": 44,
      "J": 45,
      "K": 46,
      "L": 47,
      "M": 48,
      "N": 49,
      "O": 50,
      "P": 51,
      "Q": 52,
      "R": 53,
      "S": 54,
      "T": 55,
      "U": 56,
      "V": 57,
      "W": 58,
      "X": 59,
      "Y": 60,
      "Z": 61,
      "[": 62,
      "\\": 63,
      "]": 64,
      "^": 65,
      "_": 66,
      "`": 67,
      "a": 68,
      "b": 69,
      "c": 70,
      "d": 71,
      "e": 72,
      "f": 73,
      "g": 74,
      "h": 75,
      "i": 76,
      "j": 77,
      "k": 78,
      "l": 79,
      "m": 80,
      "n": 81,
      "o": 82,
      "p": 83,
      "q": 84,
      "r": 85,
      "s": 86,
      "t": 87,
      "u": 88,
      "v": 89,
      "w": 90,
      "x": 91,
      "y": 92,
      "z": 93,
      "{": 94,
      "|": 95,
      "}": 96,
      "~": 97,
      "¡": 98,
      "¢": 99,
      "£": 100,
      "¤": 101,
      "¥": 102,
      "¦": 103,
      "§": 104,
      "¨": 105,
      "©": 106,
      "ª": 107,
      "«": 108,
      "¬": 109,
      "®": 110,
      "¯": 111,
      "°": 112,
      "±": 113,
      "²": 114,
      "³": 115,
      "´": 116,
      "µ": 117,
      "¶": 118,
      "·": 119,
      "¸": 120,
      "¹": 121,
      "º": 122,
      "»": 123,
      "¼": 124,
      "½": 125,
      "¾": 126,
      "¿": 127,
      "À": 128,
      "Á": 129,
      "Â": 130,
      "Ã": 131,
      "Ä": 132,
      "Å": 133,
      "Æ": 134,
      "Ç": 135,
      "È": 136,
      "É": 137,
      "Ê": 138,
      "Ë": 139,
      "Ì": 140,
      "Í": 141,
      "Î": 142,
      "Ï": 143,
      "Ð": 144,
      "Ñ": 145,
      "Ò": 146,
      "Ó": 147,
      "Ô": 148,
      "Õ": 149,
      "Ö": 150,
      "×": 151,
      "Ø": 152,
      "Ù": 153,
      "Ú": 154,
      "Û": 155,
      "Ü": 156,
      "Ý": 157,
      "Þ": 158,
      "ß": 159,
      "à": 160,
      "á": 161,
      "â": 162,
      "ã": 163,
      "ä": 164,
      "å": 165,
      "æ": 166,
      "ç": 167,
      "è": 168,
      "é": 169,
      "ê": 170,
      "ë": 171,
      "ì": 172,
      "í": 173,
      "î": 174,
      "ï": 175,
      "ð": 176,
      "ñ": 177,
      "ò": 178,
      "ó": 179,
      "ô": 180,
      "õ": 181,
      "ö": 182,
      "÷": 183,
      "ø": 184,
      "ù": 185,
      "ú": 186,
      "û": 187,
      "ü": 188,
      "ý": 189,
      "þ": 190,
      "ÿ": 191,
      "Ā": 192,
      "ā": 193,
      "Ă": 194,
      "ă": 195,
      "Ą": 196,
      "ą": 197,
      "Ć": 198,
      "ć": 199,
      "Ĉ": 200,
      "ĉ": 201,
      "Ċ": 202,
      "ċ": 203,
      "Č": 204,
      "č": 205,
      "Ď": 206,
      "ď": 207,
      "Đ": 208,
      "đ": 209,
      "Ē": 210,
      "ē": 211,
      "Ĕ": 212,
      "ĕ": 213,
      "Ė": 214,
      "ė": 215,
      "Ę": 216,
      "ę": 217,
      "Ě": 218,
      "ě": 219,
      "Ĝ": 220,
      "ĝ": 221,
      "Ğ": 222,
      "ğ": 223,
      "Ġ": 224,
      "ġ": 225,
      "Ģ": 226,
      "ģ": 227,
      "Ĥ": 228,
      "ĥ": 229,
      "Ħ": 230,
      "ħ": 231,
      "Ĩ": 232,
      "ĩ": 233,
      "Ī": 234,
      "ī": 235,
      "Ĭ": 236,
      "ĭ": 237,
      "Į": 238,
      "į": 239,
      "İ": 240,
      "ı": 241,
      "Ĳ": 242,
      "ĳ": 243,
      "Ĵ": 244,
      "ĵ": 245,
      "Ķ": 246,
      "ķ": 247,
      "ĸ": 248,
      "Ĺ": 249,
      "ĺ": 250,
      "Ļ": 251,
      "ļ": 252,
      "Ľ": 253,
      "ľ": 254,
      "Ŀ": 255,
      "ŀ": 256,
      "Ł": 257,
      "ł": 258,
      "Ń": 259,
      "Ġì": 260,
      "ìĿ": 261,
      "Ġë": 262,
      "en": 263,
      "he": 264,
      "Ġg": 265,
      "ìĥ": 266,
      "ìĥī": 267,
      "ĭ¤": 268,
      "un": 269,
      "Ġd": 270,
      "Ġê": 271,
      "Ġt": 272,
      "Ġb": 273,
      "Ġs": 274,
      "Ġgr": 275,
      "ëĭ¤": 276,
      "Ġthe": 277,
      "Ģìĥī": 278,
      "ìĿ´": 279,
      "Ġa": 280,
      "ch": 281,
      "te": 282,
      "Ġê²": 283,
      "Ġí": 284,
      "la": 285,
      "ëĬ": 286,
      "ê°": 287,
      "ll": 288,
      "ÃŁ": 289,
      "ëĬĶ": 290,
      "ung": 291,
      "ìĿĢ": 292,
      "ë¦": 293,
      "ei": 294,
      "er": 295,
      "¬ì": 296,
      "Ġw": 297,
      "Ġr": 298,
      "Ġi": 299,
      "ëĭ¤ëĬĶ": 300,
      "Ġê²ĥ": 301,
      "Ġis": 302,
      "Ġy": 303,
      "Ġìŀ": 304,
      "ow": 305,
      "und": 306,
      "ëŀ": 307,
      "ê°Ģ": 308,
      "ol": 309,
      "Ã¼": 310,
      "ëŀĢìĥī": 311,
      "Ġbla": 312,
      "ck": 313,
      "Ġv": 314,
      "ìĸ": 315,
      "ë¥": 316,
      "nd": 317,
      "on": 318,
      "Ĥ¬ì": 319,
      "ĠìĤ¬ì": 320,
      "The": 321,
      "Ġund": 322,
      "Ġand": 323,
      "ue": 324,
      "ne": 325,
      "ÃŁe": 326,
      "llow": 327,
      "Ġge": 328,
      "Ġìĸ": 329,
      "Ġf": 330,
      "Ġgre": 331,
      "ie": 332,
      "ge": 333,
      "rge": 334,
      "Ġla": 335,
      "ģ°": 336,
      "Ġgro": 337,
      "Ġlarge": 338,
      "all": 339,
      "kl": 340,
      "mall": 341,
      "Ġkl": 342,
      "ĳìĿĢ": 343,
      "Ġsmall": 344,
      "Ġklei": 345,
      "ar": 346,
      "jung": 347,
      "oung": 348,
      "´ë¦": 349,
      "Ġjung": 350,
      "Ġyoung": 351,
      "´ë¦°": 352,
      "ĠK": 353,
      "Ġol": 354,
      "ĻìĿĢ": 355,
      "Ġal": 356,
      "Ġold": 357,
      "ê³": 358,
      "ĳĲ": 359,
      "se": 360,
      "Ġë§": 361,
      "¨ë": 362,
      "ª¨ë": 363,
      "Ġëª¨ë": 364,
      "ĭ¤ìĿ´": 365,
      "Ġê²ĥìĿ´": 366,
      "Ġê²ĥê³": 367,
      "ĠìŀĪ": 368,
      "ĠìĤ¬ìĭ¤ìĿ´": 369,
      "Ġëª¨ëĳĲ": 370,
      "Ġê²ĥê³¼": 371,
      "ĠìĤ¬ìĭ¤ìĿ´ëĭ¤": 372,
      "ed": 373,
      "ĠgrÃ¼": 374,
      "hi": 375,
      "Ġfo": 376,
      "ë¥¼": 377,
      "as": 378,
      "Ġvon": 379,
      "em": 380,
      "Ġdem": 381,
      "ze": 382,
      "Ġíģ°": 383,
      "ĠìŀĳìĿĢ": 384,
      "Ġìĸ´ë¦°": 385,
      "ĬĻìĿĢ": 386,
      "ĠëĬĻìĿĢ": 387,
      "ĠH": 388,
      "ellow": 389,
      "lb": 390,
      "¸ëŀĢìĥī": 391,
      "ħ¸ëŀĢìĥī": 392,
      "Ġëħ¸ëŀĢìĥī": 393,
      "Ġyellow": 394,
      "Ġgelb": 395,
      "war": 396,
      "ĢìĿ": 397,
      "Ġsch": 398,
      "Ġê²ĢìĿ": 399,
      "Ġblack": 400,
      "Ġschwar": 401,
      "Ġê²ĢìĿĢìĥī": 402,
      "lue": 403,
      "ĮĮ": 404,
      "Ġblue": 405,
      "ĠíĮĮ": 406,
      "ĠíĮĮëŀĢìĥī": 407,
      "ĠgroÃŁe": 408,
      "Ġkleine": 409,
      "Ġjunge": 410,
      "¨ê°": 411,
      "¹¨ê°": 412,
      "Ħìĥī": 413,
      "Ġë¹¨ê°": 414,
      "Ġro": 415,
      "Ġred": 416,
      "Ġë¹¨ê°Ħìĥī": 417,
      "Ġc": 418,
      "Ġder": 419,
      "Ġalte": 420,
      "ĠKa": 421,
      "¡Ŀ": 422,
      "´Ī": 423,
      "ë¡Ŀ": 424,
      "Ġì´Ī": 425,
      "Ġgreen": 426,
      "ë¡Ŀìĥī": 427,
      "Ġì´Īë¡Ŀìĥī": 428,
      "Ġê³": 429,
      "re": 430,
      "ķĺ": 431,
      "Ġíķĺ": 432,
      "Ġwei": 433,
      "Ġwhi": 434,
      "ìĸĢìĥī": 435,
      "ĠíķĺìĸĢìĥī": 436,
      "Ġwhite": 437,
      "ni": 438,
      "ë¦¬": 439,
      "ten": 440,
      "uh": 441,
      "ir": 442,
      "ìĹ": 443,
      "ìĿĺ": 444,
      "Ġby": 445,
      "Ġwir": 446,
      "Ġist": 447,
      "Ġë§Ī": 448,
      "ĠìŀĪëĭ¤ëĬĶ": 449,
      "ìĹĲ": 450,
      "Ġwird": 451,
      "¸ëĭ¤ëĬĶ": 452,
      "ÃŁen": 453,
      "nen": 454,
      "Ġse": 455,
      "Ġl": 456,
      "Ġbe": 457,
      "Ġdo": 458,
      "Ġdas": 459,
      "ĠìĹ": 460,
      "Ġìķ": 461,
      "Ĵ¤": 462,
      "ĠëĴ¤": 463,
      "Ġdie": 464,
      "ĳìĿ´": 465,
      "cht": 466,
      "Ġgelbe": 467,
      "Ġschwarze": 468,
      "Ġblaue": 469,
      "Ġli": 470,
      "Ġrote": 471,
      "ĠgrÃ¼ne": 472,
      "ĠweiÃŁe": 473,
      "ë¦¬ê°Ģ": 474,
      "or": 475,
      "ĺ¤": 476,
      "Ġìĺ¤": 477,
      "ĠìĹ¬ì": 478,
      "°ĺ": 479,
      "ê¸": 480,
      "Ġë°ĺ": 481,
      "ÃŁt": 482,
      "Ġgree": 483,
      "Ġë°ĺê¸": 484,
      "fol": 485,
      "gt": 486,
      "°ë¥": 487,
      "ëĶ": 488,
      "erfol": 489,
      "Ġverfol": 490,
      "Ġfollow": 491,
      "ĠëĴ¤ëĶ": 492,
      "Ġverfolgt": 493,
      "ĠëĴ¤ëĶ°ë¥": 494,
      "Ġë³": 495,
      "ìĿĦ": 496,
      "Ã¤": 497,
      "nte": 498,
      "ht": 499,
      "chs": 500,
      "LÃ": 501,
      "¶w": 502,
      "ĠLÃ": 503,
      "ŀĲ": 504,
      "ĠìĤ¬ìŀĲ": 505,
      "Ġlion": 506,
      "ĠLÃ¶w": 507,
      "°ľ": 508,
      "Ġê°ľ": 509,
      "ĠHund": 510,
      "Ġdog": 511,
      "ick": 512,
      "Ġch": 513,
      "ĭŃ": 514,
      "ĠëĭŃ": 515,
      "icken": 516,
      "Ġchicken": 517,
      "ĠgroÃŁen": 518,
      "use": 519,
      "¥Ĳ": 520,
      "ĠM": 521,
      "Ġm": 522,
      "Ġì¥Ĳ": 523,
      "Sch": 524,
      "af": 525,
      "ep": 526,
      "ĠSch": 527,
      "heep": 528,
      "Ġsheep": 529,
      "ĠSchaf": 530,
      "ĨĮ": 531,
      "ĠìĨĮ": 532,
      "Ġcow": 533,
      "Ġjungen": 534,
      "Ġkleinen": 535,
      "Pf": 536,
      "hor": 537,
      "ĠPf": 538,
      "Ġhor": 539,
      "erd": 540,
      "Ġë§Ĳ": 541,
      "ĠPferd": 542,
      "Ġhorse": 543,
      "ab": 544,
      "bi": 545,
      "nch": 546,
      "ëģ": 547,
      "Ĩł": 548,
      "ĠíĨł": 549,
      "Ġrab": 550,
      "ĠKani": 551,
      "bit": 552,
      "nchen": 553,
      "ëģ¼": 554,
      "ĠíĨłëģ¼": 555,
      "Ġrabbit": 556,
      "ĠKaninchen": 557,
      "es": 558,
      "at": 559,
      "łìĸ": 560,
      "Ġcat": 561,
      "ĠKat": 562,
      "Ġê³łìĸ": 563,
      "Ġê³łìĸĳìĿ´": 564,
      "Ġalten": 565,
      "uck": 566,
      "ĠE": 567,
      "Ġduck": 568,
      "BÃ¤": 569,
      "ĠBÃ¤": 570,
      "Ġê³°": 571,
      "Ġbear": 572,
      "ĠBÃ¤r": 573,
      "ĠF": 574,
      "ļ°": 575,
      "Ġfox": 576,
      "ĠìĹ¬ìļ°": 577,
      "ĠHuh": 578,
      "ĠHuhn": 579,
      "ĠKuh": 580,
      "au": 581,
      "ouse": 582,
      "ĠMau": 583,
      "Ġmouse": 584,
      "ĠMaus": 585,
      "´ëĭ¤ëĬĶ": 586,
      "Ġë°ĺê¸´ëĭ¤ëĬĶ": 587,
      "ĠëĴ¤ëĶ°ë¥¸ëĭ¤ëĬĶ": 588,
      "ìŀ": 589,
      "ìŀĳìĿĢ": 590,
      "of": 591,
      "Ġof": 592,
      "ëĬĻìĿĢ": 593,
      "Der": 594,
      "Die": 595,
      "Es": 596,
      "bt": 597,
      "ibt": 598,
      "no": 599,
      "§Ģ": 600,
      "ì§Ģ": 601,
      "íģ°": 602,
      "Ġni": 603,
      "Ġno": 604,
      "ĬëĬĶ": 605,
      "ĻĢ": 606,
      "Ġgibt": 607,
      "Ġare": 608,
      "ë¦¬ì": 609,
      "There": 610,
      "ĠìŀĪëĭ¤": 611,
      "Ġë§Īë¦¬ê°Ģ": 612,
      "Ġë§Īë¦¬ì": 613,
      "ĠìķĬëĬĶ": 614,
      "Ġnicht": 615,
      "Ġnot": 616,
      "Ġë§Īë¦¬ìĻĢ": 617,
      "ĠìķĬëĬĶëĭ¤ëĬĶ": 618,
      "Das": 619,
      "ìĸ´ë¦°": 620,
      "Ġë³¸ëĭ¤ëĬĶ": 621,
      "ĠKatze": 622,
      "ĠEnte": 623,
      "Ġsie": 624,
      "zen": 625,
      "uchs": 626,
      "ĠFuchs": 627,
      "uen": 628,
      "Ġblauen": 629,
      "Ġgelben": 630,
      "Ġschwarzen": 631,
      "Ġroten": 632,
      "ĠweiÃŁen": 633,
      "ĠgrÃ¼nen": 634,
      "ĠLÃ¶wen": 635,
      "ª½": 636,
      "ìª½": 637,
      "Ġto": 638,
      "ìª½ìĹĲ": 639,
      "gr": 640,
      "ted": 641,
      "Ã¼ÃŁt": 642,
      "Ġgegr": 643,
      "ĠgrÃ¼ÃŁt": 644,
      "Ġgreet": 645,
      "Ġgreeted": 646,
      "ĠgegrÃ¼ÃŁt": 647,
      "Ġìĸĳ": 648,
      "Ġfollowed": 649,
      "Ġden": 650,
      "´ì§Ģ": 651,
      "hen": 652,
      "Ġgese": 653,
      "Ġseen": 654,
      "Ġsieht": 655,
      "Ġgesehen": 656,
      "Ġìĺ¤ë¦¬": 657,
      "ĠBÃ¤ren": 658,
      "ve": 659,
      "ght": 660,
      "Ħ¯": 661,
      "ĠìĤ¬ìŀĲê°Ģ": 662,
      "ĠLÃ¶we": 663,
      "ĠëĭŃìĿ´": 664,
      "Ġê°ľê°Ģ": 665,
      "ĠìĨĮê°Ģ": 666,
      "ĠìĸĳìĿ´": 667,
      "Ġì¥Ĳê°Ģ": 668,
      "Ġgreets": 669,
      "Ġfollows": 670,
      "Ġdoes": 671,
      "ĠíĨłëģ¼ê°Ģ": 672,
      "Ġsees": 673,
      "Ġê³łìĸĳìĿ´ê°Ģ": 674,
      "Ġë§ĲìĿ´": 675,
      "Ġìĺ¤ë¦¬ê°Ģ": 676,
      "Ġê³°ìĿ´": 677,
      "ĠìĹ¬ìļ°ê°Ģ": 678,
      "ĠìĤ¬ìŀĲë¥¼": 679,
      "Ġê°ľë¥¼": 680,
      "ĠëĭŃìĿĦ": 681,
      "Ġì¥Ĳë¥¼": 682,
      "ef": 683,
      "echt": 684,
      "ight": 685,
      "ks": 686,
      "nks": 687,
      "¸ìª½ìĹĲ": 688,
      "¼ìª½ìĹĲ": 689,
      "Ļ¼ìª½ìĹĲ": 690,
      "ĠìĻ¼ìª½ìĹĲ": 691,
      "Ġrecht": 692,
      "Ġright": 693,
      "ë¥¸ìª½ìĹĲ": 694,
      "Ġlef": 695,
      "Ġlinks": 696,
      "Ġìĺ¤ë¥¸ìª½ìĹĲ": 697,
      "Ġrechts": 698,
      "Ġleft": 699,
      "Ġë³´ì§Ģ": 700,
      "bo": 701,
      "ber": 702,
      "low": 703,
      "Ġun": 704,
      "ĠÃ¼": 705,
      "Ħëŀ": 706,
      "ĦìĹĲ": 707,
      "ĺìĹĲ": 708,
      "ľĦìĹĲ": 709,
      "ĠìľĦìĹĲ": 710,
      "Ġabo": 711,
      "ter": 712,
      "Ġbelow": 713,
      "ĠìķĦëŀ": 714,
      "Ġunter": 715,
      "ĠÃ¼ber": 716,
      "Ġabove": 717,
      "ĠìķĦëŀĺìĹĲ": 718,
      "Ġìĺ¤ë¦¬ë¥¼": 719,
      "ĠìĸĳìĿĦ": 720,
      "ĠìĨĮë¥¼": 721,
      "°ì§Ģ": 722,
      "Ġë°ĺê¸°ì§Ģ": 723,
      "ĠíĨłëģ¼ë¥¼": 724,
      "ĠëĴ¤ëĶ°ë¥´ì§Ģ": 725,
      "ron": 726,
      "Ġhi": 727,
      "ŀìĹĲ": 728,
      "Ġin": 729,
      "Ġvor": 730,
      "Ġfron": 731,
      "hind": 732,
      "Ġbehind": 733,
      "ĠìķŀìĹĲ": 734,
      "ĠëĴ¤ìĹĲ": 735,
      "nter": 736,
      "Ġhinter": 737,
      "Ġfront": 738,
      "Ġê³łìĸĳìĿ´ë¥¼": 739,
      "Ġê³°ìĿĦ": 740,
      "Ġë§ĲìĿĦ": 741,
      "ĠìĹ¬ìļ°ë¥¼": 742,
      "ben": 743,
      "ive": 744,
      "nf": 745,
      "ven": 746,
      "¼ê³": 747,
      "ìĦ¯": 748,
      "Ŀ¼ê³": 749,
      "ĠìĿ¼ê³": 750,
      "Ġëĭ¤": 751,
      "Ã¼nf": 752,
      "Ġfive": 753,
      "ĠfÃ¼nf": 754,
      "Ġseven": 755,
      "Ġsieben": 756,
      "ĠìĿ¼ê³±": 757,
      "Ġëĭ¤ìĦ¯": 758,
      "ier": 759,
      "ur": 760,
      "Ħ¤": 761,
      "ĠëĦ¤": 762,
      "Ġvier": 763,
      "Ġfour": 764,
      "¬ë": 765,
      "Ġei": 766,
      "įŁ": 767,
      "Ġacht": 768,
      "ĠìĹ¬ë": 769,
      "Ġeight": 770,
      "ĠìĹ¬ëįŁ": 771,
      "hre": 772,
      "rei": 773,
      "Ħ¸": 774,
      "ĠìĦ¸": 775,
      "Ġdrei": 776,
      "Ġthre": 777,
      "Ġthree": 778,
      "wo": 779,
      "wei": 780,
      "zwei": 781,
      "Ġzwei": 782,
      "ĠëĳĲ": 783,
      "Ġtwo": 784,
      "ix": 785,
      "Ġsix": 786,
      "Ġsechs": 787,
      "ĠìĹ¬ìĦ¯": 788,
      "ĠHunde": 789,
      "Ġdogs": 790,
      "ĠPferde": 791,
      "Ġhorses": 792,
      "ĠìĤ¬ìŀĲìĿĺ": 793,
      "ĠëĭŃìĿĺ": 794,
      "ce": 795,
      "ice": 796,
      "Ã¤use": 797,
      "ĠMÃ¤use": 798,
      "Ġmice": 799,
      "ĠìĨĮìĿĺ": 800,
      "ĠìĸĳìĿĺ": 801,
      "nten": 802,
      "ĠEnten": 803,
      "Ġducks": 804,
      "Ġë§ĲìĿĺ": 805,
      "Ġsee": 806,
      "Ġcats": 807,
      "ĠKatzen": 808,
      "Ġê³łìĸĳìĿ´ìĿĺ": 809,
      "Ġrabbits": 810,
      "Ġì¥ĲìĿĺ": 811,
      "Ġê³°ìĿĺ": 812,
      "Ġê°ľìĿĺ": 813,
      "ĠSchafe": 814,
      "ĠíĨłëģ¼ìĿĺ": 815,
      "Ġlions": 816,
      "chse": 817,
      "Ã¼chse": 818,
      "ĠFÃ¼chse": 819,
      "Ġfoxes": 820,
      "Ġbears": 821,
      "hn": 822,
      "Ã¼hn": 823,
      "ĠHÃ¼hn": 824,
      "Ġchickens": 825,
      "ĠHÃ¼hner": 826,
      "Ã¼he": 827,
      "ĠKÃ¼he": 828,
      "Ġcows": 829,
      "ĠìĹ¬ìļ°ìĿĺ": 830,
      "Ġìĺ¤ë¦¬ìĿĺ": 831
    },
    "merges": [
      [
        "Ġ",
        "ì"
      ],
      [
        "ì",
        "Ŀ"
      ],
      [
        "Ġ",
        "ë"
      ],
      [
        "e",
        "n"
      ],
      [
        "h",
        "e"
      ],
      [
        "Ġ",
        "g"
      ],
      [
        "ì",
        "ĥ"
      ],
      [
        "ìĥ",
        "ī"
      ],
      [
        "ĭ",
        "¤"
      ],
      [
        "u",
        "n"
      ],
      [
        "Ġ",
        "d"
      ],
      [
        "Ġ",
        "ê"
      ],
      [
        "Ġ",
        "t"
      ],
      [
        "Ġ",
        "b"
      ],
      [
        "Ġ",
        "s"
      ],
      [
        "Ġg",
        "r"
      ],
      [
        "ë",
        "ĭ¤"
      ],
      [
        "Ġt",
        "he"
      ],
      [
        "Ģ",
        "ìĥī"
      ],
      [
        "ìĿ",
        "´"
      ],
      [
        "Ġ",
        "a"
      ],
      [
        "c",
        "h"
      ],
      [
        "t",
        "e"
      ],
      [
        "Ġê",
        "²"
      ],
      [
        "Ġ",
        "í"
      ],
      [
        "l",
        "a"
      ],
      [
        "ë",
        "Ĭ"
      ],
      [
        "ê",
        "°"
      ],
      [
        "l",
        "l"
      ],
      [
        "Ã",
        "Ł"
      ],
      [
        "ëĬ",
        "Ķ"
      ],
      [
        "un",
        "g"
      ],
      [
        "ìĿ",
        "Ģ"
      ],
      [
        "ë",
        "¦"
      ],
      [
        "e",
        "i"
      ],
      [
        "e",
        "r"
      ],
      [
        "¬",
        "ì"
      ],
      [
        "Ġ",
        "w"
      ],
      [
        "Ġ",
        "r"
      ],
      [
        "Ġ",
        "i"
      ],
      [
        "ëĭ¤",
        "ëĬĶ"
      ],
      [
        "Ġê²",
        "ĥ"
      ],
      [
        "Ġi",
        "s"
      ],
      [
        "Ġ",
        "y"
      ],
      [
        "Ġì",
        "ŀ"
      ],
      [
        "o",
        "w"
      ],
      [
        "un",
        "d"
      ],
      [
        "ë",
        "ŀ"
      ],
      [
        "ê°",
        "Ģ"
      ],
      [
        "o",
        "l"
      ],
      [
        "Ã",
        "¼"
      ],
      [
        "ëŀ",
        "Ģìĥī"
      ],
      [
        "Ġb",
        "la"
      ],
      [
        "c",
        "k"
      ],
      [
        "Ġ",
        "v"
      ],
      [
        "ì",
        "ĸ"
      ],
      [
        "ë",
        "¥"
      ],
      [
        "n",
        "d"
      ],
      [
        "o",
        "n"
      ],
      [
        "Ĥ",
        "¬ì"
      ],
      [
        "Ġì",
        "Ĥ¬ì"
      ],
      [
        "T",
        "he"
      ],
      [
        "Ġ",
        "und"
      ],
      [
        "Ġa",
        "nd"
      ],
      [
        "u",
        "e"
      ],
      [
        "n",
        "e"
      ],
      [
        "ÃŁ",
        "e"
      ],
      [
        "ll",
        "ow"
      ],
      [
        "Ġg",
        "e"
      ],
      [
        "Ġì",
        "ĸ"
      ],
      [
        "Ġ",
        "f"
      ],
      [
        "Ġgr",
        "e"
      ],
      [
        "i",
        "e"
      ],
      [
        "g",
        "e"
      ],
      [
        "r",
        "ge"
      ],
      [
        "Ġ",
        "la"
      ],
      [
        "ģ",
        "°"
      ],
      [
        "Ġgr",
        "o"
      ],
      [
        "Ġla",
        "rge"
      ],
      [
        "a",
        "ll"
      ],
      [
        "k",
        "l"
      ],
      [
        "m",
        "all"
      ],
      [
        "Ġ",
        "kl"
      ],
      [
        "ĳ",
        "ìĿĢ"
      ],
      [
        "Ġs",
        "mall"
      ],
      [
        "Ġkl",
        "ei"
      ],
      [
        "a",
        "r"
      ],
      [
        "j",
        "ung"
      ],
      [
        "o",
        "ung"
      ],
      [
        "´",
        "ë¦"
      ],
      [
        "Ġ",
        "jung"
      ],
      [
        "Ġy",
        "oung"
      ],
      [
        "´ë¦",
        "°"
      ],
      [
        "Ġ",
        "K"
      ],
      [
        "Ġ",
        "ol"
      ],
      [
        "Ļ",
        "ìĿĢ"
      ],
      [
        "Ġa",
        "l"
      ],
      [
        "Ġol",
        "d"
      ],
      [
        "ê",
        "³"
      ],
      [
        "ĳ",
        "Ĳ"
      ],
      [
        "s",
        "e"
      ],
      [
        "Ġë",
        "§"
      ],
      [
        "¨",
        "ë"
      ],
      [
        "ª",
        "¨ë"
      ],
      [
        "Ġë",
        "ª¨ë"
      ],
      [
        "ĭ¤",
        "ìĿ´"
      ],
      [
        "Ġê²ĥ",
        "ìĿ´"
      ],
      [
        "Ġê²ĥ",
        "ê³"
      ],
      [
        "Ġìŀ",
        "Ī"
      ],
      [
        "ĠìĤ¬ì",
        "ĭ¤ìĿ´"
      ],
      [
        "Ġëª¨ë",
        "ĳĲ"
      ],
      [
        "Ġê²ĥê³",
        "¼"
      ],
      [
        "ĠìĤ¬ìĭ¤ìĿ´",
        "ëĭ¤"
      ],
      [
        "e",
        "d"
      ],
      [
        "Ġgr",
        "Ã¼"
      ],
      [
        "h",
        "i"
      ],
      [
        "Ġf",
        "o"
      ],
      [
        "ë¥",
        "¼"
      ],
      [
        "a",
        "s"
      ],
      [
        "Ġv",
        "on"
      ],
      [
        "e",
        "m"
      ],
      [
        "Ġd",
        "em"
      ],
      [
        "z",
        "e"
      ],
      [
        "Ġí",
        "ģ°"
      ],
      [
        "Ġìŀ",
        "ĳìĿĢ"
      ],
      [
        "Ġìĸ",
        "´ë¦°"
      ],
      [
        "Ĭ",
        "ĻìĿĢ"
      ],
      [
        "Ġë",
        "ĬĻìĿĢ"
      ],
      [
        "Ġ",
        "H"
      ],
      [
        "e",
        "llow"
      ],
      [
        "l",
        "b"
      ],
      [
        "¸",
        "ëŀĢìĥī"
      ],
      [
        "ħ",
        "¸ëŀĢìĥī"
      ],
      [
        "Ġë",
        "ħ¸ëŀĢìĥī"
      ],
      [
        "Ġy",
        "ellow"
      ],
      [
        "Ġge",
        "lb"
      ],
      [
        "w",
        "ar"
      ],
      [
        "Ģ",
        "ìĿ"
      ],
      [
        "Ġs",
        "ch"
      ],
      [
        "Ġê²",
        "ĢìĿ"
      ],
      [
        "Ġbla",
        "ck"
      ],
      [
        "Ġsch",
        "war"
      ],
      [
        "Ġê²ĢìĿ",
        "Ģìĥī"
      ],
      [
        "l",
        "ue"
      ],
      [
        "Į",
        "Į"
      ],
      [
        "Ġb",
        "lue"
      ],
      [
        "Ġí",
        "ĮĮ"
      ],
      [
        "ĠíĮĮ",
        "ëŀĢìĥī"
      ],
      [
        "Ġgro",
        "ÃŁe"
      ],
      [
        "Ġklei",
        "ne"
      ],
      [
        "Ġjung",
        "e"
      ],
      [
        "¨",
        "ê°"
      ],
      [
        "¹",
        "¨ê°"
      ],
      [
        "Ħ",
        "ìĥī"
      ],
      [
        "Ġë",
        "¹¨ê°"
      ],
      [
        "Ġr",
        "o"
      ],
      [
        "Ġr",
        "ed"
      ],
      [
        "Ġë¹¨ê°",
        "Ħìĥī"
      ],
      [
        "Ġ",
        "c"
      ],
      [
        "Ġd",
        "er"
      ],
      [
        "Ġal",
        "te"
      ],
      [
        "ĠK",
        "a"
      ],
      [
        "¡",
        "Ŀ"
      ],
      [
        "´",
        "Ī"
      ],
      [
        "ë",
        "¡Ŀ"
      ],
      [
        "Ġì",
        "´Ī"
      ],
      [
        "Ġgre",
        "en"
      ],
      [
        "ë¡Ŀ",
        "ìĥī"
      ],
      [
        "Ġì´Ī",
        "ë¡Ŀìĥī"
      ],
      [
        "Ġê",
        "³"
      ],
      [
        "r",
        "e"
      ],
      [
        "ķ",
        "ĺ"
      ],
      [
        "Ġí",
        "ķĺ"
      ],
      [
        "Ġw",
        "ei"
      ],
      [
        "Ġw",
        "hi"
      ],
      [
        "ìĸ",
        "Ģìĥī"
      ],
      [
        "Ġíķĺ",
        "ìĸĢìĥī"
      ],
      [
        "Ġwhi",
        "te"
      ],
      [
        "n",
        "i"
      ],
      [
        "ë¦",
        "¬"
      ],
      [
        "t",
        "en"
      ],
      [
        "u",
        "h"
      ],
      [
        "i",
        "r"
      ],
      [
        "ì",
        "Ĺ"
      ],
      [
        "ìĿ",
        "ĺ"
      ],
      [
        "Ġb",
        "y"
      ],
      [
        "Ġw",
        "ir"
      ],
      [
        "Ġis",
        "t"
      ],
      [
        "Ġë§",
        "Ī"
      ],
      [
        "ĠìŀĪ",
        "ëĭ¤ëĬĶ"
      ],
      [
        "ìĹ",
        "Ĳ"
      ],
      [
        "Ġwir",
        "d"
      ],
      [
        "¸",
        "ëĭ¤ëĬĶ"
      ],
      [
        "ÃŁ",
        "en"
      ],
      [
        "n",
        "en"
      ],
      [
        "Ġs",
        "e"
      ],
      [
        "Ġ",
        "l"
      ],
      [
        "Ġb",
        "e"
      ],
      [
        "Ġd",
        "o"
      ],
      [
        "Ġd",
        "as"
      ],
      [
        "Ġì",
        "Ĺ"
      ],
      [
        "Ġì",
        "ķ"
      ],
      [
        "Ĵ",
        "¤"
      ],
      [
        "Ġë",
        "Ĵ¤"
      ],
      [
        "Ġd",
        "ie"
      ],
      [
        "ĳ",
        "ìĿ´"
      ],
      [
        "ch",
        "t"
      ],
      [
        "Ġgelb",
        "e"
      ],
      [
        "Ġschwar",
        "ze"
      ],
      [
        "Ġbla",
        "ue"
      ],
      [
        "Ġl",
        "i"
      ],
      [
        "Ġro",
        "te"
      ],
      [
        "ĠgrÃ¼",
        "ne"
      ],
      [
        "Ġwei",
        "ÃŁe"
      ],
      [
        "ë¦¬",
        "ê°Ģ"
      ],
      [
        "o",
        "r"
      ],
      [
        "ĺ",
        "¤"
      ],
      [
        "Ġì",
        "ĺ¤"
      ],
      [
        "ĠìĹ",
        "¬ì"
      ],
      [
        "°",
        "ĺ"
      ],
      [
        "ê",
        "¸"
      ],
      [
        "Ġë",
        "°ĺ"
      ],
      [
        "ÃŁ",
        "t"
      ],
      [
        "Ġgre",
        "e"
      ],
      [
        "Ġë°ĺ",
        "ê¸"
      ],
      [
        "f",
        "ol"
      ],
      [
        "g",
        "t"
      ],
      [
        "°",
        "ë¥"
      ],
      [
        "ë",
        "Ķ"
      ],
      [
        "er",
        "fol"
      ],
      [
        "Ġv",
        "erfol"
      ],
      [
        "Ġfo",
        "llow"
      ],
      [
        "ĠëĴ¤",
        "ëĶ"
      ],
      [
        "Ġverfol",
        "gt"
      ],
      [
        "ĠëĴ¤ëĶ",
        "°ë¥"
      ],
      [
        "Ġë",
        "³"
      ],
      [
        "ìĿ",
        "Ħ"
      ],
      [
        "Ã",
        "¤"
      ],
      [
        "n",
        "te"
      ],
      [
        "h",
        "t"
      ],
      [
        "ch",
        "s"
      ],
      [
        "L",
        "Ã"
      ],
      [
        "¶",
        "w"
      ],
      [
        "Ġ",
        "LÃ"
      ],
      [
        "ŀ",
        "Ĳ"
      ],
      [
        "ĠìĤ¬ì",
        "ŀĲ"
      ],
      [
        "Ġli",
        "on"
      ],
      [
        "ĠLÃ",
        "¶w"
      ],
      [
        "°",
        "ľ"
      ],
      [
        "Ġê",
        "°ľ"
      ],
      [
        "ĠH",
        "und"
      ],
      [
        "Ġdo",
        "g"
      ],
      [
        "i",
        "ck"
      ],
      [
        "Ġ",
        "ch"
      ],
      [
        "ĭ",
        "Ń"
      ],
      [
        "Ġë",
        "ĭŃ"
      ],
      [
        "ick",
        "en"
      ],
      [
        "Ġch",
        "icken"
      ],
      [
        "Ġgro",
        "ÃŁen"
      ],
      [
        "u",
        "se"
      ],
      [
        "¥",
        "Ĳ"
      ],
      [
        "Ġ",
        "M"
      ],
      [
        "Ġ",
        "m"
      ],
      [
        "Ġì",
        "¥Ĳ"
      ],
      [
        "S",
        "ch"
      ],
      [
        "a",
        "f"
      ],
      [
        "e",
        "p"
      ],
      [
        "Ġ",
        "Sch"
      ],
      [
        "he",
        "ep"
      ],
      [
        "Ġs",
        "heep"
      ],
      [
        "ĠSch",
        "af"
      ],
      [
        "Ĩ",
        "Į"
      ],
      [
        "Ġì",
        "ĨĮ"
      ],
      [
        "Ġc",
        "ow"
      ],
      [
        "Ġjung",
        "en"
      ],
      [
        "Ġklei",
        "nen"
      ],
      [
        "P",
        "f"
      ],
      [
        "h",
        "or"
      ],
      [
        "Ġ",
        "Pf"
      ],
      [
        "Ġ",
        "hor"
      ],
      [
        "er",
        "d"
      ],
      [
        "Ġë§",
        "Ĳ"
      ],
      [
        "ĠPf",
        "erd"
      ],
      [
        "Ġhor",
        "se"
      ],
      [
        "a",
        "b"
      ],
      [
        "b",
        "i"
      ],
      [
        "n",
        "ch"
      ],
      [
        "ë",
        "ģ"
      ],
      [
        "Ĩ",
        "ł"
      ],
      [
        "Ġí",
        "Ĩł"
      ],
      [
        "Ġr",
        "ab"
      ],
      [
        "ĠKa",
        "ni"
      ],
      [
        "bi",
        "t"
      ],
      [
        "nch",
        "en"
      ],
      [
        "ëģ",
        "¼"
      ],
      [
        "ĠíĨł",
        "ëģ¼"
      ],
      [
        "Ġrab",
        "bit"
      ],
      [
        "ĠKani",
        "nchen"
      ],
      [
        "e",
        "s"
      ],
      [
        "a",
        "t"
      ],
      [
        "ł",
        "ìĸ"
      ],
      [
        "Ġc",
        "at"
      ],
      [
        "ĠKa",
        "t"
      ],
      [
        "Ġê³",
        "łìĸ"
      ],
      [
        "Ġê³łìĸ",
        "ĳìĿ´"
      ],
      [
        "Ġal",
        "ten"
      ],
      [
        "u",
        "ck"
      ],
      [
        "Ġ",
        "E"
      ],
      [
        "Ġd",
        "uck"
      ],
      [
        "B",
        "Ã¤"
      ],
      [
        "Ġ",
        "BÃ¤"
      ],
      [
        "Ġê³",
        "°"
      ],
      [
        "Ġbe",
        "ar"
      ],
      [
        "ĠBÃ¤",
        "r"
      ],
      [
        "Ġ",
        "F"
      ],
      [
        "ļ",
        "°"
      ],
      [
        "Ġfo",
        "x"
      ],
      [
        "ĠìĹ¬ì",
        "ļ°"
      ],
      [
        "ĠH",
        "uh"
      ],
      [
        "ĠHuh",
        "n"
      ],
      [
        "ĠK",
        "uh"
      ],
      [
        "a",
        "u"
      ],
      [
        "o",
        "use"
      ],
      [
        "ĠM",
        "au"
      ],
      [
        "Ġm",
        "ouse"
      ],
      [
        "ĠMau",
        "s"
      ],
      [
        "´",
        "ëĭ¤ëĬĶ"
      ],
      [
        "Ġë°ĺê¸",
        "´ëĭ¤ëĬĶ"
      ],
      [
        "ĠëĴ¤ëĶ°ë¥",
        "¸ëĭ¤ëĬĶ"
      ],
      [
        "ì",
        "ŀ"
      ],
      [
        "ìŀ",
        "ĳìĿĢ"
      ],
      [
        "o",
        "f"
      ],
      [
        "Ġ",
        "of"
      ],
      [
        "ëĬ",
        "ĻìĿĢ"
      ],
      [
        "D",
        "er"
      ],
      [
        "D",
        "ie"
      ],
      [
        "E",
        "s"
      ],
      [
        "b",
        "t"
      ],
      [
        "i",
        "bt"
      ],
      [
        "n",
        "o"
      ],
      [
        "§",
        "Ģ"
      ],
      [
        "ì",
        "§Ģ"
      ],
      [
        "í",
        "ģ°"
      ],
      [
        "Ġ",
        "ni"
      ],
      [
        "Ġ",
        "no"
      ],
      [
        "Ĭ",
        "ëĬĶ"
      ],
      [
        "Ļ",
        "Ģ"
      ],
      [
        "Ġg",
        "ibt"
      ],
      [
        "Ġa",
        "re"
      ],
      [
        "ë¦",
        "¬ì"
      ],
      [
        "The",
        "re"
      ],
      [
        "ĠìŀĪ",
        "ëĭ¤"
      ],
      [
        "Ġë§Ī",
        "ë¦¬ê°Ģ"
      ],
      [
        "Ġë§Ī",
        "ë¦¬ì"
      ],
      [
        "Ġìķ",
        "ĬëĬĶ"
      ],
      [
        "Ġni",
        "cht"
      ],
      [
        "Ġno",
        "t"
      ],
      [
        "Ġë§Īë¦¬ì",
        "ĻĢ"
      ],
      [
        "ĠìķĬëĬĶ",
        "ëĭ¤ëĬĶ"
      ],
      [
        "D",
        "as"
      ],
      [
        "ìĸ",
        "´ë¦°"
      ],
      [
        "Ġë³",
        "¸ëĭ¤ëĬĶ"
      ],
      [
        "ĠKat",
        "ze"
      ],
      [
        "ĠE",
        "nte"
      ],
      [
        "Ġs",
        "ie"
      ],
      [
        "z",
        "en"
      ],
      [
        "u",
        "chs"
      ],
      [
        "ĠF",
        "uchs"
      ],
      [
        "u",
        "en"
      ],
      [
        "Ġbla",
        "uen"
      ],
      [
        "Ġgelb",
        "en"
      ],
      [
        "Ġschwar",
        "zen"
      ],
      [
        "Ġro",
        "ten"
      ],
      [
        "Ġwei",
        "ÃŁen"
      ],
      [
        "ĠgrÃ¼",
        "nen"
      ],
      [
        "ĠLÃ¶w",
        "en"
      ],
      [
        "ª",
        "½"
      ],
      [
        "ì",
        "ª½"
      ],
      [
        "Ġt",
        "o"
      ],
      [
        "ìª½",
        "ìĹĲ"
      ],
      [
        "g",
        "r"
      ],
      [
        "te",
        "d"
      ],
      [
        "Ã¼",
        "ÃŁt"
      ],
      [
        "Ġge",
        "gr"
      ],
      [
        "ĠgrÃ¼",
        "ÃŁt"
      ],
      [
        "Ġgree",
        "t"
      ],
      [
        "Ġgree",
        "ted"
      ],
      [
        "Ġgegr",
        "Ã¼ÃŁt"
      ],
      [
        "Ġìĸ",
        "ĳ"
      ],
      [
        "Ġfollow",
        "ed"
      ],
      [
        "Ġd",
        "en"
      ],
      [
        "´",
        "ì§Ģ"
      ],
      [
        "h",
        "en"
      ],
      [
        "Ġge",
        "se"
      ],
      [
        "Ġse",
        "en"
      ],
      [
        "Ġsie",
        "ht"
      ],
      [
        "Ġgese",
        "hen"
      ],
      [
        "Ġìĺ¤",
        "ë¦¬"
      ],
      [
        "ĠBÃ¤r",
        "en"
      ],
      [
        "v",
        "e"
      ],
      [
        "g",
        "ht"
      ],
      [
        "Ħ",
        "¯"
      ],
      [
        "ĠìĤ¬ìŀĲ",
        "ê°Ģ"
      ],
      [
        "ĠLÃ¶w",
        "e"
      ],
      [
        "ĠëĭŃ",
        "ìĿ´"
      ],
      [
        "Ġê°ľ",
        "ê°Ģ"
      ],
      [
        "ĠìĨĮ",
        "ê°Ģ"
      ],
      [
        "Ġìĸ",
        "ĳìĿ´"
      ],
      [
        "Ġì¥Ĳ",
        "ê°Ģ"
      ],
      [
        "Ġgreet",
        "s"
      ],
      [
        "Ġfollow",
        "s"
      ],
      [
        "Ġdo",
        "es"
      ],
      [
        "ĠíĨłëģ¼",
        "ê°Ģ"
      ],
      [
        "Ġse",
        "es"
      ],
      [
        "Ġê³łìĸĳìĿ´",
        "ê°Ģ"
      ],
      [
        "Ġë§Ĳ",
        "ìĿ´"
      ],
      [
        "Ġìĺ¤",
        "ë¦¬ê°Ģ"
      ],
      [
        "Ġê³°",
        "ìĿ´"
      ],
      [
        "ĠìĹ¬ìļ°",
        "ê°Ģ"
      ],
      [
        "ĠìĤ¬ìŀĲ",
        "ë¥¼"
      ],
      [
        "Ġê°ľ",
        "ë¥¼"
      ],
      [
        "ĠëĭŃ",
        "ìĿĦ"
      ],
      [
        "Ġì¥Ĳ",
        "ë¥¼"
      ],
      [
        "e",
        "f"
      ],
      [
        "e",
        "cht"
      ],
      [
        "i",
        "ght"
      ],
      [
        "k",
        "s"
      ],
      [
        "n",
        "ks"
      ],
      [
        "¸",
        "ìª½ìĹĲ"
      ],
      [
        "¼",
        "ìª½ìĹĲ"
      ],
      [
        "Ļ",
        "¼ìª½ìĹĲ"
      ],
      [
        "Ġì",
        "Ļ¼ìª½ìĹĲ"
      ],
      [
        "Ġr",
        "echt"
      ],
      [
        "Ġr",
        "ight"
      ],
      [
        "ë¥",
        "¸ìª½ìĹĲ"
      ],
      [
        "Ġl",
        "ef"
      ],
      [
        "Ġli",
        "nks"
      ],
      [
        "Ġìĺ¤",
        "ë¥¸ìª½ìĹĲ"
      ],
      [
        "Ġrecht",
        "s"
      ],
      [
        "Ġlef",
        "t"
      ],
      [
        "Ġë³",
        "´ì§Ģ"
      ],
      [
        "b",
        "o"
      ],
      [
        "b",
        "er"
      ],
      [
        "l",
        "ow"
      ],
      [
        "Ġ",
        "un"
      ],
      [
        "Ġ",
        "Ã¼"
      ],
      [
        "Ħ",
        "ëŀ"
      ],
      [
        "Ħ",
        "ìĹĲ"
      ],
      [
        "ĺ",
        "ìĹĲ"
      ],
      [
        "ľ",
        "ĦìĹĲ"
      ],
      [
        "Ġì",
        "ľĦìĹĲ"
      ],
      [
        "Ġa",
        "bo"
      ],
      [
        "te",
        "r"
      ],
      [
        "Ġbe",
        "low"
      ],
      [
        "Ġìķ",
        "Ħëŀ"
      ],
      [
        "Ġun",
        "ter"
      ],
      [
        "ĠÃ¼",
        "ber"
      ],
      [
        "Ġabo",
        "ve"
      ],
      [
        "ĠìķĦëŀ",
        "ĺìĹĲ"
      ],
      [
        "Ġìĺ¤ë¦¬",
        "ë¥¼"
      ],
      [
        "Ġìĸĳ",
        "ìĿĦ"
      ],
      [
        "ĠìĨĮ",
        "ë¥¼"
      ],
      [
        "°",
        "ì§Ģ"
      ],
      [
        "Ġë°ĺê¸",
        "°ì§Ģ"
      ],
      [
        "ĠíĨłëģ¼",
        "ë¥¼"
      ],
      [
        "ĠëĴ¤ëĶ°ë¥",
        "´ì§Ģ"
      ],
      [
        "r",
        "on"
      ],
      [
        "Ġ",
        "hi"
      ],
      [
        "ŀ",
        "ìĹĲ"
      ],
      [
        "Ġi",
        "n"
      ],
      [
        "Ġv",
        "or"
      ],
      [
        "Ġf",
        "ron"
      ],
      [
        "hi",
        "nd"
      ],
      [
        "Ġbe",
        "hind"
      ],
      [
        "Ġìķ",
        "ŀìĹĲ"
      ],
      [
        "ĠëĴ¤",
        "ìĹĲ"
      ],
      [
        "nte",
        "r"
      ],
      [
        "Ġhi",
        "nter"
      ],
      [
        "Ġfron",
        "t"
      ],
      [
        "Ġê³łìĸĳìĿ´",
        "ë¥¼"
      ],
      [
        "Ġê³°",
        "ìĿĦ"
      ],
      [
        "Ġë§Ĳ",
        "ìĿĦ"
      ],
      [
        "ĠìĹ¬ìļ°",
        "ë¥¼"
      ],
      [
        "b",
        "en"
      ],
      [
        "i",
        "ve"
      ],
      [
        "n",
        "f"
      ],
      [
        "v",
        "en"
      ],
      [
        "¼",
        "ê³"
      ],
      [
        "ì",
        "Ħ¯"
      ],
      [
        "Ŀ",
        "¼ê³"
      ],
      [
        "Ġì",
        "Ŀ¼ê³"
      ],
      [
        "Ġë",
        "ĭ¤"
      ],
      [
        "Ã¼",
        "nf"
      ],
      [
        "Ġf",
        "ive"
      ],
      [
        "Ġf",
        "Ã¼nf"
      ],
      [
        "Ġse",
        "ven"
      ],
      [
        "Ġsie",
        "ben"
      ],
      [
        "ĠìĿ¼ê³",
        "±"
      ],
      [
        "Ġëĭ¤",
        "ìĦ¯"
      ],
      [
        "i",
        "er"
      ],
      [
        "u",
        "r"
      ],
      [
        "Ħ",
        "¤"
      ],
      [
        "Ġë",
        "Ħ¤"
      ],
      [
        "Ġv",
        "ier"
      ],
      [
        "Ġfo",
        "ur"
      ],
      [
        "¬",
        "ë"
      ],
      [
        "Ġ",
        "ei"
      ],
      [
        "į",
        "Ł"
      ],
      [
        "Ġa",
        "cht"
      ],
      [
        "ĠìĹ",
        "¬ë"
      ],
      [
        "Ġei",
        "ght"
      ],
      [
        "ĠìĹ¬ë",
        "įŁ"
      ],
      [
        "h",
        "re"
      ],
      [
        "r",
        "ei"
      ],
      [
        "Ħ",
        "¸"
      ],
      [
        "Ġì",
        "Ħ¸"
      ],
      [
        "Ġd",
        "rei"
      ],
      [
        "Ġt",
        "hre"
      ],
      [
        "Ġthre",
        "e"
      ],
      [
        "w",
        "o"
      ],
      [
        "w",
        "ei"
      ],
      [
        "z",
        "wei"
      ],
      [
        "Ġ",
        "zwei"
      ],
      [
        "Ġë",
        "ĳĲ"
      ],
      [
        "Ġt",
        "wo"
      ],
      [
        "i",
        "x"
      ],
      [
        "Ġs",
        "ix"
      ],
      [
        "Ġse",
        "chs"
      ],
      [
        "ĠìĹ¬ì",
        "Ħ¯"
      ],
      [
        "ĠHund",
        "e"
      ],
      [
        "Ġdog",
        "s"
      ],
      [
        "ĠPferd",
        "e"
      ],
      [
        "Ġhorse",
        "s"
      ],
      [
        "ĠìĤ¬ìŀĲ",
        "ìĿĺ"
      ],
      [
        "ĠëĭŃ",
        "ìĿĺ"
      ],
      [
        "c",
        "e"
      ],
      [
        "i",
        "ce"
      ],
      [
        "Ã¤",
        "use"
      ],
      [
        "ĠM",
        "Ã¤use"
      ],
      [
        "Ġm",
        "ice"
      ],
      [
        "ĠìĨĮ",
        "ìĿĺ"
      ],
      [
        "Ġìĸĳ",
        "ìĿĺ"
      ],
      [
        "n",
        "ten"
      ],
      [
        "ĠE",
        "nten"
      ],
      [
        "Ġduck",
        "s"
      ],
      [
        "Ġë§Ĳ",
        "ìĿĺ"
      ],
      [
        "Ġse",
        "e"
      ],
      [
        "Ġcat",
        "s"
      ],
      [
        "ĠKat",
        "zen"
      ],
      [
        "Ġê³łìĸĳìĿ´",
        "ìĿĺ"
      ],
      [
        "Ġrabbit",
        "s"
      ],
      [
        "Ġì¥Ĳ",
        "ìĿĺ"
      ],
      [
        "Ġê³°",
        "ìĿĺ"
      ],
      [
        "Ġê°ľ",
        "ìĿĺ"
      ],
      [
        "ĠSchaf",
        "e"
      ],
      [
        "ĠíĨłëģ¼",
        "ìĿĺ"
      ],
      [
        "Ġlion",
        "s"
      ],
      [
        "ch",
        "se"
      ],
      [
        "Ã¼",
        "chse"
      ],
      [
        "ĠF",
        "Ã¼chse"
      ],
      [
        "Ġfox",
        "es"
      ],
      [
        "Ġbear",
        "s"
      ],
      [
        "h",
        "n"
      ],
      [
        "Ã¼",
        "hn"
      ],
      [
        "ĠH",
        "Ã¼hn"
      ],
      [
        "Ġchicken",
        "s"
      ],
      [
        "ĠHÃ¼hn",
        "er"
      ],
      [
        "Ã¼",
        "he"
      ],
      [
        "ĠK",
        "Ã¼he"
      ],
      [
        "Ġcow",
        "s"
      ],
      [
        "ĠìĹ¬ìļ°",
        "ìĿĺ"
      ],
      [
        "Ġìĺ¤ë¦¬",
        "ìĿĺ"
      ]
    ]
  }
}