{
  "version": "1.0",
  "truncation": null,
  "padding": null,
  "added_tokens": [
    {
      "id": 0,
      "content": "[PAD]",
      "single_word": false,
      "lstrip": false,
      "rstrip": false,
      "normalized": false,
      "special": true
    },
    {
      "id": 1,
      "content": "[UNK]",
      "single_word": false,
      "lstrip": false,
      "rstrip": false,
      "normalized": false,
      "special": true
    },
    {
      "id": 2,
      "content": "[SEP]",
      "single_word": false,
      "lstrip": false,
      "rstrip": false,
      "normalized": false,
      "special": true
    },
    {
      "id": 3,
      "content": "[EOS]",
      "single_word": false,
      "lstrip": false,
      "rstrip": false,
      "normalized": false,
      "special": true
    }
  ],
  "normalizer": {
    "type": "NFC"
  },
  "pre_tokenizer": {
    "type": "ByteLevel",
    "add_prefix_space": false,
    "trim_offsets": true,
    "use_regex": true
  },
  "post_processor": null,
  "decoder": {
    "type": "ByteLevel",
    "add_prefix_space": true,
    "trim_offsets": true,
    "use_regex": true
  },
  "model": {
    "type": "BPE",
    "dropout": null,
    "unk_token": "[UNK]",
    "continuing_subword_prefix": null,
    "end_of_word_suffix": null,
    "fuse_unk": false,
    "byte_fallback": false,
    "ignore_merges": false,
    "vocab": {
      "[PAD]": 0,
      "[UNK]": 1,
      "[SEP]": 2,
      "[EOS]": 3,
      "!": 4,
      "\"": 5,
      "#": 6,
      "$": 7,
      "%": 8,
      "&": 9,
      "'": 10,
      "(": 11,
      ")": 12,
      "*": 13,
      "+": 14,
      ",": 15,
      "-": 16,
      ".": 17,
      "/": 18,
      "0": 19,
      "1": 20,
      "2": 21,
      "3": 22,
      "4": 23,
      "5": 24,
      "6": 25,
      "7": 26,
      "8": 27,
      "9": 28,
      ":": 29,
      ";": 30,
      "<": 31,
      "=": 32,
      ">": 33,
      "?": 34,
      "@": 35,
      "A": 36,
      "B": 37,
      "C": 38,
      "D": 39,
      "E": 40,
      "F": 41,
      "G": 42,
      "H": 43,
      "I": 44,
      "J": 45,
      "K": 46,
      "L": 47,
      "M": 48,
      "N": 49,
      "O": 50,
      "P": 51,
      "Q": 52,
      "R": 53,
      "S": 54,
      "T": 55,
      "U": 56,
      "V": 57,
      "W": 58,
      "X": 59,
      "Y": 60,
      "Z": 61,
      "[": 62,
      "\\": 63,
      "]": 64,
      "^": 65,
      "_": 66,
      "`": 67,
      "a": 68,
      "b": 69,
      "c": 70,
      "d": 71,
      "e": 72,
      "f": 73,
      "g": 74,
      "h": 75,
      "i": 76,
      "j": 77,
      "k": 78,
      "l": 79,
      "m": 80,
      "n": 81,
      "o": 82,
      "p": 83,
      "q": 84,
      "r": 85,
      "s": 86,
      "t": 87,
      "u": 88,
      "v": 89,
      "w": 90,
      "x": 91,
      "y": 92,
      "z": 93,
      "{": 94,
      "|": 95,
      "}": 96,
      "~": 97,
      "¡": 98,
      "¢": 99,
      "£": 100,
      "¤": 101,
      "¥": 102,
      "¦": 103,
      "§": 104,
      "¨": 105,
      "©": 106,
      "ª": 107,
      "«": 108,
      "¬": 109,
      "®": 110,
      "¯": 111,
      "°": 112,
      "±": 113,
      "²": 114,
      "³": 115,
      "´": 116,
      "µ": 117,
      "¶": 118,
      "·": 119,
      "¸": 120,
      "¹": 121,
      "º": 122,
      "»": 123,
      "¼": 124,
      "½": 125,
      "¾": 126,
      "¿": 127,
      "À": 128,
      "Á": 129,
      "Â": 130,
      "Ã": 131,
      "Ä": 132,
      "Å": 133,
      "Æ": 134,
      "Ç": 135,
      "È": 136,
      "É": 137,
      "Ê": 138,
      "Ë": 139,
      "Ì": 140,
      "Í": 141,
      "Î": 142,
      "Ï": 143,
      "Ð": 144,
      "Ñ": 145,
      "Ò": 146,
      "Ó": 147,
      "Ô": 148,
      "Õ": 149,
      "Ö": 150,
      "×": 151,
      "Ø": 152,
      "Ù": 153,
      "Ú": 154,
      "Û": 155,
      "Ü": 156,
      "Ý": 157,
      "Þ": 158,
      "ß": 159,
      "à": 160,
      "á": 161,
      "â": 162,
      "ã": 163,
      "ä": 164,
      "å": 165,
      "æ": 166,
      "ç": 167,
      "è": 168,
      "é": 169,
      "ê": 170,
      "ë": 171,
      "ì": 172,
      "í": 173,
      "î": 174,
      "ï": 175,
      "ð": 176,
      "ñ": 177,
      "ò": 178,
      "ó": 179,
      "ô": 180,
      "õ": 181,
      "ö": 182,
      "÷": 183,
      "ø": 184,
      "ù": 185,
      "ú": 186,
      "û": 187,
      "ü": 188,
      "ý": 189,
      "þ": 190,
      "ÿ": 191,
      "Ā": 192,
      "ā": 193,
      "Ă": 194,
      "ă": 195,
      "Ą": 196,
      "ą": 197,
      "Ć": 198,
      "ć": 199,
      "Ĉ": 200,
      "ĉ": 201,
      "Ċ": 202,
      "ċ": 203,
      "Č": 204,
      "č": 205,
      "Ď": 206,
      "ď": 207,
      "Đ": 208,
      "đ": 209,
      "Ē": 210,
      "ē": 211,
      "Ĕ": 212,
      "ĕ": 213,
      "Ė": 214,
      "ė": 215,
      "Ę": 216,
      "ę": 217,
      "Ě": 218,
      "ě": 219,
      "Ĝ": 220,
      "ĝ": 221,
      "Ğ": 222,
      "ğ": 223,
      "Ġ": 224,
      "ġ": 225,
      "Ģ": 226,
      "ģ": 227,
      "Ĥ": 228,
      "ĥ": 229,
      "Ħ": 230,
      "ħ": 231,
      "Ĩ": 232,
      "ĩ": 233,
      "Ī": 234,
      "ī": 235,
      "Ĭ": 236,
      "ĭ": 237,
      "Į": 238,
      "į": 239,
      "İ": 240,
      "ı": 241,
      "Ĳ": 242,
      "ĳ": 243,
      "Ĵ": 244,
      "ĵ": 245,
      "Ķ": 246,
      "ķ": 247,
      "ĸ": 248,
      "Ĺ": 249,
      "ĺ": 250,
      "Ļ": 251,
      "ļ": 252,
      "Ľ": 253,
      "ľ": 254,
      "Ŀ": 255,
      "ŀ": 256,
      "Ł": 257,
      "ł": 258,
      "Ń": 259,
      "Ġì": 260,
      "ìĿ": 261,
      "Ġë": 262,
      "en": 263,
      "he": 264,
      "Ġg": 265,
      "ĭ¤": 266,
      "un": 267,
      "Ġd": 268,
      "Ġê": 269,
      "Ġt": 270,
      "Ġb": 271,
      "Ġs": 272,
      "Ġgr": 273,
      "ìĿĢ": 274,
      "ëĭ¤": 275,
      "ìĿ´": 276,
      "Ġthe": 277,
      "ëĬ": 278,
      "Ġa": 279,
      "te": 280,
      "Ġê²": 281,
      "Ġí": 282,
      "ëĬĶ": 283,
      "la": 284,
      "ch": 285,
      "ll": 286,
      "ÃŁ": 287,
      "ung": 288,
      "ë¦": 289,
      "ei": 290,
      "er": 291,
      "¬ì": 292,
      "Ġw": 293,
      "Ġr": 294,
      "Ġi": 295,
      "ê°": 296,
      "ëĭ¤ëĬĶ": 297,
      "Ġê²ĥ": 298,
      "Ġis": 299,
      "Ġy": 300,
      "Ġìŀ": 301,
      "Ġv": 302,
      "ow": 303,
      "und": 304,
      "ëŀ": 305,
      "on": 306,
      "Ġo": 307,
      "ëŀĢ": 308,
      "Ġbla": 309,
      "Ġë§": 310,
      "ìĸ": 311,
      "Ã¼": 312,
      "ë¥": 313,
      "nd": 314,
      "Ĥ¬ì": 315,
      "ĠìĤ¬ì": 316,
      "fo": 317,
      "The": 318,
      "Ġund": 319,
      "Ġand": 320,
      "ue": 321,
      "ne": 322,
      "ÃŁe": 323,
      "llow": 324,
      "Ġge": 325,
      "ê°Ģ": 326,
      "ĳìĿĢ": 327,
      "Ġìĸ": 328,
      "Ġgre": 329,
      "ie": 330,
      "ge": 331,
      "rge": 332,
      "Ġla": 333,
      "ģ°": 334,
      "Ġgro": 335,
      "Ġlarge": 336,
      "ck": 337,
      "all": 338,
      "kl": 339,
      "mall": 340,
      "Ġkl": 341,
      "Ġsmall": 342,
      "Ġklei": 343,
      "ar": 344,
      "jung": 345,
      "oung": 346,
      "´ë¦": 347,
      "Ġjung": 348,
      "Ġyoung": 349,
      "´ë¦°": 350,
      "ĠK": 351,
      "ld": 352,
      "ĻìĿĢ": 353,
      "Ġal": 354,
      "Ġold": 355,
      "Ġvon": 356,
      "ê³": 357,
      "ĳĲ": 358,
      "se": 359,
      "lb": 360,
      "¨ë": 361,
      "ª¨ë": 362,
      "Ġëª¨ë": 363,
      "ĭ¤ìĿ´": 364,
      "Ġê²ĥìĿ´": 365,
      "Ġê²ĥê³": 366,
      "ĠìŀĪ": 367,
      "ĠìĤ¬ìĭ¤ìĿ´": 368,
      "Ġëª¨ëĳĲ": 369,
      "Ġê²ĥê³¼": 370,
      "ĠìĤ¬ìĭ¤ìĿ´ëĭ¤": 371,
      "ed": 372,
      "ĠgrÃ¼": 373,
      "hi": 374,
      "Ġfo": 375,
      "ë¥¼": 376,
      "as": 377,
      "em": 378,
      "Ġdem": 379,
      "ķĺ": 380,
      "ze": 381,
      "Ġíģ°": 382,
      "ĠìŀĳìĿĢ": 383,
      "Ġìĸ´ë¦°": 384,
      "ĬĻìĿĢ": 385,
      "ĠëĬĻìĿĢ": 386,
      "ĠH": 387,
      "ellow": 388,
      "¸ëŀĢ": 389,
      "ħ¸ëŀĢ": 390,
      "Ġëħ¸ëŀĢ": 391,
      "Ġyellow": 392,
      "Ġgelb": 393,
      "war": 394,
      "ĢìĿĢ": 395,
      "Ġsch": 396,
      "Ġê²ĢìĿĢ": 397,
      "Ġblack": 398,
      "Ġschwar": 399,
      "Ġh": 400,
      "lue": 401,
      "ĮĮ": 402,
      "Ġblue": 403,
      "ĠíĮĮ": 404,
      "ĠíĮĮëŀĢ": 405,
      "ĠgroÃŁe": 406,
      "Ġkleine": 407,
      "Ġjunge": 408,
      "¨ê°": 409,
      "¹¨ê°": 410,
      "Ġë¹¨ê°": 411,
      "Ġro": 412,
      "Ġred": 413,
      "Ġë¹¨ê°Ħ": 414,
      "Ġc": 415,
      "Ġder": 416,
      "Ġalte": 417,
      "ĠKa": 418,
      "¡Ŀ": 419,
      "´Ī": 420,
      "ë¡Ŀ": 421,
      "ìĥ": 422,
      "Ġì´Ī": 423,
      "Ġgreen": 424,
      "ë¡Ŀìĥ": 425,
      "Ġì´Īë¡Ŀìĥ": 426,
      "Ġì´Īë¡Ŀìĥī": 427,
      "Ġê³": 428,
      "re": 429,
      "Ġíķĺ": 430,
      "Ġwei": 431,
      "Ġwhi": 432,
      "ìĸĢ": 433,
      "ĠíķĺìĸĢ": 434,
      "Ġwhite": 435,
      "ni": 436,
      "ë¦¬": 437,
      "ten": 438,
      "uh": 439,
      "ir": 440,
      "ìĹ": 441,
      "ìĿĺ": 442,
      "Ġby": 443,
      "Ġwir": 444,
      "Ġist": 445,
      "Ġë§Ī": 446,
      "ĠìŀĪëĭ¤ëĬĶ": 447,
      "ìĹĲ": 448,
      "Ġwird": 449,
      "¸ëĭ¤ëĬĶ": 450,
      "ÃŁen": 451,
      "nen": 452,
      "Ġse": 453,
      "Ġl": 454,
      "Ġbe": 455,
      "Ġdo": 456,
      "Ġdas": 457,
      "ĠìĹ": 458,
      "Ġìķ": 459,
      "Ĵ¤": 460,
      "ĠëĴ¤": 461,
      "Ġdie": 462,
      "cht": 463,
      "Ġgelbe": 464,
      "Ġschwarze": 465,
      "Ġblaue": 466,
      "Ġli": 467,
      "Ġrote": 468,
      "ĠgrÃ¼ne": 469,
      "ĠweiÃŁe": 470,
      "or": 471,
      "ĳìĿ´": 472,
      "ĺ¤": 473,
      "Ġìĺ¤": 474,
      "ĠìĹ¬ì": 475,
      "ŀìĿ´": 476,
      "ÃŁt": 477,
      "Ġë§ŀìĿ´": 478,
      "Ġgree": 479,
      "Ġë§ŀìĿ´í": 480,
      "gt": 481,
      "lgt": 482,
      "°ë¥": 483,
      "ëĶ": 484,
      "erfo": 485,
      "Ġverfo": 486,
      "Ġfollow": 487,
      "ë¦¬ê°Ģ": 488,
      "ĠëĴ¤ëĶ": 489,
      "Ġverfolgt": 490,
      "ĠëĴ¤ëĶ°ë¥": 491,
      "Ġë³": 492,
      "ìĿĦ": 493,
      "Ã¤": 494,
      "nte": 495,
      "ht": 496,
      "chs": 497,
      "LÃ": 498,
      "¶w": 499,
      "ĠLÃ": 500,
      "ŀĲ": 501,
      "ĠìĤ¬ìŀĲ": 502,
      "Ġlion": 503,
      "ĠLÃ¶w": 504,
      "°ľ": 505,
      "Ġê°ľ": 506,
      "ĠHund": 507,
      "Ġdog": 508,
      "ĭŃ": 509,
      "ĠëĭŃ": 510,
      "Ġhen": 511,
      "ĠgroÃŁen": 512,
      "use": 513,
      "¥Ĳ": 514,
      "ĠM": 515,
      "Ġm": 516,
      "Ġì¥Ĳ": 517,
      "Sch": 518,
      "af": 519,
      "ep": 520,
      "ĠSch": 521,
      "heep": 522,
      "Ġsheep": 523,
      "ĠSchaf": 524,
      "ĨĮ": 525,
      "ĠìĨĮ": 526,
      "Ġcow": 527,
      "Ġjungen": 528,
      "Ġkleinen": 529,
      "Pf": 530,
      "ĠPf": 531,
      "erd": 532,
      "Ġë§Ĳ": 533,
      "Ġhor": 534,
      "ĠPferd": 535,
      "Ġhorse": 536,
      "ab": 537,
      "bi": 538,
      "nch": 539,
      "ëģ": 540,
      "Ĩł": 541,
      "ĠíĨł": 542,
      "Ġrab": 543,
      "ĠKani": 544,
      "bit": 545,
      "nchen": 546,
      "ëģ¼": 547,
      "ĠíĨłëģ¼": 548,
      "Ġrabbit": 549,
      "ĠKaninchen": 550,
      "es": 551,
      "at": 552,
      "łìĸ": 553,
      "Ġcat": 554,
      "ĠKat": 555,
      "Ġê³łìĸ": 556,
      "Ġê³łìĸĳìĿ´": 557,
      "Ġalten": 558,
      "uck": 559,
      "ĠE": 560,
      "Ġduck": 561,
      "BÃ¤": 562,
      "ĠBÃ¤": 563,
      "Ġê³°": 564,
      "Ġbear": 565,
      "ĠBÃ¤r": 566,
      "ĠF": 567,
      "ļ°": 568,
      "Ġfox": 569,
      "ĠìĹ¬ìļ°": 570,
      "ĠHuh": 571,
      "ĠHuhn": 572,
      "ĠKuh": 573,
      "au": 574,
      "ouse": 575,
      "ĠMau": 576,
      "Ġmouse": 577,
      "ĠMaus": 578,
      "ķľ": 579,
      "Ġë§ŀìĿ´íķľ": 580,
      "Ġë§ŀìĿ´íķľëĭ¤ëĬĶ": 581,
      "ĠëĴ¤ëĶ°ë¥¸ëĭ¤ëĬĶ": 582,
      "ìŀ": 583,
      "ìŀĳìĿĢ": 584,
      "Ġof": 585,
      "ëĬĻìĿĢ": 586,
      "Der": 587,
      "Die": 588,
      "Es": 589,
      "bt": 590,
      "ibt": 591,
      "no": 592,
      "§Ģ": 593,
      "ì§Ģ": 594,
      "íģ°": 595,
      "Ġni": 596,
      "Ġno": 597,
      "ĬëĬĶ": 598,
      "ĻĢ": 599,
      "Ġgibt": 600,
      "Ġare": 601,
      "ë¦¬ì": 602,
      "There": 603,
      "ĠìŀĪëĭ¤": 604,
      "Ġë§Īë¦¬ê°Ģ": 605,
      "Ġë§Īë¦¬ì": 606,
      "ĠìķĬëĬĶ": 607,
      "Ġnicht": 608,
      "Ġnot": 609,
      "Ġë§Īë¦¬ìĻĢ": 610,
      "ĠìķĬëĬĶëĭ¤ëĬĶ": 611,
      "Das": 612,
      "ìĸ´ë¦°": 613,
      "Ġë³¸ëĭ¤ëĬĶ": 614,
      "ĠKatze": 615,
      "ĠEnte": 616,
      "Ġsie": 617,
      "zen": 618,
      "uchs": 619,
      "ĠFuchs": 620,
      "Ġf": 621,
      "Ġìĺ¤ë¦¬": 622,
      "uen": 623,
      "Ġblauen": 624,
      "Ġgelben": 625,
      "Ġschwarzen": 626,
      "Ġroten": 627,
      "ĠweiÃŁen": 628,
      "ĠgrÃ¼nen": 629,
      "ĠLÃ¶wen": 630,
      "ª½": 631,
      "ìª½": 632,
      "Ġto": 633,
      "ìª½ìĹĲ": 634,
      "alb": 635,
      "halb": 636,
      "gr": 637,
      "ted": 638,
      "Ã¼ÃŁt": 639,
      "Ġgegr": 640,
      "ĠgrÃ¼ÃŁt": 641,
      "Ġgreet": 642,
      "Ġgreeted": 643,
      "ĠgegrÃ¼ÃŁt": 644,
      "Ġìĸĳ": 645,
      "Ġfollowed": 646,
      "Ġden": 647,
      "´ì§Ģ": 648,
      "hen": 649,
      "Ġgese": 650,
      "Ġseen": 651,
      "Ġsieht": 652,
      "Ġgesehen": 653,
      "ĠBÃ¤ren": 654,
      "ve": 655,
      "ght": 656,
      "Ħ¯": 657,
      "ĠLÃ¶we": 658,
      "Ġgreets": 659,
      "Ġfollows": 660,
      "Ġdoes": 661,
      "Ġsees": 662,
      "ĠìĤ¬ìŀĲê°Ģ": 663,
      "ĠìĤ¬ìŀĲë¥¼": 664,
      "Ġê°ľê°Ģ": 665,
      "Ġê°ľë¥¼": 666,
      "ĠëĭŃìĿ´": 667,
      "ĠëĭŃìĿĦ": 668,
      "Ġì¥Ĳê°Ģ": 669,
      "Ġì¥Ĳë¥¼": 670,
      "ef": 671,
      "echt": 672,
      "ight": 673,
      "ks": 674,
      "nks": 675,
      "¸ìª½ìĹĲ": 676,
      "¼ìª½ìĹĲ": 677,
      "Ļ¼ìª½ìĹĲ": 678,
      "ĠìĻ¼ìª½ìĹĲ": 679,
      "Ġrecht": 680,
      "Ġright": 681,
      "ë¥¸ìª½ìĹĲ": 682,
      "Ġlef": 683,
      "Ġlinks": 684,
      "Ġìĺ¤ë¥¸ìª½ìĹĲ": 685,
      "Ġrechts": 686,
      "Ġleft": 687,
      "Ġë³´ì§Ģ": 688,
      "bo": 689,
      "ber": 690,
      "low": 691,
      "rhalb": 692,
      "Ġun": 693,
      "Ħëŀ": 694,
      "ĦìĹĲ": 695,
      "ĺìĹĲ": 696,
      "ľĦìĹĲ": 697,
      "ĠìľĦìĹĲ": 698,
      "Ġabo": 699,
      "terhalb": 700,
      "Ġober": 701,
      "Ġbelow": 702,
      "ĠìķĦëŀ": 703,
      "Ġunterhalb": 704,
      "Ġabove": 705,
      "Ġoberhalb": 706,
      "ĠìķĦëŀĺìĹĲ": 707,
      "Ġìĺ¤ë¦¬ê°Ģ": 708,
      "Ġìĺ¤ë¦¬ë¥¼": 709,
      "ĠìĸĳìĿ´": 710,
      "ĠìĸĳìĿĦ": 711,
      "ĠìĨĮê°Ģ": 712,
      "ĠìĨĮë¥¼": 713,
      "ķĺì§Ģ": 714,
      "Ġë§ŀìĿ´íķĺì§Ģ": 715,
      "ĠíĨłëģ¼ê°Ģ": 716,
      "ĠíĨłëģ¼ë¥¼": 717,
      "ĠëĴ¤ëĶ°ë¥´ì§Ģ": 718,
      "ron": 719,
      "Ġhi": 720,
      "ŀìĹĲ": 721,
      "Ġin": 722,
      "Ġvor": 723,
      "hind": 724,
      "Ġbehind": 725,
      "ĠìķŀìĹĲ": 726,
      "ĠëĴ¤ìĹĲ": 727,
      "nter": 728,
      "Ġfron": 729,
      "Ġhinter": 730,
      "Ġfront": 731,
      "Ġê³łìĸĳìĿ´ê°Ģ": 732,
      "Ġê³łìĸĳìĿ´ë¥¼": 733,
      "Ġê³°ìĿ´": 734,
      "Ġê³°ìĿĦ": 735,
      "Ġë§ĲìĿ´": 736,
      "Ġë§ĲìĿĦ": 737,
      "ĠìĹ¬ìļ°ê°Ģ": 738,
      "ĠìĹ¬ìļ°ë¥¼": 739,
      "ben": 740,
      "ive": 741,
      "nf": 742,
      "ven": 743,
      "¼ê³": 744,
      "ìĦ¯": 745,
      "Ŀ¼ê³": 746,
      "ĠìĿ¼ê³": 747,
      "Ġëĭ¤": 748,
      "Ã¼nf": 749,
      "Ġseven": 750,
      "Ġsieben": 751,
      "Ġfive": 752,
      "ĠfÃ¼nf": 753,
      "ĠìĿ¼ê³±": 754,
      "Ġëĭ¤ìĦ¯": 755,
      "ier": 756,
      "ur": 757,
      "Ħ¤": 758,
      "ĠëĦ¤": 759,
      "Ġvier": 760,
      "Ġfour": 761,
      "¬ë": 762,
      "Ġei": 763,
      "įŁ": 764,
      "Ġacht": 765,
      "ĠìĹ¬ë": 766,
      "Ġeight": 767,
      "ĠìĹ¬ëįŁ": 768,
      "hre": 769,
      "rei": 770,
      "Ħ¸": 771,
      "ĠìĦ¸": 772,
      "Ġdrei": 773,
      "Ġthre": 774,
      "Ġthree": 775,
      "wo": 776,
      "wei": 777,
      "zwei": 778,
      "Ġzwei": 779,
      "ĠëĳĲ": 780,
      "Ġtwo": 781,
      "ix": 782,
      "Ġsix": 783,
      "Ġsechs": 784,
      "ĠìĹ¬ìĦ¯": 785,
      "ĠHunde": 786,
      "Ġdogs": 787,
      "ĠPferde": 788,
      "Ġhorses": 789,
      "ĠìĤ¬ìŀĲëĬĶ": 790,
      "ĠìĤ¬ìŀĲìĿĺ": 791,
      "ĠëĭŃìĿĢ": 792,
      "ĠëĭŃìĿĺ": 793,
      "ce": 794,
      "ice": 795,
      "Ã¤use": 796,
      "ĠMÃ¤use": 797,
      "Ġmice": 798,
      "ĠìĨĮëĬĶ": 799,
      "ĠìĨĮìĿĺ": 800,
      "ĠìĸĳìĿĢ": 801,
      "ĠìĸĳìĿĺ": 802,
      "nten": 803,
      "ĠEnten": 804,
      "Ġducks": 805,
      "Ġë§ĲìĿĢ": 806,
      "Ġë§ĲìĿĺ": 807,
      "Ġsee": 808,
      "Ġcats": 809,
      "ĠKatzen": 810,
      "Ġê³łìĸĳìĿ´ëĬĶ": 811,
      "Ġê³łìĸĳìĿ´ìĿĺ": 812,
      "Ġrabbits": 813,
      "Ġì¥ĲëĬĶ": 814,
      "Ġì¥ĲìĿĺ": 815,
      "Ġê³°ìĿĢ": 816,
      "Ġê³°ìĿĺ": 817,
      "Ġê°ľëĬĶ": 818,
      "Ġê°ľìĿĺ": 819,
      "ĠSchafe": 820,
      "ĠíĨłëģ¼ëĬĶ": 821,
      "ĠíĨłëģ¼ìĿĺ": 822,
      "Ġlions": 823,
      "chse": 824,
      "Ã¼chse": 825,
      "ĠFÃ¼chse": 826,
      "Ġfoxes": 827,
      "Ġbears": 828,
      "hn": 829,
      "Ã¼hn": 830,
      "ĠHÃ¼hn": 831,
      "Ġhens": 832,
      "ĠHÃ¼hner": 833,
      "Ã¼he": 834,
      "ĠKÃ¼he": 835,
      "Ġcows": 836,
      "ĠìĹ¬ìļ°ëĬĶ": 837,
      "ĠìĹ¬ìļ°ìĿĺ": 838,
      "Ġìĺ¤ë¦¬ëĬĶ": 839,
      "Ġìĺ¤ë¦¬ìĿĺ": 840
    },
    "merges": [
      [
        "Ġ",
        "ì"
      ],
      [
        "ì",
        "Ŀ"
      ],
      [
        "Ġ",
        "ë"
      ],
      [
        "e",
        "n"
      ],
      [
        "h",
        "e"
      ],
      [
        "Ġ",
        "g"
      ],
      [
        "ĭ",
        "¤"
      ],
      [
        "u",
        "n"
      ],
      [
        "Ġ",
        "d"
      ],
      [
        "Ġ",
        "ê"
      ],
      [
        "Ġ",
        "t"
      ],
      [
        "Ġ",
        "b"
      ],
      [
        "Ġ",
        "s"
      ],
      [
        "Ġg",
        "r"
      ],
      [
        "ìĿ",
        "Ģ"
      ],
      [
        "ë",
        "ĭ¤"
      ],
      [
        "ìĿ",
        "´"
      ],
      [
        "Ġt",
        "he"
      ],
      [
        "ë",
        "Ĭ"
      ],
      [
        "Ġ",
        "a"
      ],
      [
        "t",
        "e"
      ],
      [
        "Ġê",
        "²"
      ],
      [
        "Ġ",
        "í"
      ],
      [
        "ëĬ",
        "Ķ"
      ],
      [
        "l",
        "a"
      ],
      [
        "c",
        "h"
      ],
      [
        "l",
        "l"
      ],
      [
        "Ã",
        "Ł"
      ],
      [
        "un",
        "g"
      ],
      [
        "ë",
        "¦"
      ],
      [
        "e",
        "i"
      ],
      [
        "e",
        "r"
      ],
      [
        "¬",
        "ì"
      ],
      [
        "Ġ",
        "w"
      ],
      [
        "Ġ",
        "r"
      ],
      [
        "Ġ",
        "i"
      ],
      [
        "ê",
        "°"
      ],
      [
        "ëĭ¤",
        "ëĬĶ"
      ],
      [
        "Ġê²",
        "ĥ"
      ],
      [
        "Ġi",
        "s"
      ],
      [
        "Ġ",
        "y"
      ],
      [
        "Ġì",
        "ŀ"
      ],
      [
        "Ġ",
        "v"
      ],
      [
        "o",
        "w"
      ],
      [
        "un",
        "d"
      ],
      [
        "ë",
        "ŀ"
      ],
      [
        "o",
        "n"
      ],
      [
        "Ġ",
        "o"
      ],
      [
        "ëŀ",
        "Ģ"
      ],
      [
        "Ġb",
        "la"
      ],
      [
        "Ġë",
        "§"
      ],
      [
        "ì",
        "ĸ"
      ],
      [
        "Ã",
        "¼"
      ],
      [
        "ë",
        "¥"
      ],
      [
        "n",
        "d"
      ],
      [
        "Ĥ",
        "¬ì"
      ],
      [
        "Ġì",
        "Ĥ¬ì"
      ],
      [
        "f",
        "o"
      ],
      [
        "T",
        "he"
      ],
      [
        "Ġ",
        "und"
      ],
      [
        "Ġa",
        "nd"
      ],
      [
        "u",
        "e"
      ],
      [
        "n",
        "e"
      ],
      [
        "ÃŁ",
        "e"
      ],
      [
        "ll",
        "ow"
      ],
      [
        "Ġg",
        "e"
      ],
      [
        "ê°",
        "Ģ"
      ],
      [
        "ĳ",
        "ìĿĢ"
      ],
      [
        "Ġì",
        "ĸ"
      ],
      [
        "Ġgr",
        "e"
      ],
      [
        "i",
        "e"
      ],
      [
        "g",
        "e"
      ],
      [
        "r",
        "ge"
      ],
      [
        "Ġ",
        "la"
      ],
      [
        "ģ",
        "°"
      ],
      [
        "Ġgr",
        "o"
      ],
      [
        "Ġla",
        "rge"
      ],
      [
        "c",
        "k"
      ],
      [
        "a",
        "ll"
      ],
      [
        "k",
        "l"
      ],
      [
        "m",
        "all"
      ],
      [
        "Ġ",
        "kl"
      ],
      [
        "Ġs",
        "mall"
      ],
      [
        "Ġkl",
        "ei"
      ],
      [
        "a",
        "r"
      ],
      [
        "j",
        "ung"
      ],
      [
        "o",
        "ung"
      ],
      [
        "´",
        "ë¦"
      ],
      [
        "Ġ",
        "jung"
      ],
      [
        "Ġy",
        "oung"
      ],
      [
        "´ë¦",
        "°"
      ],
      [
        "Ġ",
        "K"
      ],
      [
        "l",
        "d"
      ],
      [
        "Ļ",
        "ìĿĢ"
      ],
      [
        "Ġa",
        "l"
      ],
      [
        "Ġo",
        "ld"
      ],
      [
        "Ġv",
        "on"
      ],
      [
        "ê",
        "³"
      ],
      [
        "ĳ",
        "Ĳ"
      ],
      [
        "s",
        "e"
      ],
      [
        "l",
        "b"
      ],
      [
        "¨",
        "ë"
      ],
      [
        "ª",
        "¨ë"
      ],
      [
        "Ġë",
        "ª¨ë"
      ],
      [
        "ĭ¤",
        "ìĿ´"
      ],
      [
        "Ġê²ĥ",
        "ìĿ´"
      ],
      [
        "Ġê²ĥ",
        "ê³"
      ],
      [
        "Ġìŀ",
        "Ī"
      ],
      [
        "ĠìĤ¬ì",
        "ĭ¤ìĿ´"
      ],
      [
        "Ġëª¨ë",
        "ĳĲ"
      ],
      [
        "Ġê²ĥê³",
        "¼"
      ],
      [
        "ĠìĤ¬ìĭ¤ìĿ´",
        "ëĭ¤"
      ],
      [
        "e",
        "d"
      ],
      [
        "Ġgr",
        "Ã¼"
      ],
      [
        "h",
        "i"
      ],
      [
        "Ġ",
        "fo"
      ],
      [
        "ë¥",
        "¼"
      ],
      [
        "a",
        "s"
      ],
      [
        "e",
        "m"
      ],
      [
        "Ġd",
        "em"
      ],
      [
        "ķ",
        "ĺ"
      ],
      [
        "z",
        "e"
      ],
      [
        "Ġí",
        "ģ°"
      ],
      [
        "Ġìŀ",
        "ĳìĿĢ"
      ],
      [
        "Ġìĸ",
        "´ë¦°"
      ],
      [
        "Ĭ",
        "ĻìĿĢ"
      ],
      [
        "Ġë",
        "ĬĻìĿĢ"
      ],
      [
        "Ġ",
        "H"
      ],
      [
        "e",
        "llow"
      ],
      [
        "¸",
        "ëŀĢ"
      ],
      [
        "ħ",
        "¸ëŀĢ"
      ],
      [
        "Ġë",
        "ħ¸ëŀĢ"
      ],
      [
        "Ġy",
        "ellow"
      ],
      [
        "Ġge",
        "lb"
      ],
      [
        "w",
        "ar"
      ],
      [
        "Ģ",
        "ìĿĢ"
      ],
      [
        "Ġs",
        "ch"
      ],
      [
        "Ġê²",
        "ĢìĿĢ"
      ],
      [
        "Ġbla",
        "ck"
      ],
      [
        "Ġsch",
        "war"
      ],
      [
        "Ġ",
        "h"
      ],
      [
        "l",
        "ue"
      ],
      [
        "Į",
        "Į"
      ],
      [
        "Ġb",
        "lue"
      ],
      [
        "Ġí",
        "ĮĮ"
      ],
      [
        "ĠíĮĮ",
        "ëŀĢ"
      ],
      [
        "Ġgro",
        "ÃŁe"
      ],
      [
        "Ġklei",
        "ne"
      ],
      [
        "Ġjung",
        "e"
      ],
      [
        "¨",
        "ê°"
      ],
      [
        "¹",
        "¨ê°"
      ],
      [
        "Ġë",
        "¹¨ê°"
      ],
      [
        "Ġr",
        "o"
      ],
      [
        "Ġr",
        "ed"
      ],
      [
        "Ġë¹¨ê°",
        "Ħ"
      ],
      [
        "Ġ",
        "c"
      ],
      [
        "Ġd",
        "er"
      ],
      [
        "Ġal",
        "te"
      ],
      [
        "ĠK",
        "a"
      ],
      [
        "¡",
        "Ŀ"
      ],
      [
        "´",
        "Ī"
      ],
      [
        "ë",
        "¡Ŀ"
      ],
      [
        "ì",
        "ĥ"
      ],
      [
        "Ġì",
        "´Ī"
      ],
      [
        "Ġgre",
        "en"
      ],
      [
        "ë¡Ŀ",
        "ìĥ"
      ],
      [
        "Ġì´Ī",
        "ë¡Ŀìĥ"
      ],
      [
        "Ġì´Īë¡Ŀìĥ",
        "ī"
      ],
      [
        "Ġê",
        "³"
      ],
      [
        "r",
        "e"
      ],
      [
        "Ġí",
        "ķĺ"
      ],
      [
        "Ġw",
        "ei"
      ],
      [
        "Ġw",
        "hi"
      ],
      [
        "ìĸ",
        "Ģ"
      ],
      [
        "Ġíķĺ",
        "ìĸĢ"
      ],
      [
        "Ġwhi",
        "te"
      ],
      [
        "n",
        "i"
      ],
      [
        "ë¦",
        "¬"
      ],
      [
        "t",
        "en"
      ],
      [
        "u",
        "h"
      ],
      [
        "i",
        "r"
      ],
      [
        "ì",
        "Ĺ"
      ],
      [
        "ìĿ",
        "ĺ"
      ],
      [
        "Ġb",
        "y"
      ],
      [
        "Ġw",
        "ir"
      ],
      [
        "Ġis",
        "t"
      ],
      [
        "Ġë§",
        "Ī"
      ],
      [
        "ĠìŀĪ",
        "ëĭ¤ëĬĶ"
      ],
      [
        "ìĹ",
        "Ĳ"
      ],
      [
        "Ġwir",
        "d"
      ],
      [
        "¸",
        "ëĭ¤ëĬĶ"
      ],
      [
        "ÃŁ",
        "en"
      ],
      [
        "n",
        "en"
      ],
      [
        "Ġs",
        "e"
      ],
      [
        "Ġ",
        "l"
      ],
      [
        "Ġb",
        "e"
      ],
      [
        "Ġd",
        "o"
      ],
      [
        "Ġd",
        "as"
      ],
      [
        "Ġì",
        "Ĺ"
      ],
      [
        "Ġì",
        "ķ"
      ],
      [
        "Ĵ",
        "¤"
      ],
      [
        "Ġë",
        "Ĵ¤"
      ],
      [
        "Ġd",
        "ie"
      ],
      [
        "ch",
        "t"
      ],
      [
        "Ġgelb",
        "e"
      ],
      [
        "Ġschwar",
        "ze"
      ],
      [
        "Ġbla",
        "ue"
      ],
      [
        "Ġl",
        "i"
      ],
      [
        "Ġro",
        "te"
      ],
      [
        "ĠgrÃ¼",
        "ne"
      ],
      [
        "Ġwei",
        "ÃŁe"
      ],
      [
        "o",
        "r"
      ],
      [
        "ĳ",
        "ìĿ´"
      ],
      [
        "ĺ",
        "¤"
      ],
      [
        "Ġì",
        "ĺ¤"
      ],
      [
        "ĠìĹ",
        "¬ì"
      ],
      [
        "ŀ",
        "ìĿ´"
      ],
      [
        "ÃŁ",
        "t"
      ],
      [
        "Ġë§",
        "ŀìĿ´"
      ],
      [
        "Ġgre",
        "e"
      ],
      [
        "Ġë§ŀìĿ´",
        "í"
      ],
      [
        "g",
        "t"
      ],
      [
        "l",
        "gt"
      ],
      [
        "°",
        "ë¥"
      ],
      [
        "ë",
        "Ķ"
      ],
      [
        "er",
        "fo"
      ],
      [
        "Ġv",
        "erfo"
      ],
      [
        "Ġfo",
        "llow"
      ],
      [
        "ë¦¬",
        "ê°Ģ"
      ],
      [
        "ĠëĴ¤",
        "ëĶ"
      ],
      [
        "Ġverfo",
        "lgt"
      ],
      [
        "ĠëĴ¤ëĶ",
        "°ë¥"
      ],
      [
        "Ġë",
        "³"
      ],
      [
        "ìĿ",
        "Ħ"
      ],
      [
        "Ã",
        "¤"
      ],
      [
        "n",
        "te"
      ],
      [
        "h",
        "t"
      ],
      [
        "ch",
        "s"
      ],
      [
        "L",
        "Ã"
      ],
      [
        "¶",
        "w"
      ],
      [
        "Ġ",
        "LÃ"
      ],
      [
        "ŀ",
        "Ĳ"
      ],
      [
        "ĠìĤ¬ì",
        "ŀĲ"
      ],
      [
        "Ġli",
        "on"
      ],
      [
        "ĠLÃ",
        "¶w"
      ],
      [
        "°",
        "ľ"
      ],
      [
        "Ġê",
        "°ľ"
      ],
      [
        "ĠH",
        "und"
      ],
      [
        "Ġdo",
        "g"
      ],
      [
        "ĭ",
        "Ń"
      ],
      [
        "Ġë",
        "ĭŃ"
      ],
      [
        "Ġh",
        "en"
      ],
      [
        "Ġgro",
        "ÃŁen"
      ],
      [
        "u",
        "se"
      ],
      [
        "¥",
        "Ĳ"
      ],
      [
        "Ġ",
        "M"
      ],
      [
        "Ġ",
        "m"
      ],
      [
        "Ġì",
        "¥Ĳ"
      ],
      [
        "S",
        "ch"
      ],
      [
        "a",
        "f"
      ],
      [
        "e",
        "p"
      ],
      [
        "Ġ",
        "Sch"
      ],
      [
        "he",
        "ep"
      ],
      [
        "Ġs",
        "heep"
      ],
      [
        "ĠSch",
        "af"
      ],
      [
        "Ĩ",
        "Į"
      ],
      [
        "Ġì",
        "ĨĮ"
      ],
      [
        "Ġc",
        "ow"
      ],
      [
        "Ġjung",
        "en"
      ],
      [
        "Ġklei",
        "nen"
      ],
      [
        "P",
        "f"
      ],
      [
        "Ġ",
        "Pf"
      ],
      [
        "er",
        "d"
      ],
      [
        "Ġë§",
        "Ĳ"
      ],
      [
        "Ġh",
        "or"
      ],
      [
        "ĠPf",
        "erd"
      ],
      [
        "Ġhor",
        "se"
      ],
      [
        "a",
        "b"
      ],
      [
        "b",
        "i"
      ],
      [
        "n",
        "ch"
      ],
      [
        "ë",
        "ģ"
      ],
      [
        "Ĩ",
        "ł"
      ],
      [
        "Ġí",
        "Ĩł"
      ],
      [
        "Ġr",
        "ab"
      ],
      [
        "ĠKa",
        "ni"
      ],
      [
        "bi",
        "t"
      ],
      [
        "nch",
        "en"
      ],
      [
        "ëģ",
        "¼"
      ],
      [
        "ĠíĨł",
        "ëģ¼"
      ],
      [
        "Ġrab",
        "bit"
      ],
      [
        "ĠKani",
        "nchen"
      ],
      [
        "e",
        "s"
      ],
      [
        "a",
        "t"
      ],
      [
        "ł",
        "ìĸ"
      ],
      [
        "Ġc",
        "at"
      ],
      [
        "ĠKa",
        "t"
      ],
      [
        "Ġê³",
        "łìĸ"
      ],
      [
        "Ġê³łìĸ",
        "ĳìĿ´"
      ],
      [
        "Ġal",
        "ten"
      ],
      [
        "u",
        "ck"
      ],
      [
        "Ġ",
        "E"
      ],
      [
        "Ġd",
        "uck"
      ],
      [
        "B",
        "Ã¤"
      ],
      [
        "Ġ",
        "BÃ¤"
      ],
      [
        "Ġê³",
        "°"
      ],
      [
        "Ġbe",
        "ar"
      ],
      [
        "ĠBÃ¤",
        "r"
      ],
      [
        "Ġ",
        "F"
      ],
      [
        "ļ",
        "°"
      ],
      [
        "Ġfo",
        "x"
      ],
      [
        "ĠìĹ¬ì",
        "ļ°"
      ],
      [
        "ĠH",
        "uh"
      ],
      [
        "ĠHuh",
        "n"
      ],
      [
        "ĠK",
        "uh"
      ],
      [
        "a",
        "u"
      ],
      [
        "o",
        "use"
      ],
      [
        "ĠM",
        "au"
      ],
      [
        "Ġm",
        "ouse"
      ],
      [
        "ĠMau",
        "s"
      ],
      [
        "ķ",
        "ľ"
      ],
      [
        "Ġë§ŀìĿ´í",
        "ķľ"
      ],
      [
        "Ġë§ŀìĿ´íķľ",
        "ëĭ¤ëĬĶ"
      ],
      [
        "ĠëĴ¤ëĶ°ë¥",
        "¸ëĭ¤ëĬĶ"
      ],
      [
        "ì",
        "ŀ"
      ],
      [
        "ìŀ",
        "ĳìĿĢ"
      ],
      [
        "Ġo",
        "f"
      ],
      [
        "ëĬ",
        "ĻìĿĢ"
      ],
      [
        "D",
        "er"
      ],
      [
        "D",
        "ie"
      ],
      [
        "E",
        "s"
      ],
      [
        "b",
        "t"
      ],
      [
        "i",
        "bt"
      ],
      [
        "n",
        "o"
      ],
      [
        "§",
        "Ģ"
      ],
      [
        "ì",
        "§Ģ"
      ],
      [
        "í",
        "ģ°"
      ],
      [
        "Ġ",
        "ni"
      ],
      [
        "Ġ",
        "no"
      ],
      [
        "Ĭ",
        "ëĬĶ"
      ],
      [
        "Ļ",
        "Ģ"
      ],
      [
        "Ġg",
        "ibt"
      ],
      [
        "Ġa",
        "re"
      ],
      [
        "ë¦",
        "¬ì"
      ],
      [
        "The",
        "re"
      ],
      [
        "ĠìŀĪ",
        "ëĭ¤"
      ],
      [
        "Ġë§Ī",
        "ë¦¬ê°Ģ"
      ],
      [
        "Ġë§Ī",
        "ë¦¬ì"
      ],
      [
        "Ġìķ",
        "ĬëĬĶ"
      ],
      [
        "Ġni",
        "cht"
      ],
      [
        "Ġno",
        "t"
      ],
      [
        "Ġë§Īë¦¬ì",
        "ĻĢ"
      ],
      [
        "ĠìķĬëĬĶ",
        "ëĭ¤ëĬĶ"
      ],
      [
        "D",
        "as"
      ],
      [
        "ìĸ",
        "´ë¦°"
      ],
      [
        "Ġë³",
        "¸ëĭ¤ëĬĶ"
      ],
      [
        "ĠKat",
        "ze"
      ],
      [
        "ĠE",
        "nte"
      ],
      [
        "Ġs",
        "ie"
      ],
      [
        "z",
        "en"
      ],
      [
        "u",
        "chs"
      ],
      [
        "ĠF",
        "uchs"
      ],
      [
        "Ġ",
        "f"
      ],
      [
        "Ġìĺ¤",
        "ë¦¬"
      ],
      [
        "u",
        "en"
      ],
      [
        "Ġbla",
        "uen"
      ],
      [
        "Ġgelb",
        "en"
      ],
      [
        "Ġschwar",
        "zen"
      ],
      [
        "Ġro",
        "ten"
      ],
      [
        "Ġwei",
        "ÃŁen"
      ],
      [
        "ĠgrÃ¼",
        "nen"
      ],
      [
        "ĠLÃ¶w",
        "en"
      ],
      [
        "ª",
        "½"
      ],
      [
        "ì",
        "ª½"
      ],
      [
        "Ġt",
        "o"
      ],
      [
        "ìª½",
        "ìĹĲ"
      ],
      [
        "a",
        "lb"
      ],
      [
        "h",
        "alb"
      ],
      [
        "g",
        "r"
      ],
      [
        "te",
        "d"
      ],
      [
        "Ã¼",
        "ÃŁt"
      ],
      [
        "Ġge",
        "gr"
      ],
      [
        "ĠgrÃ¼",
        "ÃŁt"
      ],
      [
        "Ġgree",
        "t"
      ],
      [
        "Ġgree",
        "ted"
      ],
      [
        "Ġgegr",
        "Ã¼ÃŁt"
      ],
      [
        "Ġìĸ",
        "ĳ"
      ],
      [
        "Ġfollow",
        "ed"
      ],
      [
        "Ġd",
        "en"
      ],
      [
        "´",
        "ì§Ģ"
      ],
      [
        "h",
        "en"
      ],
      [
        "Ġge",
        "se"
      ],
      [
        "Ġse",
        "en"
      ],
      [
        "Ġsie",
        "ht"
      ],
      [
        "Ġgese",
        "hen"
      ],
      [
        "ĠBÃ¤r",
        "en"
      ],
      [
        "v",
        "e"
      ],
      [
        "g",
        "ht"
      ],
      [
        "Ħ",
        "¯"
      ],
      [
        "ĠLÃ¶w",
        "e"
      ],
      [
        "Ġgreet",
        "s"
      ],
      [
        "Ġfollow",
        "s"
      ],
      [
        "Ġdo",
        "es"
      ],
      [
        "Ġse",
        "es"
      ],
      [
        "ĠìĤ¬ìŀĲ",
        "ê°Ģ"
      ],
      [
        "ĠìĤ¬ìŀĲ",
        "ë¥¼"
      ],
      [
        "Ġê°ľ",
        "ê°Ģ"
      ],
      [
        "Ġê°ľ",
        "ë¥¼"
      ],
      [
        "ĠëĭŃ",
        "ìĿ´"
      ],
      [
        "ĠëĭŃ",
        "ìĿĦ"
      ],
      [
        "Ġì¥Ĳ",
        "ê°Ģ"
      ],
      [
        "Ġì¥Ĳ",
        "ë¥¼"
      ],
      [
        "e",
        "f"
      ],
      [
        "e",
        "cht"
      ],
      [
        "i",
        "ght"
      ],
      [
        "k",
        "s"
      ],
      [
        "n",
        "ks"
      ],
      [
        "¸",
        "ìª½ìĹĲ"
      ],
      [
        "¼",
        "ìª½ìĹĲ"
      ],
      [
        "Ļ",
        "¼ìª½ìĹĲ"
      ],
      [
        "Ġì",
        "Ļ¼ìª½ìĹĲ"
      ],
      [
        "Ġr",
        "echt"
      ],
      [
        "Ġr",
        "ight"
      ],
      [
        "ë¥",
        "¸ìª½ìĹĲ"
      ],
      [
        "Ġl",
        "ef"
      ],
      [
        "Ġli",
        "nks"
      ],
      [
        "Ġìĺ¤",
        "ë¥¸ìª½ìĹĲ"
      ],
      [
        "Ġrecht",
        "s"
      ],
      [
        "Ġlef",
        "t"
      ],
      [
        "Ġë³",
        "´ì§Ģ"
      ],
      [
        "b",
        "o"
      ],
      [
        "b",
        "er"
      ],
      [
        "l",
        "ow"
      ],
      [
        "r",
        "halb"
      ],
      [
        "Ġ",
        "un"
      ],
      [
        "Ħ",
        "ëŀ"
      ],
      [
        "Ħ",
        "ìĹĲ"
      ],
      [
        "ĺ",
        "ìĹĲ"
      ],
      [
        "ľ",
        "ĦìĹĲ"
      ],
      [
        "Ġì",
        "ľĦìĹĲ"
      ],
      [
        "Ġa",
        "bo"
      ],
      [
        "te",
        "rhalb"
      ],
      [
        "Ġo",
        "ber"
      ],
      [
        "Ġbe",
        "low"
      ],
      [
        "Ġìķ",
        "Ħëŀ"
      ],
      [
        "Ġun",
        "terhalb"
      ],
      [
        "Ġabo",
        "ve"
      ],
      [
        "Ġober",
        "halb"
      ],
      [
        "ĠìķĦëŀ",
        "ĺìĹĲ"
      ],
      [
        "Ġìĺ¤",
        "ë¦¬ê°Ģ"
      ],
      [
        "Ġìĺ¤ë¦¬",
        "ë¥¼"
      ],
      [
        "Ġìĸ",
        "ĳìĿ´"
      ],
      [
        "Ġìĸĳ",
        "ìĿĦ"
      ],
      [
        "ĠìĨĮ",
        "ê°Ģ"
      ],
      [
        "ĠìĨĮ",
        "ë¥¼"
      ],
      [
        "ķĺ",
        "ì§Ģ"
      ],
      [
        "Ġë§ŀìĿ´í",
        "ķĺì§Ģ"
      ],
      [
        "ĠíĨłëģ¼",
        "ê°Ģ"
      ],
      [
        "ĠíĨłëģ¼",
        "ë¥¼"
      ],
      [
        "ĠëĴ¤ëĶ°ë¥",
        "´ì§Ģ"
      ],
      [
        "r",
        "on"
      ],
      [
        "Ġ",
        "hi"
      ],
      [
        "ŀ",
        "ìĹĲ"
      ],
      [
        "Ġi",
        "n"
      ],
      [
        "Ġv",
        "or"
      ],
      [
        "hi",
        "nd"
      ],
      [
        "Ġbe",
        "hind"
      ],
      [
        "Ġìķ",
        "ŀìĹĲ"
      ],
      [
        "ĠëĴ¤",
        "ìĹĲ"
      ],
      [
        "nte",
        "r"
      ],
      [
        "Ġf",
        "ron"
      ],
      [
        "Ġhi",
        "nter"
      ],
      [
        "Ġfron",
        "t"
      ],
      [
        "Ġê³łìĸĳìĿ´",
        "ê°Ģ"
      ],
      [
        "Ġê³łìĸĳìĿ´",
        "ë¥¼"
      ],
      [
        "Ġê³°",
        "ìĿ´"
      ],
      [
        "Ġê³°",
        "ìĿĦ"
      ],
      [
        "Ġë§Ĳ",
        "ìĿ´"
      ],
      [
        "Ġë§Ĳ",
        "ìĿĦ"
      ],
      [
        "ĠìĹ¬ìļ°",
        "ê°Ģ"
      ],
      [
        "ĠìĹ¬ìļ°",
        "ë¥¼"
      ],
      [
        "b",
        "en"
      ],
      [
        "i",
        "ve"
      ],
      [
        "n",
        "f"
      ],
      [
        "v",
        "en"
      ],
      [
        "¼",
        "ê³"
      ],
      [
        "ì",
        "Ħ¯"
      ],
      [
        "Ŀ",
        "¼ê³"
      ],
      [
        "Ġì",
        "Ŀ¼ê³"
      ],
      [
        "Ġë",
        "ĭ¤"
      ],
      [
        "Ã¼",
        "nf"
      ],
      [
        "Ġse",
        "ven"
      ],
      [
        "Ġsie",
        "ben"
      ],
      [
        "Ġf",
        "ive"
      ],
      [
        "Ġf",
        "Ã¼nf"
      ],
      [
        "ĠìĿ¼ê³",
        "±"
      ],
      [
        "Ġëĭ¤",
        "ìĦ¯"
      ],
      [
        "i",
        "er"
      ],
      [
        "u",
        "r"
      ],
      [
        "Ħ",
        "¤"
      ],
      [
        "Ġë",
        "Ħ¤"
      ],
      [
        "Ġv",
        "ier"
      ],
      [
        "Ġfo",
        "ur"
      ],
      [
        "¬",
        "ë"
      ],
      [
        "Ġ",
        "ei"
      ],
      [
        "į",
        "Ł"
      ],
      [
        "Ġa",
        "cht"
      ],
      [
        "ĠìĹ",
        "¬ë"
      ],
      [
        "Ġei",
        "ght"
      ],
      [
        "ĠìĹ¬ë",
        "įŁ"
      ],
      [
        "h",
        "re"
      ],
      [
        "r",
        "ei"
      ],
      [
        "Ħ",
        "¸"
      ],
      [
        "Ġì",
        "Ħ¸"
      ],
      [
        "Ġd",
        "rei"
      ],
      [
        "Ġt",
        "hre"
      ],
      [
        "Ġthre",
        "e"
      ],
      [
        "w",
        "o"
      ],
      [
        "w",
        "ei"
      ],
      [
        "z",
        "wei"
      ],
      [
        "Ġ",
        "zwei"
      ],
      [
        "Ġë",
        "ĳĲ"
      ],
      [
        "Ġt",
        "wo"
      ],
      [
        "i",
        "x"
      ],
      [
        "Ġs",
        "ix"
      ],
      [
        "Ġse",
        "chs"
      ],
      [
        "ĠìĹ¬ì",
        "Ħ¯"
      ],
      [
        "ĠHund",
        "e"
      ],
      [
        "Ġdog",
        "s"
      ],
      [
        "ĠPferd",
        "e"
      ],
      [
        "Ġhorse",
        "s"
      ],
      [
        "ĠìĤ¬ìŀĲ",
        "ëĬĶ"
      ],
      [
        "ĠìĤ¬ìŀĲ",
        "ìĿĺ"
      ],
      [
        "ĠëĭŃ",
        "ìĿĢ"
      ],
      [
        "ĠëĭŃ",
        "ìĿĺ"
      ],
      [
        "c",
        "e"
      ],
      [
        "i",
        "ce"
      ],
      [
        "Ã¤",
        "use"
      ],
      [
        "ĠM",
        "Ã¤use"
      ],
      [
        "Ġm",
        "ice"
      ],
      [
        "ĠìĨĮ",
        "ëĬĶ"
      ],
      [
        "ĠìĨĮ",
        "ìĿĺ"
      ],
      [
        "Ġìĸ",
        "ĳìĿĢ"
      ],
      [
        "Ġìĸĳ",
        "ìĿĺ"
      ],
      [
        "n",
        "ten"
      ],
      [
        "ĠE",
        "nten"
      ],
      [
        "Ġduck",
        "s"
      ],
      [
        "Ġë§Ĳ",
        "ìĿĢ"
      ],
      [
        "Ġë§Ĳ",
        "ìĿĺ"
      ],
      [
        "Ġse",
        "e"
      ],
      [
        "Ġcat",
        "s"
      ],
      [
        "ĠKat",
        "zen"
      ],
      [
        "Ġê³łìĸĳìĿ´",
        "ëĬĶ"
      ],
      [
        "Ġê³łìĸĳìĿ´",
        "ìĿĺ"
      ],
      [
        "Ġrabbit",
        "s"
      ],
      [
        "Ġì¥Ĳ",
        "ëĬĶ"
      ],
      [
        "Ġì¥Ĳ",
        "ìĿĺ"
      ],
      [
        "Ġê³°",
        "ìĿĢ"
      ],
      [
        "Ġê³°",
        "ìĿĺ"
      ],
      [
        "Ġê°ľ",
        "ëĬĶ"
      ],
      [
        "Ġê°ľ",
        "ìĿĺ"
      ],
      [
        "ĠSchaf",
        "e"
      ],
      [
        "ĠíĨłëģ¼",
        "ëĬĶ"
      ],
      [
        "ĠíĨłëģ¼",
        "ìĿĺ"
      ],
      [
        "Ġlion",
        "s"
      ],
      [
        "ch",
        "se"
      ],
      [
        "Ã¼",
        "chse"
      ],
      [
        "ĠF",
        "Ã¼chse"
      ],
      [
        "Ġfox",
        "es"
      ],
      [
        "Ġbear",
        "s"
      ],
      [
        "h",
        "n"
      ],
      [
        "Ã¼",
        "hn"
      ],
      [
        "ĠH",
        "Ã¼hn"
      ],
      [
        "Ġhen",
        "s"
      ],
      [
        "ĠHÃ¼hn",
        "er"
      ],
      [
        "Ã¼",
        "he"
      ],
      [
        "ĠK",
        "Ã¼he"
      ],
      [
        "Ġcow",
        "s"
      ],
      [
        "ĠìĹ¬ìļ°",
        "ëĬĶ"
      ],
      [
        "ĠìĹ¬ìļ°",
        "ìĿĺ"
      ],
      [
        "Ġìĺ¤ë¦¬",
        "ëĬĶ"
      ],
      [
        "Ġìĺ¤ë¦¬",
        "ìĿĺ"
      ]
    ]
  }
}