{
  "version": "1.0",
  "truncation": null,
  "padding": null,
  "added_tokens": [
    {
      "id": 0,
      "content": "[PAD]",
      "single_word": false,
      "lstrip": false,
      "rstrip": false,
      "normalized": false,
      "special": true
    },
    {
      "id": 1,
      "content": "[UNK]",
      "single_word": false,
      "lstrip": false,
      "rstrip": false,
      "normalized": false,
      "special": true
    },
    {
      "id": 2,
      "content": "[SEP]",
      "single_word": false,
      "lstrip": false,
      "rstrip": false,
      "normalized": false,
      "special": true
    },
    {
      "id": 3,
      "content": "[EOS]",
      "single_word": false,
      "lstrip": false,
      "rstrip": false,
      "normalized": false,
      "special": true
    }
  ],
  "normalizer": {
    "type": "NFC"
  },
  "pre_tokenizer": {
    "type": "ByteLevel",
    "add_prefix_space": false,
    "trim_offsets": true,
    "use_regex": true
  },
  "post_processor": null,
  "decoder": {
    "type": "ByteLevel",
    "add_prefix_space": true,
    "trim_offsets": true,
    "use_regex": true
  },
  "model": {
    "type": "BPE",
    "dropout": null,
    "unk_token": "[UNK]",
    "continuing_subword_prefix": null,
    "end_of_word_suffix": null,
    "fuse_unk": false,
    "byte_fallback": false,
    "ignore_merges": false,
    "vocab": {
      "[PAD]": 0,
      "[UNK]": 1,
      "[SEP]": 2,
      "[EOS]": 3,
      "!": 4,
      "\"": 5,
      "#": 6,
      "$": 7,
      "%": 8,
      "&": 9,
      "'": 10,
      "(": 11,
      ")": 12,
      "*": 13,
      "+": 14,
      ",": 15,
      "-": 16,
      ".": 17,
      "/": 18,
      "0": 19,
      "1": 20,
      "2": 21,
      "3": 22,
      "4": 23,
      "5": 24,
      "6": 25,
      "7": 26,
      "8": 27,
      "9": 28,
      ":": 29,
      ";": 30,
      "<": 31,
      "=": 32,
      ">": 33,
      "?": 34,
      "@": 35,
      "A": 36,
      "B": 37,
      "C": 38,
      "D": 39,
      "E": 40,
      "F": 41,
      "G": 42,
      "H": 43,
      "I": 44,
      "J": 45,
      "K": 46,
      "L": 47,
      "M": 48,
      "N": 49,
      "O": 50,
      "P": 51,
      "Q": 52,
      "R": 53,
      "S": 54,
      "T": 55,
      "U": 56,
      "V": 57,
      "W": 58,
      "X": 59,
      "Y": 60,
      "Z": 61,
      "[": 62,
      "\\": 63,
      "]": 64,
      "^": 65,
      "_": 66,
      "`": 67,
      "a": 68,
      "b": 69,
      "c": 70,
      "d": 71,
      "e": 72,
      "f": 73,
      "g": 74,
      "h": 75,
      "i": 76,
      "j": 77,
      "k": 78,
      "l": 79,
      "m": 80,
      "n": 81,
      "o": 82,
      "p": 83,
      "q": 84,
      "r": 85,
      "s": 86,
      "t": 87,
      "u": 88,
      "v": 89,
      "w": 90,
      "x": 91,
      "y": 92,
      "z": 93,
      "{": 94,
      "|": 95,
      "}": 96,
      "~": 97,
      "¡": 98,
      "¢": 99,
      "£": 100,
      "¤": 101,
      "¥": 102,
      "¦": 103,
      "§": 104,
      "¨": 105,
      "©": 106,
      "ª": 107,
      "«": 108,
      "¬": 109,
      "®": 110,
      "¯": 111,
      "°": 112,
      "±": 113,
      "²": 114,
      "³": 115,
      "´": 116,
      "µ": 117,
      "¶": 118,
      "·": 119,
      "¸": 120,
      "¹": 121,
      "º": 122,
      "»": 123,
      "¼": 124,
      "½": 125,
      "¾": 126,
      "¿": 127,
      "À": 128,
      "Á": 129,
      "Â": 130,
      "Ã": 131,
      "Ä": 132,
      "Å": 133,
      "Æ": 134,
      "Ç": 135,
      "È": 136,
      "É": 137,
      "Ê": 138,
      "Ë": 139,
      "Ì": 140,
      "Í": 141,
      "Î": 142,
      "Ï": 143,
      "Ð": 144,
      "Ñ": 145,
      "Ò": 146,
      "Ó": 147,
      "Ô": 148,
      "Õ": 149,
      "Ö": 150,
      "×": 151,
      "Ø": 152,
      "Ù": 153,
      "Ú": 154,
      "Û": 155,
      "Ü": 156,
      "Ý": 157,
      "Þ": 158,
      "ß": 159,
      "à": 160,
      "á": 161,
      "â": 162,
      "ã": 163,
      "ä": 164,
      "å": 165,
      "æ": 166,
      "ç": 167,
      "è": 168,
      "é": 169,
      "ê": 170,
      "ë": 171,
      "ì": 172,
      "í": 173,
      "î": 174,
      "ï": 175,
      "ð": 176,
      "ñ": 177,
      "ò": 178,
      "ó": 179,
      "ô": 180,
      "õ": 181,
      "ö": 182,
      "÷": 183,
      "ø": 184,
      "ù": 185,
      "ú": 186,
      "û": 187,
      "ü": 188,
      "ý": 189,
      "þ": 190,
      "ÿ": 191,
      "Ā": 192,
      "ā": 193,
      "Ă": 194,
      "ă": 195,
      "Ą": 196,
      "ą": 197,
      "Ć": 198,
      "ć": 199,
      "Ĉ": 200,
      "ĉ": 201,
      "Ċ": 202,
      "ċ": 203,
      "Č": 204,
      "č": 205,
      "Ď": 206,
      "ď": 207,
      "Đ": 208,
      "đ": 209,
      "Ē": 210,
      "ē": 211,
      "Ĕ": 212,
      "ĕ": 213,
      "Ė": 214,
      "ė": 215,
      "Ę": 216,
      "ę": 217,
      "Ě": 218,
      "ě": 219,
      "Ĝ": 220,
      "ĝ": 221,
      "Ğ": 222,
      "ğ": 223,
      "Ġ": 224,
      "ġ": 225,
      "Ģ": 226,
      "ģ": 227,
      "Ĥ": 228,
      "ĥ": 229,
      "Ħ": 230,
      "ħ": 231,
      "Ĩ": 232,
      "ĩ": 233,
      "Ī": 234,
      "ī": 235,
      "Ĭ": 236,
      "ĭ": 237,
      "Į": 238,
      "į": 239,
      "İ": 240,
      "ı": 241,
      "Ĳ": 242,
      "ĳ": 243,
      "Ĵ": 244,
      "ĵ": 245,
      "Ķ": 246,
      "ķ": 247,
      "ĸ": 248,
      "Ĺ": 249,
      "ĺ": 250,
      "Ļ": 251,
      "ļ": 252,
      "Ľ": 253,
      "ľ": 254,
      "Ŀ": 255,
      "ŀ": 256,
      "Ł": 257,
      "ł": 258,
      "Ń": 259,
      "Ġì": 260,
      "ìĿ": 261,
      "Ġë": 262,
      "en": 263,
      "Ġg": 264,
      "he": 265,
      "ìĥ": 266,
      "ìĥī": 267,
      "ĭ¤": 268,
      "un": 269,
      "Ġd": 270,
      "Ġê": 271,
      "ch": 272,
      "Ġs": 273,
      "Ġb": 274,
      "Ġgr": 275,
      "ëĭ¤": 276,
      "Ġt": 277,
      "Ģìĥī": 278,
      "ìĿ´": 279,
      "Ġa": 280,
      "ëĬ": 281,
      "Ġthe": 282,
      "Ġê²": 283,
      "Ġí": 284,
      "la": 285,
      "te": 286,
      "ëĬĶ": 287,
      "ê°": 288,
      "Ġw": 289,
      "ÃŁ": 290,
      "ung": 291,
      "ìĿĢ": 292,
      "ë¦": 293,
      "ei": 294,
      "¬ì": 295,
      "is": 296,
      "Ġis": 297,
      "ëĭ¤ëĬĶ": 298,
      "Ġê²ĥ": 299,
      "ll": 300,
      "Ġy": 301,
      "Ġr": 302,
      "Ġìŀ": 303,
      "er": 304,
      "und": 305,
      "Ã¼": 306,
      "ëŀ": 307,
      "ê°Ģ": 308,
      "Ġo": 309,
      "ëŀĢìĥī": 310,
      "Ġbla": 311,
      "ck": 312,
      "on": 313,
      "se": 314,
      "ìĸ": 315,
      "Ġge": 316,
      "Ĥ¬ì": 317,
      "ĠìĤ¬ì": 318,
      "Ġj": 319,
      "The": 320,
      "nd": 321,
      "Ġund": 322,
      "Ġand": 323,
      "ue": 324,
      "ow": 325,
      "ne": 326,
      "ÃŁe": 327,
      "Ġìĸ": 328,
      "Ġgre": 329,
      "ie": 330,
      "Ġv": 331,
      "ge": 332,
      "rge": 333,
      "Ġla": 334,
      "ģ°": 335,
      "Ġgro": 336,
      "Ġlarge": 337,
      "all": 338,
      "kl": 339,
      "mall": 340,
      "Ġkl": 341,
      "ĳìĿĢ": 342,
      "Ġsmall": 343,
      "Ġklei": 344,
      "ar": 345,
      "oung": 346,
      "´ë¦": 347,
      "Ġyoung": 348,
      "Ġjung": 349,
      "´ë¦°": 350,
      "ĠK": 351,
      "ld": 352,
      "ĻìĿĢ": 353,
      "Ġal": 354,
      "Ġold": 355,
      "Ġvon": 356,
      "ê³": 357,
      "ĳĲ": 358,
      "Ġë§": 359,
      "as": 360,
      "¨ë": 361,
      "ª¨ë": 362,
      "Ġëª¨ë": 363,
      "ĭ¤ìĿ´": 364,
      "Ġê²ĥìĿ´": 365,
      "Ġê²ĥê³": 366,
      "ĠìŀĪ": 367,
      "ĠìĤ¬ìĭ¤ìĿ´": 368,
      "Ġëª¨ëĳĲ": 369,
      "Ġê²ĥê³¼": 370,
      "ĠìĤ¬ìĭ¤ìĿ´ëĭ¤": 371,
      "ĠgrÃ¼": 372,
      "¥¼": 373,
      "ë¥¼": 374,
      "em": 375,
      "Ġdem": 376,
      "Ġn": 377,
      "ze": 378,
      "li": 379,
      "Ġíģ°": 380,
      "Ġch": 381,
      "ĠìŀĳìĿĢ": 382,
      "Ġìĸ´ë¦°": 383,
      "ĬĻìĿĢ": 384,
      "ĠëĬĻìĿĢ": 385,
      "ĠH": 386,
      "ell": 387,
      "lb": 388,
      "¸ëŀĢìĥī": 389,
      "ħ¸ëŀĢìĥī": 390,
      "Ġëħ¸ëŀĢìĥī": 391,
      "Ġyell": 392,
      "Ġgelb": 393,
      "Ġyellow": 394,
      "war": 395,
      "ĢìĿ": 396,
      "chwar": 397,
      "Ġschwar": 398,
      "Ġê²ĢìĿ": 399,
      "Ġblack": 400,
      "Ġê²ĢìĿĢìĥī": 401,
      "lue": 402,
      "ĮĮ": 403,
      "Ġblue": 404,
      "ĠíĮĮ": 405,
      "ĠíĮĮëŀĢìĥī": 406,
      "ĠgroÃŁe": 407,
      "Ġkleine": 408,
      "Ġjunge": 409,
      "ed": 410,
      "¨ê°": 411,
      "¹¨ê°": 412,
      "Ħìĥī": 413,
      "Ġë¹¨ê°": 414,
      "Ġro": 415,
      "Ġred": 416,
      "Ġë¹¨ê°Ħìĥī": 417,
      "rd": 418,
      "Ġc": 419,
      "Ġder": 420,
      "Ġalte": 421,
      "ĠKa": 422,
      "¡Ŀ": 423,
      "´Ī": 424,
      "ë¡Ŀ": 425,
      "Ġì´Ī": 426,
      "Ġgreen": 427,
      "ë¡Ŀìĥī": 428,
      "Ġì´Īë¡Ŀìĥī": 429,
      "Ġê³": 430,
      "hi": 431,
      "re": 432,
      "ķĺ": 433,
      "Ġíķĺ": 434,
      "Ġwei": 435,
      "Ġwhi": 436,
      "ìĸĢìĥī": 437,
      "ĠíķĺìĸĢìĥī": 438,
      "Ġwhite": 439,
      "ë¦¬": 440,
      "ten": 441,
      "uh": 442,
      "ëĬĶëĭ¤ëĬĶ": 443,
      "ird": 444,
      "ìĹ": 445,
      "ìĿĺ": 446,
      "Ġby": 447,
      "Ġwird": 448,
      "Ġist": 449,
      "Ġë§Ī": 450,
      "ĠìŀĪëĭ¤ëĬĶ": 451,
      "ìĹĲ": 452,
      "Ġf": 453,
      "ÃŁen": 454,
      "nen": 455,
      "Ġse": 456,
      "Ã¶": 457,
      "es": 458,
      "Ġdo": 459,
      "Ġdas": 460,
      "ĠìĹ": 461,
      "Ġdie": 462,
      "ĳìĿ´": 463,
      "ou": 464,
      "Ġgelbe": 465,
      "Ġschwarze": 466,
      "Ġblaue": 467,
      "Ġrote": 468,
      "ĠgrÃ¼ne": 469,
      "ĠweiÃŁe": 470,
      "ë¦¬ê°Ģ": 471,
      "or": 472,
      "Ġbe": 473,
      "ĠìĹ¬ì": 474,
      "°ĺ": 475,
      "ê¸": 476,
      "Ġë°ĺ": 477,
      "ÃŁt": 478,
      "Ġgree": 479,
      "Ġë°ĺê¸": 480,
      "Ġìķ": 481,
      "ag": 482,
      "ase": 483,
      "«ĵ": 484,
      "Ġì«ĵ": 485,
      "Ġchase": 486,
      "agt": 487,
      "ª½": 488,
      "ìª½": 489,
      "Ġof": 490,
      "lich": 491,
      "ìª½ìĹĲ": 492,
      "Ġë³": 493,
      "ìĿĦ": 494,
      "Ã¤": 495,
      "cht": 496,
      "chs": 497,
      "LÃ¶": 498,
      "Ġli": 499,
      "ĠLÃ¶": 500,
      "ŀĲ": 501,
      "ĠìĤ¬ìŀĲ": 502,
      "Ġlion": 503,
      "ĠLÃ¶w": 504,
      "°ľ": 505,
      "Ġê°ľ": 506,
      "ĠHund": 507,
      "Ġdog": 508,
      "ick": 509,
      "ĭŃ": 510,
      "ĠëĭŃ": 511,
      "Ġchick": 512,
      "Ġchicken": 513,
      "ĠgroÃŁen": 514,
      "¥Ĳ": 515,
      "ĠM": 516,
      "Ġm": 517,
      "Ġì¥Ĳ": 518,
      "Sch": 519,
      "af": 520,
      "ep": 521,
      "ĠSch": 522,
      "heep": 523,
      "Ġsheep": 524,
      "ĠSchaf": 525,
      "ĨĮ": 526,
      "ĠìĨĮ": 527,
      "Ġcow": 528,
      "Ġjungen": 529,
      "Ġkleinen": 530,
      "Pf": 531,
      "hor": 532,
      "ĠPf": 533,
      "Ġhor": 534,
      "erd": 535,
      "Ġë§Ĳ": 536,
      "ĠPferd": 537,
      "Ġhorse": 538,
      "ab": 539,
      "bi": 540,
      "in": 541,
      "nin": 542,
      "ëģ": 543,
      "Ĩł": 544,
      "chen": 545,
      "ĠíĨł": 546,
      "Ġrab": 547,
      "ĠKanin": 548,
      "bit": 549,
      "ëģ¼": 550,
      "ĠíĨłëģ¼": 551,
      "Ġrabbit": 552,
      "ĠKaninchen": 553,
      "at": 554,
      "łìĸ": 555,
      "Ġcat": 556,
      "ĠKat": 557,
      "Ġê³łìĸ": 558,
      "Ġê³łìĸĳìĿ´": 559,
      "Ġalten": 560,
      "En": 561,
      "uck": 562,
      "ĠEn": 563,
      "ĺ¤": 564,
      "Ġìĺ¤": 565,
      "Ġduck": 566,
      "BÃ¤": 567,
      "ĠBÃ¤": 568,
      "Ġê³°": 569,
      "Ġbear": 570,
      "ĠBÃ¤r": 571,
      "ox": 572,
      "ĠF": 573,
      "ļ°": 574,
      "Ġfox": 575,
      "ĠìĹ¬ìļ°": 576,
      "ĠHuh": 577,
      "ĠHuhn": 578,
      "ĠKuh": 579,
      "au": 580,
      "ouse": 581,
      "ĠMau": 582,
      "Ġmouse": 583,
      "ĠMaus": 584,
      "´ëĭ¤ëĬĶ": 585,
      "Ġë°ĺê¸´ëĭ¤ëĬĶ": 586,
      "Ġì«ĵëĬĶëĭ¤ëĬĶ": 587,
      "ìŀ": 588,
      "ìŀĳìĿĢ": 589,
      "ëĬĻìĿĢ": 590,
      "Der": 591,
      "Die": 592,
      "Es": 593,
      "bt": 594,
      "icht": 595,
      "ibt": 596,
      "ot": 597,
      "§Ģ": 598,
      "ì§Ģ": 599,
      "íģ°": 600,
      "ĬëĬĶëĭ¤ëĬĶ": 601,
      "ĻĢ": 602,
      "Ġgibt": 603,
      "Ġare": 604,
      "ë¦¬ì": 605,
      "There": 606,
      "ĠìŀĪëĭ¤": 607,
      "Ġnicht": 608,
      "Ġnot": 609,
      "Ġë§Īë¦¬ê°Ģ": 610,
      "Ġë§Īë¦¬ì": 611,
      "ĠìķĬëĬĶëĭ¤ëĬĶ": 612,
      "Ġë§Īë¦¬ìĻĢ": 613,
      "Das": 614,
      "ìĸ´ë¦°": 615,
      "¸ëĭ¤ëĬĶ": 616,
      "Ġë³¸ëĭ¤ëĬĶ": 617,
      "ĠKatze": 618,
      "ĠEnte": 619,
      "Ġsie": 620,
      "zen": 621,
      "ht": 622,
      "uchs": 623,
      "ĠFuchs": 624,
      "uen": 625,
      "Ġblauen": 626,
      "Ġgelben": 627,
      "Ġschwarzen": 628,
      "Ġroten": 629,
      "ĠweiÃŁen": 630,
      "ĠgrÃ¼nen": 631,
      "ĠLÃ¶wen": 632,
      "tlich": 633,
      "Ġwes": 634,
      "gr": 635,
      "ted": 636,
      "Ã¼ÃŁt": 637,
      "Ġgegr": 638,
      "ĠgrÃ¼ÃŁt": 639,
      "Ġgreet": 640,
      "Ġgreeted": 641,
      "ĠgegrÃ¼ÃŁt": 642,
      "Ġìĸĳ": 643,
      "jagt": 644,
      "Ġgejagt": 645,
      "Ġjagt": 646,
      "Ġchased": 647,
      "Ġden": 648,
      "hen": 649,
      "sehen": 650,
      "Ġgesehen": 651,
      "Ġseen": 652,
      "Ġsieht": 653,
      "Ġìĺ¤ë¦¬": 654,
      "th": 655,
      "ĠBÃ¤ren": 656,
      "ve": 657,
      "ĠìĦ": 658,
      "Ħ¯": 659,
      "ĠìĤ¬ìŀĲê°Ģ": 660,
      "ĠLÃ¶we": 661,
      "ĠëĭŃìĿ´": 662,
      "Ġê°ľê°Ģ": 663,
      "ĠìĨĮê°Ģ": 664,
      "ĠìĸĳìĿ´": 665,
      "Ġì¥Ĳê°Ģ": 666,
      "Ġgreets": 667,
      "Ġchases": 668,
      "Ġdoes": 669,
      "ĠíĨłëģ¼ê°Ģ": 670,
      "Ġsees": 671,
      "Ġê³łìĸĳìĿ´ê°Ģ": 672,
      "Ġë§ĲìĿ´": 673,
      "Ġìĺ¤ë¦¬ê°Ģ": 674,
      "Ġê³°ìĿ´": 675,
      "ĠìĹ¬ìļ°ê°Ģ": 676,
      "ĠìĤ¬ìŀĲë¥¼": 677,
      "Ġê°ľë¥¼": 678,
      "ĠëĭŃìĿĦ": 679,
      "Ġì¥Ĳë¥¼": 680,
      "eas": 681,
      "stlich": 682,
      "ĠÃ¶": 683,
      "Ġeas": 684,
      "ıĻ": 685,
      "ľìª½ìĹĲ": 686,
      "ĠëıĻ": 687,
      "Ġwest": 688,
      "Ġwestlich": 689,
      "ĠìĦľìª½ìĹĲ": 690,
      "ĠÃ¶stlich": 691,
      "Ġeast": 692,
      "ĠëıĻìª½ìĹĲ": 693,
      "´ì§Ģ": 694,
      "Ġë³´ì§Ģ": 695,
      "bo": 696,
      "ber": 697,
      "low": 698,
      "Ġun": 699,
      "ĠÃ¼": 700,
      "Ħëŀ": 701,
      "ĦìĹĲ": 702,
      "ĺìĹĲ": 703,
      "ľĦìĹĲ": 704,
      "ĠìľĦìĹĲ": 705,
      "Ġabo": 706,
      "ter": 707,
      "Ġbelow": 708,
      "ĠìķĦëŀ": 709,
      "Ġunter": 710,
      "ĠÃ¼ber": 711,
      "Ġabove": 712,
      "ĠìķĦëŀĺìĹĲ": 713,
      "Ġìĺ¤ë¦¬ë¥¼": 714,
      "ĠìĸĳìĿĦ": 715,
      "ĠìĨĮë¥¼": 716,
      "°ì§Ģ": 717,
      "Ġë°ĺê¸°ì§Ģ": 718,
      "ĠíĨłëģ¼ë¥¼": 719,
      "Ġì«ĵì§Ģ": 720,
      "dlich": 721,
      "¨ìª½ìĹĲ": 722,
      "¶ģ": 723,
      "Ĥ¨ìª½ìĹĲ": 724,
      "Ġë¶ģ": 725,
      "ĠëĤ¨ìª½ìĹĲ": 726,
      "ĠsÃ¼": 727,
      "Ġsou": 728,
      "ĠnÃ¶": 729,
      "Ġnor": 730,
      "rdlich": 731,
      "Ġë¶ģìª½ìĹĲ": 732,
      "ĠsÃ¼dlich": 733,
      "Ġsouth": 734,
      "ĠnÃ¶rdlich": 735,
      "Ġnorth": 736,
      "Ġê³łìĸĳìĿ´ë¥¼": 737,
      "Ġê³°ìĿĦ": 738,
      "Ġë§ĲìĿĦ": 739,
      "ĠìĹ¬ìļ°ë¥¼": 740,
      "ben": 741,
      "ive": 742,
      "nf": 743,
      "ven": 744,
      "¼ê³": 745,
      "ìĦ¯": 746,
      "Ŀ¼ê³": 747,
      "ĠìĿ¼ê³": 748,
      "Ġëĭ¤": 749,
      "Ã¼nf": 750,
      "Ġfive": 751,
      "ĠfÃ¼nf": 752,
      "Ġseven": 753,
      "Ġsieben": 754,
      "ĠìĿ¼ê³±": 755,
      "Ġëĭ¤ìĦ¯": 756,
      "ier": 757,
      "Ħ¤": 758,
      "ĠëĦ¤": 759,
      "Ġvier": 760,
      "Ġfou": 761,
      "Ġfour": 762,
      "ght": 763,
      "¬ë": 764,
      "Ġei": 765,
      "įŁ": 766,
      "Ġacht": 767,
      "ĠìĹ¬ë": 768,
      "Ġeight": 769,
      "ĠìĹ¬ëįŁ": 770,
      "hre": 771,
      "rei": 772,
      "Ġdrei": 773,
      "Ġthre": 774,
      "ĠìĦ¸": 775,
      "Ġthree": 776,
      "wo": 777,
      "wei": 778,
      "zwei": 779,
      "Ġzwei": 780,
      "ĠëĳĲ": 781,
      "Ġtwo": 782,
      "ix": 783,
      "Ġsix": 784,
      "Ġsechs": 785,
      "ĠìĹ¬ìĦ¯": 786,
      "ĠHunde": 787,
      "Ġdogs": 788,
      "ĠPferde": 789,
      "Ġhorses": 790,
      "ĠìĤ¬ìŀĲìĿĺ": 791,
      "ĠëĭŃìĿĺ": 792,
      "ce": 793,
      "ice": 794,
      "use": 795,
      "Ã¤use": 796,
      "ĠMÃ¤use": 797,
      "Ġmice": 798,
      "ĠìĨĮìĿĺ": 799,
      "ĠìĸĳìĿĺ": 800,
      "ĠEnten": 801,
      "Ġducks": 802,
      "Ġë§ĲìĿĺ": 803,
      "Ġsee": 804,
      "Ġcats": 805,
      "ĠKatzen": 806,
      "Ġê³łìĸĳìĿ´ìĿĺ": 807,
      "Ġrabbits": 808,
      "Ġì¥ĲìĿĺ": 809,
      "Ġê³°ìĿĺ": 810,
      "Ġê°ľìĿĺ": 811,
      "ĠSchafe": 812,
      "ĠíĨłëģ¼ìĿĺ": 813,
      "Ġlions": 814,
      "chse": 815,
      "Ã¼chse": 816,
      "ĠFÃ¼chse": 817,
      "Ġfoxes": 818,
      "Ġbears": 819,
      "hn": 820,
      "Ã¼hn": 821,
      "ĠHÃ¼hn": 822,
      "Ġchickens": 823,
      "ĠHÃ¼hner": 824,
      "Ã¼he": 825,
      "ĠKÃ¼he": 826,
      "Ġcows": 827,
      "ĠìĹ¬ìļ°ìĿĺ": 828,
      "Ġìĺ¤ë¦¬ìĿĺ": 829
    },
    "merges": [
      [
        "Ġ",
        "ì"
      ],
      [
        "ì",
        "Ŀ"
      ],
      [
        "Ġ",
        "ë"
      ],
      [
        "e",
        "n"
      ],
      [
        "Ġ",
        "g"
      ],
      [
        "h",
        "e"
      ],
      [
        "ì",
        "ĥ"
      ],
      [
        "ìĥ",
        "ī"
      ],
      [
        "ĭ",
        "¤"
      ],
      [
        "u",
        "n"
      ],
      [
        "Ġ",
        "d"
      ],
      [
        "Ġ",
        "ê"
      ],
      [
        "c",
        "h"
      ],
      [
        "Ġ",
        "s"
      ],
      [
        "Ġ",
        "b"
      ],
      [
        "Ġg",
        "r"
      ],
      [
        "ë",
        "ĭ¤"
      ],
      [
        "Ġ",
        "t"
      ],
      [
        "Ģ",
        "ìĥī"
      ],
      [
        "ìĿ",
        "´"
      ],
      [
        "Ġ",
        "a"
      ],
      [
        "ë",
        "Ĭ"
      ],
      [
        "Ġt",
        "he"
      ],
      [
        "Ġê",
        "²"
      ],
      [
        "Ġ",
        "í"
      ],
      [
        "l",
        "a"
      ],
      [
        "t",
        "e"
      ],
      [
        "ëĬ",
        "Ķ"
      ],
      [
        "ê",
        "°"
      ],
      [
        "Ġ",
        "w"
      ],
      [
        "Ã",
        "Ł"
      ],
      [
        "un",
        "g"
      ],
      [
        "ìĿ",
        "Ģ"
      ],
      [
        "ë",
        "¦"
      ],
      [
        "e",
        "i"
      ],
      [
        "¬",
        "ì"
      ],
      [
        "i",
        "s"
      ],
      [
        "Ġ",
        "is"
      ],
      [
        "ëĭ¤",
        "ëĬĶ"
      ],
      [
        "Ġê²",
        "ĥ"
      ],
      [
        "l",
        "l"
      ],
      [
        "Ġ",
        "y"
      ],
      [
        "Ġ",
        "r"
      ],
      [
        "Ġì",
        "ŀ"
      ],
      [
        "e",
        "r"
      ],
      [
        "un",
        "d"
      ],
      [
        "Ã",
        "¼"
      ],
      [
        "ë",
        "ŀ"
      ],
      [
        "ê°",
        "Ģ"
      ],
      [
        "Ġ",
        "o"
      ],
      [
        "ëŀ",
        "Ģìĥī"
      ],
      [
        "Ġb",
        "la"
      ],
      [
        "c",
        "k"
      ],
      [
        "o",
        "n"
      ],
      [
        "s",
        "e"
      ],
      [
        "ì",
        "ĸ"
      ],
      [
        "Ġg",
        "e"
      ],
      [
        "Ĥ",
        "¬ì"
      ],
      [
        "Ġì",
        "Ĥ¬ì"
      ],
      [
        "Ġ",
        "j"
      ],
      [
        "T",
        "he"
      ],
      [
        "n",
        "d"
      ],
      [
        "Ġ",
        "und"
      ],
      [
        "Ġa",
        "nd"
      ],
      [
        "u",
        "e"
      ],
      [
        "o",
        "w"
      ],
      [
        "n",
        "e"
      ],
      [
        "ÃŁ",
        "e"
      ],
      [
        "Ġì",
        "ĸ"
      ],
      [
        "Ġgr",
        "e"
      ],
      [
        "i",
        "e"
      ],
      [
        "Ġ",
        "v"
      ],
      [
        "g",
        "e"
      ],
      [
        "r",
        "ge"
      ],
      [
        "Ġ",
        "la"
      ],
      [
        "ģ",
        "°"
      ],
      [
        "Ġgr",
        "o"
      ],
      [
        "Ġla",
        "rge"
      ],
      [
        "a",
        "ll"
      ],
      [
        "k",
        "l"
      ],
      [
        "m",
        "all"
      ],
      [
        "Ġ",
        "kl"
      ],
      [
        "ĳ",
        "ìĿĢ"
      ],
      [
        "Ġs",
        "mall"
      ],
      [
        "Ġkl",
        "ei"
      ],
      [
        "a",
        "r"
      ],
      [
        "o",
        "ung"
      ],
      [
        "´",
        "ë¦"
      ],
      [
        "Ġy",
        "oung"
      ],
      [
        "Ġj",
        "ung"
      ],
      [
        "´ë¦",
        "°"
      ],
      [
        "Ġ",
        "K"
      ],
      [
        "l",
        "d"
      ],
      [
        "Ļ",
        "ìĿĢ"
      ],
      [
        "Ġa",
        "l"
      ],
      [
        "Ġo",
        "ld"
      ],
      [
        "Ġv",
        "on"
      ],
      [
        "ê",
        "³"
      ],
      [
        "ĳ",
        "Ĳ"
      ],
      [
        "Ġë",
        "§"
      ],
      [
        "a",
        "s"
      ],
      [
        "¨",
        "ë"
      ],
      [
        "ª",
        "¨ë"
      ],
      [
        "Ġë",
        "ª¨ë"
      ],
      [
        "ĭ¤",
        "ìĿ´"
      ],
      [
        "Ġê²ĥ",
        "ìĿ´"
      ],
      [
        "Ġê²ĥ",
        "ê³"
      ],
      [
        "Ġìŀ",
        "Ī"
      ],
      [
        "ĠìĤ¬ì",
        "ĭ¤ìĿ´"
      ],
      [
        "Ġëª¨ë",
        "ĳĲ"
      ],
      [
        "Ġê²ĥê³",
        "¼"
      ],
      [
        "ĠìĤ¬ìĭ¤ìĿ´",
        "ëĭ¤"
      ],
      [
        "Ġgr",
        "Ã¼"
      ],
      [
        "¥",
        "¼"
      ],
      [
        "ë",
        "¥¼"
      ],
      [
        "e",
        "m"
      ],
      [
        "Ġd",
        "em"
      ],
      [
        "Ġ",
        "n"
      ],
      [
        "z",
        "e"
      ],
      [
        "l",
        "i"
      ],
      [
        "Ġí",
        "ģ°"
      ],
      [
        "Ġ",
        "ch"
      ],
      [
        "Ġìŀ",
        "ĳìĿĢ"
      ],
      [
        "Ġìĸ",
        "´ë¦°"
      ],
      [
        "Ĭ",
        "ĻìĿĢ"
      ],
      [
        "Ġë",
        "ĬĻìĿĢ"
      ],
      [
        "Ġ",
        "H"
      ],
      [
        "e",
        "ll"
      ],
      [
        "l",
        "b"
      ],
      [
        "¸",
        "ëŀĢìĥī"
      ],
      [
        "ħ",
        "¸ëŀĢìĥī"
      ],
      [
        "Ġë",
        "ħ¸ëŀĢìĥī"
      ],
      [
        "Ġy",
        "ell"
      ],
      [
        "Ġge",
        "lb"
      ],
      [
        "Ġyell",
        "ow"
      ],
      [
        "w",
        "ar"
      ],
      [
        "Ģ",
        "ìĿ"
      ],
      [
        "ch",
        "war"
      ],
      [
        "Ġs",
        "chwar"
      ],
      [
        "Ġê²",
        "ĢìĿ"
      ],
      [
        "Ġbla",
        "ck"
      ],
      [
        "Ġê²ĢìĿ",
        "Ģìĥī"
      ],
      [
        "l",
        "ue"
      ],
      [
        "Į",
        "Į"
      ],
      [
        "Ġb",
        "lue"
      ],
      [
        "Ġí",
        "ĮĮ"
      ],
      [
        "ĠíĮĮ",
        "ëŀĢìĥī"
      ],
      [
        "Ġgro",
        "ÃŁe"
      ],
      [
        "Ġklei",
        "ne"
      ],
      [
        "Ġjung",
        "e"
      ],
      [
        "e",
        "d"
      ],
      [
        "¨",
        "ê°"
      ],
      [
        "¹",
        "¨ê°"
      ],
      [
        "Ħ",
        "ìĥī"
      ],
      [
        "Ġë",
        "¹¨ê°"
      ],
      [
        "Ġr",
        "o"
      ],
      [
        "Ġr",
        "ed"
      ],
      [
        "Ġë¹¨ê°",
        "Ħìĥī"
      ],
      [
        "r",
        "d"
      ],
      [
        "Ġ",
        "c"
      ],
      [
        "Ġd",
        "er"
      ],
      [
        "Ġal",
        "te"
      ],
      [
        "ĠK",
        "a"
      ],
      [
        "¡",
        "Ŀ"
      ],
      [
        "´",
        "Ī"
      ],
      [
        "ë",
        "¡Ŀ"
      ],
      [
        "Ġì",
        "´Ī"
      ],
      [
        "Ġgre",
        "en"
      ],
      [
        "ë¡Ŀ",
        "ìĥī"
      ],
      [
        "Ġì´Ī",
        "ë¡Ŀìĥī"
      ],
      [
        "Ġê",
        "³"
      ],
      [
        "h",
        "i"
      ],
      [
        "r",
        "e"
      ],
      [
        "ķ",
        "ĺ"
      ],
      [
        "Ġí",
        "ķĺ"
      ],
      [
        "Ġw",
        "ei"
      ],
      [
        "Ġw",
        "hi"
      ],
      [
        "ìĸ",
        "Ģìĥī"
      ],
      [
        "Ġíķĺ",
        "ìĸĢìĥī"
      ],
      [
        "Ġwhi",
        "te"
      ],
      [
        "ë¦",
        "¬"
      ],
      [
        "t",
        "en"
      ],
      [
        "u",
        "h"
      ],
      [
        "ëĬĶ",
        "ëĭ¤ëĬĶ"
      ],
      [
        "i",
        "rd"
      ],
      [
        "ì",
        "Ĺ"
      ],
      [
        "ìĿ",
        "ĺ"
      ],
      [
        "Ġb",
        "y"
      ],
      [
        "Ġw",
        "ird"
      ],
      [
        "Ġis",
        "t"
      ],
      [
        "Ġë§",
        "Ī"
      ],
      [
        "ĠìŀĪ",
        "ëĭ¤ëĬĶ"
      ],
      [
        "ìĹ",
        "Ĳ"
      ],
      [
        "Ġ",
        "f"
      ],
      [
        "ÃŁ",
        "en"
      ],
      [
        "n",
        "en"
      ],
      [
        "Ġs",
        "e"
      ],
      [
        "Ã",
        "¶"
      ],
      [
        "e",
        "s"
      ],
      [
        "Ġd",
        "o"
      ],
      [
        "Ġd",
        "as"
      ],
      [
        "Ġì",
        "Ĺ"
      ],
      [
        "Ġd",
        "ie"
      ],
      [
        "ĳ",
        "ìĿ´"
      ],
      [
        "o",
        "u"
      ],
      [
        "Ġgelb",
        "e"
      ],
      [
        "Ġschwar",
        "ze"
      ],
      [
        "Ġbla",
        "ue"
      ],
      [
        "Ġro",
        "te"
      ],
      [
        "ĠgrÃ¼",
        "ne"
      ],
      [
        "Ġwei",
        "ÃŁe"
      ],
      [
        "ë¦¬",
        "ê°Ģ"
      ],
      [
        "o",
        "r"
      ],
      [
        "Ġb",
        "e"
      ],
      [
        "ĠìĹ",
        "¬ì"
      ],
      [
        "°",
        "ĺ"
      ],
      [
        "ê",
        "¸"
      ],
      [
        "Ġë",
        "°ĺ"
      ],
      [
        "ÃŁ",
        "t"
      ],
      [
        "Ġgre",
        "e"
      ],
      [
        "Ġë°ĺ",
        "ê¸"
      ],
      [
        "Ġì",
        "ķ"
      ],
      [
        "a",
        "g"
      ],
      [
        "a",
        "se"
      ],
      [
        "«",
        "ĵ"
      ],
      [
        "Ġì",
        "«ĵ"
      ],
      [
        "Ġch",
        "ase"
      ],
      [
        "ag",
        "t"
      ],
      [
        "ª",
        "½"
      ],
      [
        "ì",
        "ª½"
      ],
      [
        "Ġo",
        "f"
      ],
      [
        "li",
        "ch"
      ],
      [
        "ìª½",
        "ìĹĲ"
      ],
      [
        "Ġë",
        "³"
      ],
      [
        "ìĿ",
        "Ħ"
      ],
      [
        "Ã",
        "¤"
      ],
      [
        "ch",
        "t"
      ],
      [
        "ch",
        "s"
      ],
      [
        "L",
        "Ã¶"
      ],
      [
        "Ġ",
        "li"
      ],
      [
        "Ġ",
        "LÃ¶"
      ],
      [
        "ŀ",
        "Ĳ"
      ],
      [
        "ĠìĤ¬ì",
        "ŀĲ"
      ],
      [
        "Ġli",
        "on"
      ],
      [
        "ĠLÃ¶",
        "w"
      ],
      [
        "°",
        "ľ"
      ],
      [
        "Ġê",
        "°ľ"
      ],
      [
        "ĠH",
        "und"
      ],
      [
        "Ġdo",
        "g"
      ],
      [
        "i",
        "ck"
      ],
      [
        "ĭ",
        "Ń"
      ],
      [
        "Ġë",
        "ĭŃ"
      ],
      [
        "Ġch",
        "ick"
      ],
      [
        "Ġchick",
        "en"
      ],
      [
        "Ġgro",
        "ÃŁen"
      ],
      [
        "¥",
        "Ĳ"
      ],
      [
        "Ġ",
        "M"
      ],
      [
        "Ġ",
        "m"
      ],
      [
        "Ġì",
        "¥Ĳ"
      ],
      [
        "S",
        "ch"
      ],
      [
        "a",
        "f"
      ],
      [
        "e",
        "p"
      ],
      [
        "Ġ",
        "Sch"
      ],
      [
        "he",
        "ep"
      ],
      [
        "Ġs",
        "heep"
      ],
      [
        "ĠSch",
        "af"
      ],
      [
        "Ĩ",
        "Į"
      ],
      [
        "Ġì",
        "ĨĮ"
      ],
      [
        "Ġc",
        "ow"
      ],
      [
        "Ġjung",
        "en"
      ],
      [
        "Ġklei",
        "nen"
      ],
      [
        "P",
        "f"
      ],
      [
        "h",
        "or"
      ],
      [
        "Ġ",
        "Pf"
      ],
      [
        "Ġ",
        "hor"
      ],
      [
        "er",
        "d"
      ],
      [
        "Ġë§",
        "Ĳ"
      ],
      [
        "ĠPf",
        "erd"
      ],
      [
        "Ġhor",
        "se"
      ],
      [
        "a",
        "b"
      ],
      [
        "b",
        "i"
      ],
      [
        "i",
        "n"
      ],
      [
        "n",
        "in"
      ],
      [
        "ë",
        "ģ"
      ],
      [
        "Ĩ",
        "ł"
      ],
      [
        "ch",
        "en"
      ],
      [
        "Ġí",
        "Ĩł"
      ],
      [
        "Ġr",
        "ab"
      ],
      [
        "ĠKa",
        "nin"
      ],
      [
        "bi",
        "t"
      ],
      [
        "ëģ",
        "¼"
      ],
      [
        "ĠíĨł",
        "ëģ¼"
      ],
      [
        "Ġrab",
        "bit"
      ],
      [
        "ĠKanin",
        "chen"
      ],
      [
        "a",
        "t"
      ],
      [
        "ł",
        "ìĸ"
      ],
      [
        "Ġc",
        "at"
      ],
      [
        "ĠKa",
        "t"
      ],
      [
        "Ġê³",
        "łìĸ"
      ],
      [
        "Ġê³łìĸ",
        "ĳìĿ´"
      ],
      [
        "Ġal",
        "ten"
      ],
      [
        "E",
        "n"
      ],
      [
        "u",
        "ck"
      ],
      [
        "Ġ",
        "En"
      ],
      [
        "ĺ",
        "¤"
      ],
      [
        "Ġì",
        "ĺ¤"
      ],
      [
        "Ġd",
        "uck"
      ],
      [
        "B",
        "Ã¤"
      ],
      [
        "Ġ",
        "BÃ¤"
      ],
      [
        "Ġê³",
        "°"
      ],
      [
        "Ġbe",
        "ar"
      ],
      [
        "ĠBÃ¤",
        "r"
      ],
      [
        "o",
        "x"
      ],
      [
        "Ġ",
        "F"
      ],
      [
        "ļ",
        "°"
      ],
      [
        "Ġf",
        "ox"
      ],
      [
        "ĠìĹ¬ì",
        "ļ°"
      ],
      [
        "ĠH",
        "uh"
      ],
      [
        "ĠHuh",
        "n"
      ],
      [
        "ĠK",
        "uh"
      ],
      [
        "a",
        "u"
      ],
      [
        "ou",
        "se"
      ],
      [
        "ĠM",
        "au"
      ],
      [
        "Ġm",
        "ouse"
      ],
      [
        "ĠMau",
        "s"
      ],
      [
        "´",
        "ëĭ¤ëĬĶ"
      ],
      [
        "Ġë°ĺê¸",
        "´ëĭ¤ëĬĶ"
      ],
      [
        "Ġì«ĵ",
        "ëĬĶëĭ¤ëĬĶ"
      ],
      [
        "ì",
        "ŀ"
      ],
      [
        "ìŀ",
        "ĳìĿĢ"
      ],
      [
        "ëĬ",
        "ĻìĿĢ"
      ],
      [
        "D",
        "er"
      ],
      [
        "D",
        "ie"
      ],
      [
        "E",
        "s"
      ],
      [
        "b",
        "t"
      ],
      [
        "i",
        "cht"
      ],
      [
        "i",
        "bt"
      ],
      [
        "o",
        "t"
      ],
      [
        "§",
        "Ģ"
      ],
      [
        "ì",
        "§Ģ"
      ],
      [
        "í",
        "ģ°"
      ],
      [
        "Ĭ",
        "ëĬĶëĭ¤ëĬĶ"
      ],
      [
        "Ļ",
        "Ģ"
      ],
      [
        "Ġg",
        "ibt"
      ],
      [
        "Ġa",
        "re"
      ],
      [
        "ë¦",
        "¬ì"
      ],
      [
        "The",
        "re"
      ],
      [
        "ĠìŀĪ",
        "ëĭ¤"
      ],
      [
        "Ġn",
        "icht"
      ],
      [
        "Ġn",
        "ot"
      ],
      [
        "Ġë§Ī",
        "ë¦¬ê°Ģ"
      ],
      [
        "Ġë§Ī",
        "ë¦¬ì"
      ],
      [
        "Ġìķ",
        "ĬëĬĶëĭ¤ëĬĶ"
      ],
      [
        "Ġë§Īë¦¬ì",
        "ĻĢ"
      ],
      [
        "D",
        "as"
      ],
      [
        "ìĸ",
        "´ë¦°"
      ],
      [
        "¸",
        "ëĭ¤ëĬĶ"
      ],
      [
        "Ġë³",
        "¸ëĭ¤ëĬĶ"
      ],
      [
        "ĠKat",
        "ze"
      ],
      [
        "ĠEn",
        "te"
      ],
      [
        "Ġs",
        "ie"
      ],
      [
        "z",
        "en"
      ],
      [
        "h",
        "t"
      ],
      [
        "u",
        "chs"
      ],
      [
        "ĠF",
        "uchs"
      ],
      [
        "u",
        "en"
      ],
      [
        "Ġbla",
        "uen"
      ],
      [
        "Ġgelb",
        "en"
      ],
      [
        "Ġschwar",
        "zen"
      ],
      [
        "Ġro",
        "ten"
      ],
      [
        "Ġwei",
        "ÃŁen"
      ],
      [
        "ĠgrÃ¼",
        "nen"
      ],
      [
        "ĠLÃ¶w",
        "en"
      ],
      [
        "t",
        "lich"
      ],
      [
        "Ġw",
        "es"
      ],
      [
        "g",
        "r"
      ],
      [
        "te",
        "d"
      ],
      [
        "Ã¼",
        "ÃŁt"
      ],
      [
        "Ġge",
        "gr"
      ],
      [
        "ĠgrÃ¼",
        "ÃŁt"
      ],
      [
        "Ġgree",
        "t"
      ],
      [
        "Ġgree",
        "ted"
      ],
      [
        "Ġgegr",
        "Ã¼ÃŁt"
      ],
      [
        "Ġìĸ",
        "ĳ"
      ],
      [
        "j",
        "agt"
      ],
      [
        "Ġge",
        "jagt"
      ],
      [
        "Ġj",
        "agt"
      ],
      [
        "Ġchase",
        "d"
      ],
      [
        "Ġd",
        "en"
      ],
      [
        "h",
        "en"
      ],
      [
        "se",
        "hen"
      ],
      [
        "Ġge",
        "sehen"
      ],
      [
        "Ġse",
        "en"
      ],
      [
        "Ġsie",
        "ht"
      ],
      [
        "Ġìĺ¤",
        "ë¦¬"
      ],
      [
        "t",
        "h"
      ],
      [
        "ĠBÃ¤r",
        "en"
      ],
      [
        "v",
        "e"
      ],
      [
        "Ġì",
        "Ħ"
      ],
      [
        "Ħ",
        "¯"
      ],
      [
        "ĠìĤ¬ìŀĲ",
        "ê°Ģ"
      ],
      [
        "ĠLÃ¶w",
        "e"
      ],
      [
        "ĠëĭŃ",
        "ìĿ´"
      ],
      [
        "Ġê°ľ",
        "ê°Ģ"
      ],
      [
        "ĠìĨĮ",
        "ê°Ģ"
      ],
      [
        "Ġìĸ",
        "ĳìĿ´"
      ],
      [
        "Ġì¥Ĳ",
        "ê°Ģ"
      ],
      [
        "Ġgreet",
        "s"
      ],
      [
        "Ġchase",
        "s"
      ],
      [
        "Ġdo",
        "es"
      ],
      [
        "ĠíĨłëģ¼",
        "ê°Ģ"
      ],
      [
        "Ġse",
        "es"
      ],
      [
        "Ġê³łìĸĳìĿ´",
        "ê°Ģ"
      ],
      [
        "Ġë§Ĳ",
        "ìĿ´"
      ],
      [
        "Ġìĺ¤",
        "ë¦¬ê°Ģ"
      ],
      [
        "Ġê³°",
        "ìĿ´"
      ],
      [
        "ĠìĹ¬ìļ°",
        "ê°Ģ"
      ],
      [
        "ĠìĤ¬ìŀĲ",
        "ë¥¼"
      ],
      [
        "Ġê°ľ",
        "ë¥¼"
      ],
      [
        "ĠëĭŃ",
        "ìĿĦ"
      ],
      [
        "Ġì¥Ĳ",
        "ë¥¼"
      ],
      [
        "e",
        "as"
      ],
      [
        "s",
        "tlich"
      ],
      [
        "Ġ",
        "Ã¶"
      ],
      [
        "Ġ",
        "eas"
      ],
      [
        "ı",
        "Ļ"
      ],
      [
        "ľ",
        "ìª½ìĹĲ"
      ],
      [
        "Ġë",
        "ıĻ"
      ],
      [
        "Ġwes",
        "t"
      ],
      [
        "Ġwes",
        "tlich"
      ],
      [
        "ĠìĦ",
        "ľìª½ìĹĲ"
      ],
      [
        "ĠÃ¶",
        "stlich"
      ],
      [
        "Ġeas",
        "t"
      ],
      [
        "ĠëıĻ",
        "ìª½ìĹĲ"
      ],
      [
        "´",
        "ì§Ģ"
      ],
      [
        "Ġë³",
        "´ì§Ģ"
      ],
      [
        "b",
        "o"
      ],
      [
        "b",
        "er"
      ],
      [
        "l",
        "ow"
      ],
      [
        "Ġ",
        "un"
      ],
      [
        "Ġ",
        "Ã¼"
      ],
      [
        "Ħ",
        "ëŀ"
      ],
      [
        "Ħ",
        "ìĹĲ"
      ],
      [
        "ĺ",
        "ìĹĲ"
      ],
      [
        "ľ",
        "ĦìĹĲ"
      ],
      [
        "Ġì",
        "ľĦìĹĲ"
      ],
      [
        "Ġa",
        "bo"
      ],
      [
        "te",
        "r"
      ],
      [
        "Ġbe",
        "low"
      ],
      [
        "Ġìķ",
        "Ħëŀ"
      ],
      [
        "Ġun",
        "ter"
      ],
      [
        "ĠÃ¼",
        "ber"
      ],
      [
        "Ġabo",
        "ve"
      ],
      [
        "ĠìķĦëŀ",
        "ĺìĹĲ"
      ],
      [
        "Ġìĺ¤ë¦¬",
        "ë¥¼"
      ],
      [
        "Ġìĸĳ",
        "ìĿĦ"
      ],
      [
        "ĠìĨĮ",
        "ë¥¼"
      ],
      [
        "°",
        "ì§Ģ"
      ],
      [
        "Ġë°ĺê¸",
        "°ì§Ģ"
      ],
      [
        "ĠíĨłëģ¼",
        "ë¥¼"
      ],
      [
        "Ġì«ĵ",
        "ì§Ģ"
      ],
      [
        "d",
        "lich"
      ],
      [
        "¨",
        "ìª½ìĹĲ"
      ],
      [
        "¶",
        "ģ"
      ],
      [
        "Ĥ",
        "¨ìª½ìĹĲ"
      ],
      [
        "Ġë",
        "¶ģ"
      ],
      [
        "Ġë",
        "Ĥ¨ìª½ìĹĲ"
      ],
      [
        "Ġs",
        "Ã¼"
      ],
      [
        "Ġs",
        "ou"
      ],
      [
        "Ġn",
        "Ã¶"
      ],
      [
        "Ġn",
        "or"
      ],
      [
        "rd",
        "lich"
      ],
      [
        "Ġë¶ģ",
        "ìª½ìĹĲ"
      ],
      [
        "ĠsÃ¼",
        "dlich"
      ],
      [
        "Ġsou",
        "th"
      ],
      [
        "ĠnÃ¶",
        "rdlich"
      ],
      [
        "Ġnor",
        "th"
      ],
      [
        "Ġê³łìĸĳìĿ´",
        "ë¥¼"
      ],
      [
        "Ġê³°",
        "ìĿĦ"
      ],
      [
        "Ġë§Ĳ",
        "ìĿĦ"
      ],
      [
        "ĠìĹ¬ìļ°",
        "ë¥¼"
      ],
      [
        "b",
        "en"
      ],
      [
        "i",
        "ve"
      ],
      [
        "n",
        "f"
      ],
      [
        "v",
        "en"
      ],
      [
        "¼",
        "ê³"
      ],
      [
        "ì",
        "Ħ¯"
      ],
      [
        "Ŀ",
        "¼ê³"
      ],
      [
        "Ġì",
        "Ŀ¼ê³"
      ],
      [
        "Ġë",
        "ĭ¤"
      ],
      [
        "Ã¼",
        "nf"
      ],
      [
        "Ġf",
        "ive"
      ],
      [
        "Ġf",
        "Ã¼nf"
      ],
      [
        "Ġse",
        "ven"
      ],
      [
        "Ġsie",
        "ben"
      ],
      [
        "ĠìĿ¼ê³",
        "±"
      ],
      [
        "Ġëĭ¤",
        "ìĦ¯"
      ],
      [
        "i",
        "er"
      ],
      [
        "Ħ",
        "¤"
      ],
      [
        "Ġë",
        "Ħ¤"
      ],
      [
        "Ġv",
        "ier"
      ],
      [
        "Ġf",
        "ou"
      ],
      [
        "Ġfou",
        "r"
      ],
      [
        "g",
        "ht"
      ],
      [
        "¬",
        "ë"
      ],
      [
        "Ġ",
        "ei"
      ],
      [
        "į",
        "Ł"
      ],
      [
        "Ġa",
        "cht"
      ],
      [
        "ĠìĹ",
        "¬ë"
      ],
      [
        "Ġei",
        "ght"
      ],
      [
        "ĠìĹ¬ë",
        "įŁ"
      ],
      [
        "h",
        "re"
      ],
      [
        "r",
        "ei"
      ],
      [
        "Ġd",
        "rei"
      ],
      [
        "Ġt",
        "hre"
      ],
      [
        "ĠìĦ",
        "¸"
      ],
      [
        "Ġthre",
        "e"
      ],
      [
        "w",
        "o"
      ],
      [
        "w",
        "ei"
      ],
      [
        "z",
        "wei"
      ],
      [
        "Ġ",
        "zwei"
      ],
      [
        "Ġë",
        "ĳĲ"
      ],
      [
        "Ġt",
        "wo"
      ],
      [
        "i",
        "x"
      ],
      [
        "Ġs",
        "ix"
      ],
      [
        "Ġse",
        "chs"
      ],
      [
        "ĠìĹ¬ì",
        "Ħ¯"
      ],
      [
        "ĠHund",
        "e"
      ],
      [
        "Ġdog",
        "s"
      ],
      [
        "ĠPferd",
        "e"
      ],
      [
        "Ġhorse",
        "s"
      ],
      [
        "ĠìĤ¬ìŀĲ",
        "ìĿĺ"
      ],
      [
        "ĠëĭŃ",
        "ìĿĺ"
      ],
      [
        "c",
        "e"
      ],
      [
        "i",
        "ce"
      ],
      [
        "u",
        "se"
      ],
      [
        "Ã¤",
        "use"
      ],
      [
        "ĠM",
        "Ã¤use"
      ],
      [
        "Ġm",
        "ice"
      ],
      [
        "ĠìĨĮ",
        "ìĿĺ"
      ],
      [
        "Ġìĸĳ",
        "ìĿĺ"
      ],
      [
        "ĠEn",
        "ten"
      ],
      [
        "Ġduck",
        "s"
      ],
      [
        "Ġë§Ĳ",
        "ìĿĺ"
      ],
      [
        "Ġse",
        "e"
      ],
      [
        "Ġcat",
        "s"
      ],
      [
        "ĠKat",
        "zen"
      ],
      [
        "Ġê³łìĸĳìĿ´",
        "ìĿĺ"
      ],
      [
        "Ġrabbit",
        "s"
      ],
      [
        "Ġì¥Ĳ",
        "ìĿĺ"
      ],
      [
        "Ġê³°",
        "ìĿĺ"
      ],
      [
        "Ġê°ľ",
        "ìĿĺ"
      ],
      [
        "ĠSchaf",
        "e"
      ],
      [
        "ĠíĨłëģ¼",
        "ìĿĺ"
      ],
      [
        "Ġlion",
        "s"
      ],
      [
        "ch",
        "se"
      ],
      [
        "Ã¼",
        "chse"
      ],
      [
        "ĠF",
        "Ã¼chse"
      ],
      [
        "Ġfox",
        "es"
      ],
      [
        "Ġbear",
        "s"
      ],
      [
        "h",
        "n"
      ],
      [
        "Ã¼",
        "hn"
      ],
      [
        "ĠH",
        "Ã¼hn"
      ],
      [
        "Ġchicken",
        "s"
      ],
      [
        "ĠHÃ¼hn",
        "er"
      ],
      [
        "Ã¼",
        "he"
      ],
      [
        "ĠK",
        "Ã¼he"
      ],
      [
        "Ġcow",
        "s"
      ],
      [
        "ĠìĹ¬ìļ°",
        "ìĿĺ"
      ],
      [
        "Ġìĺ¤ë¦¬",
        "ìĿĺ"
      ]
    ]
  }
}